<pad>	0
<unk>	0
<s>	0
</s>	0
[MASK]	0
▁के	-3.11174
,	-3.26002
।	-3.4883
▁और	-3.5511
▁में	-3.72093
▁है	-3.7632
▁की	-3.97538
▁को	-4.03621
▁से	-4.18126
▁लिए	-4.41338
▁का	-4.54086
▁	-4.67014
▁हैं	-4.67614
▁ने	-4.7503
▁एक	-4.82167
▁पर	-4.84663
▁कि	-4.90001
▁।	-5.02447
▁किया	-5.18317
▁करने	-5.28218
▁भी	-5.34455
▁यह	-5.42795
▁जो	-5.4706
▁साथ	-5.4941
▁इस	-5.50397
-	-5.50503
▁कहा	-5.57168
▁नहीं	-5.57629
ों	-5.66361
▁भारत	-5.69675
:	-5.71723
▁अपने	-5.76363
▁था	-5.76515
▁गया	-5.76943
▁हो	-5.81514
;	-5.84374
▁कर	-5.87674
▁वह	-5.89178
ी	-5.92145
▁,	-5.94234
▁(	-5.96307
▁उन्होंने	-5.96706
▁मंत्री	-5.99687
▁मैं	-6.00397
▁तक	-6.02251
▁दिया	-6.02871
▁सभी	-6.0381
)	-6.0691
▁रूप	-6.11896
े	-6.17903
▁वे	-6.19066
▁श्री	-6.22805
▁लोगों	-6.2428
▁तो	-6.27324
▁द्वारा	-6.3145
▁हुए	-6.33822
▁देश	-6.35325
▁ही	-6.35825
▁हम	-6.37968
▁करते	-6.39109
▁थे	-6.39208
▁आप	-6.40179
▁उसके	-6.43816
▁प्रधान	-6.4458
▁गए	-6.47845
▁जब	-6.50205
▁लेकिन	-6.51766
▁न	-6.52944
▁सरकार	-6.53094
▁उनके	-6.54314
▁अपनी	-6.5548
▁अधिक	-6.56134
ा	-6.56419
▁जा	-6.56519
▁करता	-6.5749
▁उन्हें	-6.59738
▁विकास	-6.60962
▁क्षेत्र	-6.61301
▁या	-6.62508
ने	-6.62773
▁हमारे	-6.63026
▁आज	-6.66345
▁बीच	-6.66968
▁रहा	-6.67606
▁क्योंकि	-6.68255
▁उसे	-6.70465
▁हूं	-6.72725
▁करना	-6.73248
▁गई	-6.74046
▁रहे	-6.74292
▁मंत्रालय	-6.74575
▁मेरे	-6.76534
▁चाहिए	-6.76742
▁तरह	-6.76849
▁जाता	-6.77231
▁दी	-6.78105
▁यहोवा	-6.7842
▁उस	-6.78741
▁पास	-6.79234
▁मुझे	-6.79756
▁तुम	-6.80348
▁समय	-6.81721
▁कुछ	-6.8191
▁काम	-6.83139
▁बाद	-6.83554
▁होगा	-6.84746
▁पहले	-6.85729
▁जाएगा	-6.85868
▁";	-6.8639
▁कोई	-6.86609
▁उसने	-6.87155
▁राज्य	-6.88128
▁भारतीय	-6.88433
▁अब	-6.89979
▁बहुत	-6.90327
▁इन	-6.9134
▁वाले	-6.91389
▁किए	-6.91892
▁सकता	-6.92789
▁थी	-6.93771
▁दो	-6.95706
▁दिन	-6.97035
▁-	-6.97183
▁होने	-6.98254
▁कई	-7.00228
▁उन	-7.00507
.	-7.02638
▁कम	-7.03496
▁प्रदान	-7.03936
▁प्रधानमंत्री	-7.04184
▁मोदी	-7.06505
▁हर	-7.0745
▁माध्यम	-7.07546
?	-7.0761
▁कारण	-7.086
▁इसके	-7.09267
▁करेगा	-7.09705
ित	-7.1094
▁इसलिए	-7.1185
▁योजना	-7.13145
▁राजा	-7.13251
▁स्वास्थ्य	-7.13846
▁क्या	-7.15002
▁सकते	-7.15477
▁करोड़	-7.15612
▁घर	-7.16143
▁बारे	-7.18846
▁ले	-7.19327
▁रही	-7.1957
▁तब	-7.20029
▁किसी	-7.20159
▁अन्य	-7.21106
▁फिर	-7.21235
▁बात	-7.21334
▁लोग	-7.21417
▁सबसे	-7.21874
▁दौरान	-7.23368
▁मैंने	-7.2377
▁दुनिया	-7.24713
▁केंद्रीय	-7.26968
▁राष्ट्रीय	-7.27303
▁वर्ष	-7.27398
▁देने	-7.27617
▁दोनों	-7.28015
▁नरेंद्र	-7.28753
▁इसे	-7.29135
▁हमें	-7.29447
▁जीवन	-7.29511
▁सहयोग	-7.30096
▁करेंगे	-7.30624
▁आगे	-7.32346
▁तहत	-7.33594
▁भगवान	-7.35026
▁निर्माण	-7.35447
▁जैसे	-7.36065
▁शुरू	-7.36314
ं	-7.36604
▁होता	-7.3673
▁पुत्र	-7.36979
उनकी	-7.37053
▁लिया	-7.3813
▁हाथ	-7.38382
▁महत्वपूर्ण	-7.38495
▁हुआ	-7.38564
▁अवसर	-7.39096
▁शामिल	-7.39515
▁ओर	-7.41807
▁COVID	-7.42123
▁साल	-7.42125
▁आपके	-7.42146
▁प्राप्त	-7.42946
▁केंद्र	-7.43424
▁विभिन्न	-7.43717
▁लगभग	-7.44877
▁क्षेत्रों	-7.46391
▁बनाने	-7.46468
▁मजबूत	-7.46591
▁उपयोग	-7.46826
▁करें	-7.47274
▁खिलाफ	-7.47972
▁नई	-7.4925
ता	-7.51723
▁जाने	-7.52077
▁केवल	-7.52201
हमारी	-7.52267
▁देशों	-7.52745
▁पानी	-7.53196
▁विशेष	-7.53299
▁बच्चों	-7.5343
से	-7.5364
▁लाख	-7.54439
▁सेवा	-7.54576
▁तुम्हारे	-7.54878
▁मदद	-7.55876
▁बाहर	-7.56688
▁पिछल	-7.57337
▁पूरा	-7.57784
▁दूर	-7.57851
▁नाम	-7.58571
▁तू	-7.58917
▁आदमी	-7.58928
▁यहाँ	-7.59006
▁ये	-7.59209
▁भूमि	-7.60705
▁उसकी	-7.6074
▁बार	-7.60751
▁रुपये	-7.60936
▁अनुसार	-7.61528
▁सुरक्षा	-7.6233
▁जाती	-7.63505
▁अपना	-7.64032
▁परमेश्वर	-7.65018
▁आवश्यकता	-7.65078
▁उत्तर	-7.65419
▁शहर	-7.65588
▁यदि	-7.65766
▁आपको	-7.66753
▁इंडिया	-7.66807
▁देता	-7.67471
▁पिता	-7.67592
▁नए	-7.67708
▁प्रकार	-7.67837
▁सामने	-7.68098
▁होती	-7.68196
▁हुई	-7.68824
▁यात्रा	-7.69041
▁मेरी	-7.69071
▁सुनिश्चित	-7.69563
▁तीन	-7.69821
▁राष्ट्र	-7.70026
▁अलावा	-7.70472
▁राज्यों	-7.70483
▁जिस	-7.70785
▁लाभ	-7.71112
▁भाग	-7.71323
▁प्रमुख	-7.7135
▁ऊर्जा	-7.71424
-19	-7.71777
▁ध्यान	-7.71818
▁इस्राएल	-7.71824
▁वाली	-7.71866
र	-7.73236
▁हमने	-7.74348
▁बन	-7.74793
▁वर्षों	-7.75772
▁आर्थिक	-7.75824
▁यहां	-7.76322
▁आया	-7.76607
▁पूरी	-7.76694
ऐसा	-7.76832
▁दे	-7.76924
▁दिल्ली	-7.77258
▁बढ़ावा	-7.77319
▁राष्ट्रपति	-7.77323
▁देखा	-7.77551
▁भर	-7.78179
▁मामलों	-7.78301
▁स्थान	-7.7837
▁कृषि	-7.78421
▁प्रौद्योगिकी	-7.78774
▁चार	-7.79239
▁जारी	-7.79541
▁’	-7.79606
▁जिसमें	-7.79832
▁व्यक्ति	-7.8004
▁कार्यक्रम	-7.80636
▁प्रति	-7.8102
▁होगी	-7.81216
▁अगर	-7.81412
न	-7.82197
▁रक्षा	-7.82303
▁विश्वास	-7.83102
▁जाना	-7.84735
▁उद्योग	-7.84963
▁व	-7.85716
ीय	-7.86057
▁व्यापार	-7.86689
▁तुम्हें	-7.87194
▁आने	-7.87494
ियों	-7.87661
▁कहते	-7.88901
▁स्थापित	-7.89375
▁संबंधित	-7.90217
▁ताकि	-7.90311
▁2020	-7.90544
▁तैयार	-7.90954
▁क्षमता	-7.92408
▁दिनों	-7.92692
▁प्रदेश	-7.92776
▁संख्या	-7.92888
▁सुधार	-7.93538
▁बनाया	-7.93712
▁मंदिर	-7.93782
▁स्थिति	-7.94331
▁स्तर	-7.94386
▁जिसक	-7.94725
▁आदि	-7.94757
▁&#39;	-7.94831
▁शिक्षा	-7.95089
▁होंगे	-7.95284
▁याहवे	-7.95372
▁अ	-7.95462
▁कल्याण	-7.95497
▁पीएम	-7.95544
▁आ	-7.96088
▁मंजूरी	-7.96297
▁जल	-7.96348
▁जिसे	-7.96426
▁पूर्व	-7.96582
▁रेलवे	-7.96676
▁बच्चे	-7.96841
▁परिवार	-7.96844
▁जाते	-7.96941
ते	-7.97112
▁वैश्विक	-7.97138
ल	-7.97315
▁फिल्म	-7.97514
▁बढ़ाने	-7.9756
▁बड़ी	-7.97923
▁आए	-7.98019
▁ऊपर	-7.98331
▁तथा	-7.98942
▁कार्यालय	-7.99334
्स	-7.99518
▁वृद्धि	-7.99864
▁डॉ	-7.99873
▁विकसित	-8.00166
▁संयुक्त	-8.00564
▁खुद	-8.00909
▁1	-8.01421
▁करो	-8.01511
▁जैसा	-8.01603
▁पूरे	-8.02113
▁करती	-8.02296
▁प्रयास	-8.03251
▁बल्कि	-8.03284
▁कार्य	-8.03781
▁कुल	-8.03814
ती	-8.03874
▁बैठक	-8.03973
▁दोस्तों	-8.04279
▁महान	-8.05902
▁आयोजित	-8.06082
▁उसका	-8.06587
▁किसानों	-8.06624
▁उच्च	-8.06732
▁बेहतर	-8.06743
▁आवश्यक	-8.07768
▁बना	-8.07813
▁अंतर्राष्ट्रीय	-8.07918
ओं	-8.08417
▁बड़े	-8.08517
▁आधार	-8.08611
▁वित्त	-8.08648
▁शरीर	-8.0877
▁निवेश	-8.09019
▁विश्व	-8.09025
▁ऑफ	-8.09417
की	-8.09583
▁मंत्रिमंडल	-8.1036
▁व्यक्त	-8.10413
▁मेरा	-8.10574
▁जी	-8.10708
।";	-8.10912
▁परीक्षण	-8.11193
▁दिवस	-8.11261
▁नीचे	-8.11842
▁मुख्य	-8.12499
▁आत्मा	-8.12573
▁समर्थन	-8.1262
▁जाए	-8.12647
▁सहायता	-8.1268
▁दिल	-8.12747
▁सम्मेलन	-8.12925
▁याद	-8.12972
▁होना	-8.13606
▁रखा	-8.1362
▁सामाजिक	-8.13687
▁2018	-8.14001
▁सकती	-8.14154
▁सीमा	-8.14297
▁विज्ञान	-8.14617
▁ऐसे	-8.14734
▁रोग	-8.1495
▁होते	-8.15233
▁चिकित्सा	-8.15266
म	-8.1554
▁बढ़	-8.15646
▁सब	-8.15976
▁पृथ्वी	-8.1627
▁जोर	-8.16541
▁3	-8.16544
▁देगा	-8.17251
▁पवित्र	-8.17401
▁उद्देश्य	-8.17463
▁2019	-8.17724
▁बताया	-8.17875
▁योगदान	-8.18096
▁बड़ा	-8.18669
▁उद्घाटन	-8.1877
▁5	-8.19208
▁एव	-8.19723
▁देते	-8.19883
▁शक्ति	-8.19969
▁शांति	-8.20211
▁समझौता	-8.20428
▁कैसे	-8.2076
कर	-8.2101
▁बुनियादी	-8.21394
▁यीशु	-8.21507
▁उपलब्ध	-8.21549
▁इसका	-8.21626
▁सार्वजनिक	-8.21673
▁युवा	-8.2191
▁प्रत्येक	-8.22105
▁करके	-8.22711
▁रखने	-8.22748
▁सहित	-8.2305
▁लेने	-8.23318
▁संबंध	-8.23388
▁सक्षम	-8.23537
▁बिना	-8.2377
▁परियोजना	-8.23874
▁सुविधा	-8.23981
▁हमेशा	-8.23987
▁सिंह	-8.24506
▁मिशन	-8.24709
▁उत्पादन	-8.24735
▁अधिकारियों	-8.24885
▁2	-8.24893
▁10	-8.24989
▁परियोजनाओं	-8.25747
▁दूसरे	-8.25861
▁महीने	-8.2607
▁भूमिका	-8.26985
▁तेरा	-8.27027
▁महिला	-8.27106
▁अध्यक्षता	-8.2718
▁प्रभु	-8.27214
▁बातचीत	-8.27313
▁संबोधित	-8.27313
क	-8.27459
▁हे	-8.27634
▁बनाए	-8.27718
▁दिशा	-8.27736
▁प्रयासों	-8.27987
▁भोजन	-8.28365
▁विचार	-8.28539
▁विभाग	-8.28772
▁अर्थव्यवस्था	-8.28846
▁दाऊद	-8.29413
▁पता	-8.29494
▁महिलाओं	-8.29972
नी	-8.30341
▁पैदा	-8.30885
स	-8.30923
▁नीति	-8.30946
▁प्रबंधन	-8.31554
▁पहल	-8.32193
▁पर्यटन	-8.32582
▁स्थित	-8.32877
▁जहां	-8.33186
▁)	-8.33252
▁भाइयों	-8.33307
▁रु	-8.33539
▁ग्रामीण	-8.3409
▁तेजी	-8.34181
▁चर्चा	-8.34324
▁भविष्य	-8.34594
▁प्रतिशत	-8.34722
▁यहूदा	-8.34973
▁सके	-8.35044
▁अवधि	-8.35058
▁प्रणाली	-8.35274
▁जाएगी	-8.35467
▁डिजिटल	-8.35657
िंग	-8.35752
▁वर्तमान	-8.35785
▁ज्ञापन	-8.35804
▁साझा	-8.35839
▁मार्ग	-8.35958
▁आपकी	-8.36188
▁उनका	-8.36435
▁बधाई	-8.36468
▁रहने	-8.36509
▁निर्णय	-8.36628
▁खुशी	-8.36969
▁अच्छी	-8.37042
▁दें	-8.37796
▁ईश्वर	-8.37875
▁हजार	-8.38032
▁महामारी	-8.38125
▁जगह	-8.38563
▁पुरस्कार	-8.38638
▁अच्छा	-8.3921
▁स्थापना	-8.39219
▁प्रगति	-8.39472
▁रोजगार	-8.39491
▁सूचना	-8.39902
▁कभी	-8.40465
का	-8.4049
▁प्रभाव	-8.41102
▁समाज	-8.412
▁कानून	-8.41609
▁बैंक	-8.41938
▁सौ	-8.42
▁ज्ञान	-8.42246
▁लागू	-8.42379
▁अनुसंधान	-8.42593
▁अलग	-8.42653
▁परिवर्तन	-8.42684
!	-8.42737
▁आम	-8.42961
▁शहरों	-8.42995
▁दर	-8.43257
▁सड़क	-8.4331
▁दृष्टि	-8.43388
▁विस्तार	-8.43583
▁भीतर	-8.43747
▁इसी	-8.44017
िक	-8.44116
▁उल्लेख	-8.44202
▁उनसे	-8.44361
▁प्रकाश	-8.44876
▁घोषणा	-8.45218
▁मानव	-8.45227
साथ	-8.4525
▁सम्मान	-8.45432
▁आज्ञा	-8.456
▁यरूशलेम	-8.45996
▁दूंगा	-8.4606
▁परिवहन	-8.46061
▁वाला	-8.46755
▁किलोमीटर	-8.47038
▁वहाँ	-8.47157
▁जाएंगे	-8.4725
▁मुंबई	-8.47601
▁पहली	-8.47844
▁आपूर्ति	-8.48063
▁हिस्सा	-8.48093
▁मूसा	-8.48382
▁वित्तीय	-8.48662
▁20	-8.48868
▁दिए	-8.49091
▁मामले	-8.49161
▁कदम	-8.49253
▁नदी	-8.49317
▁कमी	-8.49462
▁स्वच्छ	-8.49775
▁समुद्र	-8.49948
▁लेकर	-8.50127
▁प्रक्रिया	-8.50136
▁व्यापक	-8.50623
▁महाराष्ट्र	-8.50758
▁प्रवेश	-8.50904
▁तरीके	-8.51265
▁तेल	-8.51441
▁चला	-8.51478
▁जहाँ	-8.51993
उससे	-8.5208
▁अभियान	-8.52095
▁करूंगा	-8.52155
▁नागरिकों	-8.52297
▁छात्रों	-8.52559
▁धन	-8.5307
▁पालन	-8.53192
▁देना	-8.53367
▁सचिव	-8.53432
▁लागत	-8.53705
▁समारोह	-8.53728
▁जानकारी	-8.54012
▁ई	-8.54215
▁गुजरात	-8.54389
▁किसान	-8.54454
▁दक्षिण	-8.54485
▁-19	-8.54488
▁योग	-8.54626
▁युवाओं	-8.54951
▁गति	-8.55001
),	-8.55242
▁संबंधों	-8.55308
▁सिर	-8.55746
▁महत्व	-8.56122
▁ज्यादा	-8.56468
▁लक्ष्य	-8.56669
▁मूल्य	-8.56829
▁जबकि	-8.56905
▁ह	-8.56934
▁15	-8.57388
▁आपने	-8.57451
▁समर्पित	-8.57522
▁रोगी	-8.5762
▁शुरुआत	-8.57834
▁जि	-8.57839
▁ढांचे	-8.57911
हमारा	-8.57961
▁अभी	-8.58175
▁वीं	-8.5836
▁2017	-8.58366
▁इसमें	-8.58589
▁नष्ट	-8.58704
▁चीजों	-8.58853
▁रेल	-8.58866
▁गरीब	-8.58963
▁वें	-8.59052
▁गृह	-8.59201
▁ठीक	-8.59253
▁तुलना	-8.59561
▁करेगी	-8.59652
▁नेतृत्व	-8.59968
▁बिजली	-8.60069
▁सेवाओं	-8.60375
▁पर्यावरण	-8.61161
▁युद्ध	-8.61252
▁पैर	-8.61325
▁सराहना	-8.61351
▁बदल	-8.61387
▁कौशल	-8.61499
▁छोटे	-8.61641
▁चल	-8.61657
▁मिला	-8.61757
▁निश्चित	-8.61762
▁लाने	-8.61783
▁भाई	-8.61907
▁पहचान	-8.62168
▁इज़राइल	-8.62419
▁कार्यान्वयन	-8.62469
▁जिससे	-8.62604
▁आधारित	-8.63533
▁समीक्षा	-8.63954
▁6	-8.64436
▁गैस	-8.64716
▁जानते	-8.64726
▁प्रभावी	-8.64802
▁देखने	-8.6483
▁पुरुषों	-8.65179
▁सात	-8.65285
▁नेताओं	-8.65319
▁नागरिक	-8.65399
▁ऐसी	-8.6563
▁शासन	-8.65889
▁पीछे	-8.65891
▁खेल	-8.65902
▁4	-8.66061
▁प्रशिक्षण	-8.66139
▁निजी	-8.66244
▁कहता	-8.66334
▁इतन	-8.6647
▁पांच	-8.66903
▁सक्रिय	-8.67176
▁उपराष्ट्रपति	-8.67243
▁देख	-8.67514
▁मन	-8.67967
▁स्वागत	-8.68105
न्होंने	-8.68178
▁जंगल	-8.68471
▁डाला	-8.68538
▁हाल	-8.68765
▁संस्थानों	-8.68793
▁धन्यवाद	-8.68887
▁मुद्दों	-8.69061
▁बाजार	-8.69072
▁मार	-8.69366
▁दर्द	-8.69521
▁30	-8.6957
▁पहुंच	-8.69588
▁तेरे	-8.69756
▁कैबिनेट	-8.70029
▁खाद्य	-8.70041
▁सरकारी	-8.70117
▁संस्थान	-8.70133
▁रखते	-8.70134
▁भागीदारी	-8.70372
▁अतिरिक्त	-8.70382
▁प्राकृतिक	-8.70484
▁पाप	-8.7055
▁12	-8.70579
▁वन	-8.70678
▁न्याय	-8.70697
▁मिस्र	-8.70701
▁साझेदारी	-8.70765
▁उम्मीद	-8.70901
▁भेजा	-8.70966
▁दौरा	-8.70999
▁कल	-8.71262
▁ताकत	-8.71268
▁रात	-8.71338
▁भावना	-8.71414
▁द्विपक्षीय	-8.71628
▁संस्कृति	-8.71646
▁दृष्टिकोण	-8.71721
▁मनुष्य	-8.71917
▁मसीह	-8.71987
▁जिनक	-8.72044
▁रहता	-8.72104
▁छोड़	-8.72197
▁स्थानीय	-8.72274
▁शब्द	-8.72363
▁संसाधन	-8.72453
▁निहारना	-8.72804
▁हस्ताक्षर	-8.73121
▁स्वर्ग	-8.73139
▁मीडिया	-8.73286
▁हवाई	-8.73353
▁आयोग	-8.73452
▁देखते	-8.73748
▁50	-8.73757
▁केंद्रित	-8.73869
▁प्रार्थना	-8.74244
▁प्रदर्शन	-8.74454
▁100	-8.74518
▁स्वच्छता	-8.74524
▁आयोजन	-8.74835
▁स्वतंत्रता	-8.7503
▁आग	-8.75209
▁विरासत	-8.75281
▁मात्रा	-8.75375
▁रक्त	-8.75388
▁राम	-8.75639
▁मांस	-8.7564
▁लगा	-8.75776
▁लगातार	-8.75938
▁समान	-8.76075
▁मर	-8.76114
▁बहनों	-8.76235
▁ऋण	-8.76304
▁बंद	-8.76333
▁गतिविधियों	-8.76684
▁प्रभावित	-8.76814
▁स्थानों	-8.76857
ई	-8.77042
▁चाहते	-8.77066
▁19	-8.77126
▁सफलता	-8.7733
▁मार्च	-8.77733
▁व्यवस्था	-8.77751
▁मह	-8.77934
▁पक्ष	-8.78063
▁सुना	-8.7826
▁रोगियों	-8.78275
▁सुबह	-8.78324
▁लाया	-8.78686
▁प्रतिबद्धता	-8.78689
मी	-8.7872
▁रास्ते	-8.78792
▁अधिनियम	-8.78839
▁लगता	-8.79039
▁अनुभव	-8.79265
▁सामान्य	-8.794
▁संरक्षण	-8.79499
▁समाधान	-8.79888
▁विदेश	-8.80091
▁सेना	-8.80245
▁सदस्य	-8.80338
ें	-8.80445
&#39;	-8.80724
▁मध्य	-8.8079
▁सही	-8.80837
▁अंत	-8.80904
▁तकनीकी	-8.80923
▁विषय	-8.80958
▁मृत्यु	-8.81225
▁काफी	-8.81354
▁अप्रैल	-8.81445
▁जीवित	-8.81536
▁जाओ	-8.81679
▁हूँ	-8.81712
▁योजनाओं	-8.81784
▁गुणवत्ता	-8.81816
▁थीं	-8.8183
▁रहते	-8.82028
▁दूरी	-8.82341
▁घरों	-8.82439
▁देंगे	-8.82511
▁जिन्हे	-8.82579
▁समुदाय	-8.82661
▁सरकारों	-8.82848
▁समूह	-8.82889
▁खरीद	-8.83063
▁प्रोत्साहित	-8.83109
▁देखभाल	-8.83119
▁सुरक्षित	-8.83253
▁नवाचार	-8.83369
▁मिलियन	-8.83516
▁उसी	-8.83884
▁नया	-8.84025
▁जिन	-8.8408
▁मिल	-8.84502
▁उनमें	-8.84541
▁गांधी	-8.84625
▁देखो	-8.84891
▁शिखर	-8.85042
▁जून	-8.85284
▁चुनौतियों	-8.85347
▁अगले	-8.85502
▁मई	-8.85789
▁संभव	-8.85914
िया	-8.86203
▁विदेशी	-8.86259
▁लड़ाई	-8.87006
▁स्वयं	-8.87106
▁समाप्त	-8.87113
▁तुम्हारा	-8.87337
▁बाल	-8.87544
सी	-8.8757
▁आवास	-8.876
▁आते	-8.87617
▁व्यक्तियों	-8.87622
▁अध्यक्ष	-8.87665
▁जैसी	-8.8774
▁वापस	-8.87893
▁पत्थर	-8.87942
▁जवाब	-8.87957
▁खड़ा	-8.88164
▁गरीबों	-8.88203
▁मांग	-8.88337
▁संकल्प	-8.88602
▁मुक्त	-8.88646
▁संचालन	-8.88806
▁वीडियो	-8.89009
▁गैर	-8.89062
▁इतिहास	-8.89084
▁समिति	-8.8912
▁द	-8.89165
▁वर्ग	-8.89703
▁माँ	-8.8992
▁सामना	-8.90086
▁कार्यों	-8.90151
▁घंटे	-8.90305
▁हों	-8.90319
▁7	-8.90443
▁8	-8.90477
▁लॉन्च	-8.90605
▁प्रेरित	-8.90714
▁आग्रह	-8.90733
▁क्यों	-8.90744
▁कोविद	-8.90776
▁अच्छे	-8.90842
▁इकट्ठा	-8.90976
▁24	-8.91167
▁लॉकडाउन	-8.91286
▁निगरानी	-8.91508
▁एंड	-8.91648
▁परिवारों	-8.91843
▁हाथों	-8.91897
▁उपचार	-8.91934
ना	-8.9207
▁मत	-8.92096
▁अस्पताल	-8.92363
▁चाहता	-8.9238
▁बेटे	-8.9238
▁आता	-8.92404
▁वास्तव	-8.92472
सूस	-8.92505
▁निर्धारित	-8.92651
▁भुगतान	-8.92749
▁गिर	-8.92874
▁रंग	-8.93022
▁वचन	-8.93038
▁समझौते	-8.93042
▁दूसरी	-8.93151
▁मंच	-8.93255
▁संपर्क	-8.93925
▁खून	-8.94047
▁दस	-8.94194
▁जमीन	-8.9421
▁अंतिम	-8.94273
▁फल	-8.94457
▁बोलते	-8.9484
▁प्रस्तुत	-8.95057
एँ	-8.95287
▁संगठन	-8.95509
▁भवन	-8.95742
▁सुविधाओं	-8.95922
▁महिमा	-8.96084
▁पश्चिम	-8.96265
▁अधिकारी	-8.96301
▁तलवार	-8.96506
▁आय	-8.96539
▁उत्पादों	-8.96569
▁पर्याप्त	-8.9665
▁तेज	-8.96709
▁जल्द	-8.96849
▁दिखाई	-8.96934
▁सदस्यों	-8.9695
▁जलवायु	-8.97015
▁इच्छा	-8.97026
▁जिलों	-8.97118
▁जान	-8.97243
▁रिपोर्ट	-8.97289
▁स्थल	-8.97322
▁निर्यात	-8.97335
▁आई	-8.97447
▁उचित	-8.97466
▁हालांकि	-8.97593
▁आधुनिक	-8.97647
▁वाणिज्य	-8.97681
▁प्रयोग	-8.97809
▁सूर्य	-8.97991
▁संकट	-8.98167
▁लगाने	-8.98447
▁आशीर्वाद	-8.98516
▁द्वार	-8.9856
▁21	-8.98783
▁वितरण	-8.9887
▁प्यार	-8.99194
▁क्रोध	-8.99224
▁सकारात्मक	-8.9925
▁उदाहरण	-8.99464
▁प्रस्ताव	-8.99561
▁क्षेत्रीय	-8.99561
सारी	-8.99814
▁आसानी	-9.00287
तम	-9.00333
▁गाँव	-9.00614
▁शुभकामनाएं	-9.0065
▁कौन	-9.0068
द	-9.00684
▁वहां	-9.00786
▁बजट	-9.00789
▁हृदय	-9.00898
▁18	-9.01011
▁अंतरिक्ष	-9.01014
▁तरफ	-9.01049
▁25	-9.0129
▁परिषद	-9.01297
▁ए	-9.01342
’	-9.01399
▁खाने	-9.01433
▁उत्पन्न	-9.01492
▁जयंती	-9.01619
▁शाऊल	-9.01621
▁अत्य	-9.01737
▁चले	-9.01738
▁घरेलू	-9.0174
▁खड़े	-9.01744
▁बीमारी	-9.01849
▁सभा	-9.01866
▁जम्मू	-9.02004
▁आवाज	-9.02079
▁सफल	-9.02147
▁स्वीकार	-9.02216
▁विवरण	-9.02343
▁सत्र	-9.02583
▁कंपनियों	-9.02709
▁सी	-9.02748
▁दया	-9.02899
▁वरिष्ठ	-9.03079
▁अनुमति	-9.03198
▁ऐतिहासिक	-9.03199
▁चीजें	-9.03209
▁उपायों	-9.0324
▁प्राचीन	-9.03348
▁बल	-9.0341
▁पेश	-9.03551
▁विचारों	-9.03686
▁बदलाव	-9.03715
▁जन	-9.03818
▁सलाह	-9.03929
▁श्रृंखला	-9.04157
▁लाल	-9.04512
▁निकाल	-9.04608
▁सोने	-9.04747
▁सौर	-9.04906
▁नियमित	-9.05104
▁जिले	-9.05191
▁14	-9.05789
▁पार	-9.05821
▁सेंटर	-9.0613
▁जरूरत	-9.06215
▁गर्व	-9.06447
▁त्वचा	-9.0645
▁ऑनलाइन	-9.06843
▁लें	-9.07018
▁समस्या	-9.07177
▁समृद्ध	-9.07214
▁परिणाम	-9.07248
▁तंत्र	-9.07334
▁निपटने	-9.07476
▁प्रशंसा	-9.07619
▁साफ	-9.07623
▁पहला	-9.0764
ासिल	-9.07902
▁कोशिश	-9.07991
▁पूर्ण	-9.08103
▁मौजूदा	-9.08115
▁संदर्भ	-9.08191
▁हिस्से	-9.08238
▁बनाई	-9.08363
▁मौसम	-9.08372
▁राहत	-9.08377
▁सकें	-9.08499
▁तुझे	-9.085
▁बने	-9.08562
▁आतंकवाद	-9.08589
▁तट	-9.0874
▁जुलाई	-9.09295
▁संचार	-9.09432
▁समुद्री	-9.09478
▁अंतर	-9.09685
▁श्रम	-9.09789
▁कर्मचारियों	-9.0981
▁पुलिस	-9.10049
▁मुंह	-9.10069
▁संशोधन	-9.10135
▁उद्यान	-9.10206
▁बुराई	-9.1047
▁स्पष्ट	-9.10539
▁वैज्ञानिक	-9.10554
▁छह	-9.10607
▁समझ	-9.10782
▁स	-9.10906
▁गंगा	-9.10993
▁बस	-9.11066
▁मूल	-9.11085
▁राष्ट्रों	-9.11091
▁पत्नी	-9.11136
▁कवर	-9.11205
▁नेटवर्क	-9.1124
▁न्यू	-9.11279
जी	-9.11494
n	-9.1152
▁नियंत्रण	-9.11548
▁चुनाव	-9.11823
▁प्रतिक्रिया	-9.11971
▁जानता	-9.11991
▁वायरस	-9.12067
▁आंदोलन	-9.12126
▁चरण	-9.12284
▁आह्वान	-9.12466
▁उठाए	-9.12833
▁नुकसान	-9.12872
▁पेट	-9.13052
▁सा	-9.13091
▁11	-9.13166
▁भारी	-9.1326
▁कनेक्टिविटी	-9.13419
▁पूर्वी	-9.13671
▁पाया	-9.13833
▁कश्मीर	-9.1387
▁टीम	-9.13914
▁प्रसार	-9.13935
▁वायु	-9.14033
▁टन	-9.14069
▁गोवा	-9.14111
▁रखी	-9.14128
▁रहेगा	-9.14391
▁अगस्त	-9.14489
▁लंबे	-9.14521
▁डेटा	-9.14523
▁किस	-9.1461
▁संसद	-9.14613
▁जन्म	-9.14686
▁पाँच	-9.14796
▁शहरी	-9.14797
▁कोरोना	-9.14799
▁9	-9.14802
▁माना	-9.15002
▁पुरुष	-9.15041
▁शब्दों	-9.15043
▁मित्रों	-9.15093
▁अध्ययन	-9.15096
▁जुड़े	-9.15111
▁राजमार्ग	-9.1513
▁ली	-9.15216
▁निकट	-9.15287
▁रखना	-9.15351
▁राजस्थान	-9.15484
▁नगर	-9.15974
▁यही	-9.16079
▁प्रकृति	-9.16316
▁वेदी	-9.16355
▁नौसेना	-9.16605
▁सांस्कृतिक	-9.16635
▁अंदर	-9.16739
▁तुम्हारी	-9.16895
▁आदान	-9.17096
▁विश्वविद्यालय	-9.17098
प्रदान	-9.17211
▁प्रसिद्ध	-9.17219
?";	-9.17292
के	-9.17498
▁वालों	-9.17632
▁मध्यम	-9.17643
▁आँखों	-9.17657
▁पार्क	-9.17763
▁स्वस्थ	-9.17878
▁आसान	-9.18036
▁होकर	-9.18227
▁बोर्ड	-9.18248
▁पैमाने	-9.1844
▁मौजूद	-9.18583
ू	-9.18615
▁आशा	-9.18693
▁जिनमें	-9.18878
▁रोटी	-9.18885
▁पर्यटकों	-9.18941
▁स्टेशन	-9.18969
▁प्राथमिकता	-9.19001
▁आराम	-9.19023
▁दूध	-9.19158
▁भीड़	-9.194
▁घाटी	-9.19417
▁प्रसारण	-9.19453
ंत	-9.19505
▁श्रद्धांजलि	-9.19592
▁जनवरी	-9.19892
▁अक्टूबर	-9.20055
▁दशक	-9.20174
▁डाल	-9.20186
▁बेटी	-9.20204
▁प्रतिबद्ध	-9.20275
▁खोज	-9.20308
▁कान	-9.20769
▁कैंसर	-9.20771
ियाँ	-9.20774
ज	-9.20797
▁अवसरों	-9.20839
▁पेड़	-9.20851
▁बलिदान	-9.20853
▁इलाज	-9.20904
▁मोबाइल	-9.20921
पूर्ण	-9.20947
▁उठा	-9.21041
▁सुझाव	-9.21051
▁खुश	-9.2107
▁सितंबर	-9.21074
▁सप्ताह	-9.21348
▁बिहार	-9.21367
▁तेरी	-9.21493
▁बढ़ा	-9.2168
▁रखें	-9.2182
▁शाह	-9.21862
▁उपाय	-9.21886
▁ब्रिक्स	-9.22265
▁"	-9.22273
▁स्कूल	-9.22362
▁विनिर्माण	-9.22534
s	-9.22599
▁चुके	-9.22616
▁तकनीक	-9.22649
▁अधिकार	-9.22832
▁कला	-9.22849
▁शोक	-9.2301
▁बीज	-9.23201
▁एशिया	-9.23277
▁जीएसटी	-9.23341
त	-9.23375
▁स्वामी	-9.23384
▁नेशनल	-9.23491
▁प्र	-9.23537
▁मुख्यमंत्री	-9.2374
▁हालाँकि	-9.23887
▁मिलकर	-9.23923
▁हवा	-9.2401
▁चेहरे	-9.24347
ए	-9.24407
▁माल	-9.24492
▁सर्वेक्षण	-9.24601
▁रास्ता	-9.24654
▁गंभीर	-9.24743
▁संदेश	-9.24747
▁औद्योगिक	-9.24797
▁बढ़ाया	-9.24952
▁गांवों	-9.25072
▁संक्रमण	-9.25099
▁उप	-9.25191
▁संसाधनों	-9.25381
▁विशाल	-9.25503
▁लगे	-9.25538
▁जागरूकता	-9.25726
▁अधर्म	-9.25966
▁दूसरा	-9.26031
इनमें	-9.26161
▁हिस्सों	-9.26334
▁महात्मा	-9.26343
▁कमजोर	-9.26485
▁चाहे	-9.26518
▁लाभार्थियों	-9.26642
री	-9.26674
▁पत्र	-9.269
▁लेते	-9.26911
▁भाषण	-9.26952
▁पद	-9.27024
▁आबादी	-9.27124
▁संभावना	-9.2723
▁परेशान	-9.27269
▁वितरित	-9.27422
▁पुजारी	-9.27423
▁उपस्थिति	-9.2743
▁सेवन	-9.27456
▁सिर्फ	-9.2761
▁संघ	-9.27667
▁स्मारक	-9.27749
▁16	-9.27834
";	-9.27854
▁उत्पाद	-9.27953
▁बिलियन	-9.28051
▁सम्मानित	-9.28078
▁रख	-9.28196
▁उम्र	-9.28216
▁लिखा	-9.28229
▁ग्राम	-9.28296
▁झील	-9.28334
▁नवंबर	-9.28393
▁देती	-9.28511
▁पुराने	-9.28536
▁लो	-9.28714
▁आनंद	-9.28845
▁घोषित	-9.28866
▁ब	-9.28869
गत	-9.28959
▁करीब	-9.29081
▁सेवक	-9.29306
▁गर्म	-9.29398
▁पड़	-9.29472
▁मुझसे	-9.29535
▁निवास	-9.29823
▁निकल	-9.29946
▁उपस्थित	-9.29951
▁म	-9.29975
▁एकीकृत	-9.30256
ि	-9.30566
▁अभ्यास	-9.30605
▁जिला	-9.30683
▁कपड़े	-9.30766
▁मीटर	-9.30833
ो	-9.30859
▁सीधे	-9.30935
▁परामर्श	-9.30958
▁शुल्क	-9.30987
▁उर्वरक	-9.31094
▁शीर्ष	-9.31216
▁राशि	-9.31252
▁तुमने	-9.31291
▁मैदान	-9.31616
▁समृद्धि	-9.31761
▁स्थायी	-9.32018
▁रखता	-9.32126
▁मिलेगी	-9.32236
▁प्रसाद	-9.32259
▁Indias	-9.324
▁शाम	-9.32639
▁वस्तुओं	-9.32743
▁मुझ	-9.33131
▁बनाना	-9.33452
ट	-9.33496
▁अनुरोध	-9.33557
▁मिलेगा	-9.33726
▁बजे	-9.33741
▁उपकरण	-9.3388
▁समस्याओं	-9.33931
▁जापान	-9.33941
▁2016	-9.34055
▁राजाओं	-9.3417
ब	-9.34194
▁याजक	-9.34213
▁पुत्रों	-9.34371
▁मेडिकल	-9.34434
▁केंद्रों	-9.34889
▁लड़ने	-9.34925
▁अमेरिका	-9.34985
▁ऐप	-9.35076
▁पड़ता	-9.35147
▁निरंतर	-9.35522
▁धर्म	-9.35539
▁लक्षण	-9.35746
▁तय	-9.35748
▁लगाया	-9.35755
▁स्मार्ट	-9.35772
▁कार्यक्रमों	-9.36362
▁2014	-9.36502
▁भारतीयों	-9.36815
▁जांच	-9.36946
▁करोगे	-9.36977
▁अफ्रीका	-9.37008
▁हाँ	-9.37228
▁श्रीमती	-9.37317
▁माता	-9.37346
▁पहाड़ी	-9.37501
▁स्टार्ट	-9.37661
▁चीज	-9.3797
▁सहमत	-9.37975
▁कार्रवाई	-9.38158
▁2022	-9.38166
▁संगठनों	-9.38166
▁पर्वत	-9.38309
▁सिस्टम	-9.38377
▁निम्नलिखित	-9.38507
▁कंपनी	-9.38515
▁रहती	-9.38539
▁गुरु	-9.38571
▁राजनीतिक	-9.38601
▁बंगाल	-9.38617
कड़ी	-9.38912
▁शराब	-9.38942
▁रह	-9.38955
▁13	-9.39027
▁पीढ़ी	-9.39045
▁पोषण	-9.39277
▁सदी	-9.39398
▁काट	-9.39472
▁चुनौती	-9.39552
▁घृणा	-9.39562
▁पूजा	-9.39629
▁पहुँच	-9.39644
▁फिल्मों	-9.39938
▁प्रावधान	-9.40103
▁तमिलनाडु	-9.40117
▁हारून	-9.40124
▁रणनीतिक	-9.40162
▁31	-9.40172
▁तलाश	-9.40431
▁मौत	-9.40443
▁दवाओं	-9.40659
▁रोकने	-9.40708
▁इस्तेमाल	-9.40808
▁महामहिम	-9.40809
▁वाचा	-9.40812
▁कराया	-9.40817
▁पीड़ित	-9.40832
▁प्रवासी	-9.4086
▁कुशल	-9.40975
"	-9.41006
▁बीमा	-9.41134
▁किनारे	-9.41203
▁जरूर	-9.41408
▁आओ	-9.41436
▁दवा	-9.41481
▁नायडू	-9.41527
▁सामग्री	-9.41543
अप	-9.41651
▁पोर्टल	-9.41788
▁लघु	-9.41897
▁17	-9.4199
न्वित	-9.42012
▁भेंट	-9.42069
▁सचिवालय	-9.42252
▁पुष्टि	-9.42434
▁जनता	-9.42512
▁लग	-9.42521
▁खा	-9.42562
▁जीत	-9.42625
▁परिणामस्वरूप	-9.42797
▁मॉडल	-9.42824
▁आसियान	-9.43046
▁बावजूद	-9.4353
▁कहीं	-9.43601
▁निर्देश	-9.43699
▁केरल	-9.43748
▁हर्षवर्धन	-9.43899
य	-9.43962
▁बढ़ने	-9.44005
▁बलों	-9.44049
▁आयात	-9.44364
▁बदलने	-9.44386
▁योग्य	-9.44403
▁खाते	-9.4449
▁पेंशन	-9.44593
▁आती	-9.44595
▁उपभोक्ता	-9.44647
▁उ	-9.44718
▁उपकरणों	-9.44841
▁याकूब	-9.45016
▁आकार	-9.45033
▁समग्र	-9.45387
▁बाबुल	-9.45388
▁निर्मित	-9.45506
▁बुलाया	-9.45576
▁पीने	-9.45937
▁अस्पतालों	-9.45979
पूर्वक	-9.45996
▁मिली	-9.46021
▁मिलता	-9.46051
▁आमंत्रित	-9.4614
▁शुद्ध	-9.46512
▁विशिष्ट	-9.46539
▁सारे	-9.46775
▁उसमें	-9.46931
▁वास्तविक	-9.46998
▁च	-9.47006
▁सीओवीआईडी	-9.47158
▁व्यक्तिगत	-9.47166
▁दर्शन	-9.47274
▁दिसंबर	-9.47309
▁छोटी	-9.47406
▁मास्क	-9.47486
▁रोगों	-9.47628
▁ओडिशा	-9.47872
▁निदेशक	-9.48092
▁मिलने	-9.48307
▁ट्रेन	-9.48378
▁आपदा	-9.48824
▁नींव	-9.49014
▁आसपास	-9.49211
▁धार्मिकता	-9.49249
▁जिम्मेदारी	-9.49382
▁संग्रहालय	-9.49444
▁लिमिटेड	-9.496
▁लोकतंत्र	-9.49604
पन	-9.49703
▁हजारों	-9.49876
▁वजह	-9.49997
▁पारंपरिक	-9.50223
▁40	-9.50238
▁खर्च	-9.50299
▁रिकॉर्ड	-9.50352
▁श्रमिकों	-9.50381
▁यात्रियों	-9.50784
▁आयुष	-9.50812
▁लोक	-9.50928
▁वातावरण	-9.50977
▁मान्यता	-9.51162
▁प्रशासन	-9.51195
▁जल्दी	-9.5129
ह	-9.51315
▁सुलैमान	-9.51384
▁रहें	-9.51605
▁अनुकूल	-9.51741
▁कार्ड	-9.5178
▁जितन	-9.51788
▁वार्षिक	-9.51866
▁तुरंत	-9.51978
▁जोखिम	-9.52027
▁लाइन	-9.52067
▁22	-9.52076
▁आकर्षित	-9.52173
▁पोर्ट	-9.5227
▁लाखों	-9.52271
▁कह	-9.52285
▁फसल	-9.52431
▁भाषा	-9.52521
▁माननीय	-9.52782
▁डर	-9.53016
▁वाराणसी	-9.53222
▁आदेश	-9.53242
▁ऊँचाई	-9.53391
▁प्रेरणा	-9.53465
▁देखी	-9.53551
▁पैकेज	-9.53567
▁कुमार	-9.53576
▁अमित	-9.53862
▁यानी	-9.53905
▁सर्वश्रेष्ठ	-9.53995
▁आवश्यकताओं	-9.53996
▁75	-9.54102
▁समूहों	-9.54105
▁संकेत	-9.54258
▁दर्ज	-9.54377
▁गडकरी	-9.5441
▁शानदार	-9.54412
▁निभा	-9.54446
▁सुंदर	-9.54477
▁अंतरराष्ट्रीय	-9.54613
▁फॉर	-9.54636
▁सूची	-9.54838
ीन	-9.54852
▁70	-9.54913
▁झूठ	-9.55089
▁बनी	-9.5517
▁कर्नाटक	-9.55251
▁व्यवसाय	-9.55286
▁बचा	-9.55304
▁रणनीति	-9.55335
▁नि	-9.55433
▁गठन	-9.5544
▁मेट्रो	-9.55623
▁शुभारंभ	-9.55643
▁तुझ	-9.55644
▁आदिवासी	-9.55649
▁पड़ा	-9.5582
▁मुद्दे	-9.55851
▁डॉलर	-9.55861
▁रहना	-9.55875
▁हितधारकों	-9.55895
▁छात्र	-9.56141
▁कर्मियों	-9.56158
▁उद्यम	-9.56243
▁परिसर	-9.56269
▁फरवरी	-9.56289
▁सहायक	-9.56548
▁सामूहिक	-9.56631
▁संस्करण	-9.56721
▁सतत	-9.56722
▁आश्वासन	-9.56898
▁एमएसएमई	-9.56912
▁चुका	-9.56928
▁बैंकों	-9.5694
▁जहाज	-9.56987
▁वैज्ञानिकों	-9.57028
▁अनुमान	-9.57237
▁अरब	-9.57252
▁विरुद्ध	-9.57318
▁कोयला	-9.5733
▁दीवार	-9.57629
▁मिले	-9.57649
▁आएगा	-9.57751
▁संचालित	-9.57789
▁खाना	-9.57926
▁पेशकश	-9.57954
▁राज	-9.57956
▁पलिश्तियों	-9.57959
▁बाकी	-9.5796
▁उठाया	-9.57961
▁सहमति	-9.5797
▁सड़कों	-9.57988
▁विविधता	-9.58023
▁वही	-9.58025
▁जैव	-9.58157
▁विधेयक	-9.58167
▁लेंगे	-9.58171
▁बातें	-9.58329
▁विस्तृत	-9.58385
तः	-9.58783
▁मना	-9.58784
▁उपलब्धता	-9.58813
▁जोड़ने	-9.58927
▁लौट	-9.58945
▁चुना	-9.59203
▁आधारशिला	-9.59241
▁द्वीप	-9.5933
▁औषधि	-9.5937
▁लेना	-9.59452
▁सशक्त	-9.59456
▁हरियाणा	-9.59471
▁जमा	-9.59654
▁सशस्त्र	-9.59669
▁प्रदर्श	-9.5967
▁मेहनत	-9.59832
▁खत्म	-9.59885
▁चिंता	-9.60068
▁मील	-9.60133
▁म्यांमार	-9.60148
▁शिकायत	-9.60197
▁2019-20	-9.60231
▁उठाने	-9.60299
मैं	-9.604
▁बाढ़	-9.6054
▁व्यवहार	-9.60543
▁26	-9.60572
▁बातों	-9.60623
▁शिकार	-9.60695
शासित	-9.60756
▁एयर	-9.60767
▁खुले	-9.60779
▁पुस्तक	-9.60848
▁सुधारों	-9.60854
▁मुफ्त	-9.60975
▁तोड़	-9.6118
▁सुनी	-9.6119
▁कहना	-9.61208
▁वजन	-9.61272
▁तरीकों	-9.61272
स्तरीय	-9.61339
▁संबंधी	-9.61435
▁पड़ोसी	-9.61685
▁महीनों	-9.6169
▁संग्रह	-9.61931
▁असम	-9.62063
▁बारह	-9.621
▁ईंधन	-9.62106
▁बीस	-9.62131
▁60	-9.62243
▁2018-19	-9.62272
▁अटल	-9.62312
▁लकड़ी	-9.62314
▁आकाश	-9.62528
▁चलने	-9.62667
▁प्रत्यक्ष	-9.62947
▁अनेक	-9.62967
▁प्रसंस्करण	-9.62999
▁राजधानी	-9.63191
▁पहाड़	-9.63255
▁प्रेम	-9.63307
▁बनाता	-9.63455
▁चीन	-9.63519
▁मुलाकात	-9.63638
▁मानना	-9.6371
▁एम	-9.63842
▁परीक्षा	-9.63845
▁उत्साह	-9.63977
▁धर्मी	-9.64002
▁बैल	-9.64095
▁सस्ती	-9.64319
▁हल	-9.64351
▁लाभा	-9.64385
▁समन्वय	-9.64471
अलग	-9.64511
▁खूबसूरत	-9.64542
▁गौरव	-9.64604
▁आना	-9.64627
▁किमी	-9.64729
▁शारीरिक	-9.6477
▁देवी	-9.64771
▁डेविड	-9.65018
▁पोस्ट	-9.65102
▁मिलाकर	-9.65303
▁यहुवे	-9.65531
▁मिनट	-9.65688
▁स्थिरता	-9.65727
▁दास	-9.65786
▁नेपाल	-9.65883
▁भरोसा	-9.65915
▁प्रतिनिधियों	-9.65929
▁जरूरतों	-9.66085
▁सेट	-9.66144
▁दाहिन	-9.66147
▁कनेक्शन	-9.6615
▁अधिकांश	-9.66154
▁मंत्रियों	-9.6617
▁आपसे	-9.66264
▁खंड	-9.66341
▁नामक	-9.66344
▁वाणी	-9.66385
▁28	-9.66442
▁बढ़ते	-9.66508
▁गहरा	-9.66525
▁ला	-9.66585
▁मतलब	-9.66845
▁घंटों	-9.66854
▁नियम	-9.66881
▁निवासियों	-9.66898
▁पर्यटक	-9.6696
▁जोड़	-9.6702
▁सृजन	-9.67078
▁अर्प	-9.67084
▁चीनी	-9.67118
व	-9.67186
▁नियुक्त	-9.67233
▁सर्व	-9.67275
▁झारखंड	-9.67314
▁बढ़त	-9.67444
▁आयु	-9.67509
▁यहूदियों	-9.67541
▁यहोशू	-9.67776
▁लंबी	-9.67801
▁फंड	-9.67814
▁आवाज़	-9.67997
▁पीढ़ियों	-9.68007
▁दिमाग	-9.68017
▁फोन	-9.68038
▁अपील	-9.68248
▁सपने	-9.68248
▁बुद्धिमान	-9.68367
▁प्रतीक	-9.68478
▁संबोधन	-9.68478
▁भ्रष्टाचार	-9.68482
▁आठ	-9.68504
▁उत्कृष्ट	-9.6866
▁गुना	-9.68726
▁संघर्ष	-9.69077
▁कठिन	-9.69185
▁स्रोत	-9.6935
▁भेज	-9.69435
▁बेटों	-9.69448
▁अशुद्ध	-9.69584
▁जोड़ा	-9.69648
▁छोटा	-9.69686
▁स्वतंत्र	-9.69746
▁मूल्यांकन	-9.69976
▁बेटा	-9.70173
नीय	-9.70236
▁उपयुक्त	-9.70329
▁दृढ़	-9.70331
▁सूक्ष्म	-9.70393
▁दर्शात	-9.70476
in	-9.70597
▁गणराज्य	-9.70626
▁परमाणु	-9.70627
▁चयन	-9.70629
▁ड	-9.70857
अथवा	-9.7087
▁संविधान	-9.70878
▁पुणे	-9.70891
▁मेक	-9.70976
▁गलत	-9.71092
▁फैला	-9.71094
▁प्रसन्न	-9.71134
▁याह्वेह	-9.71152
▁आईटी	-9.71229
▁सत्य	-9.71232
▁मिलती	-9.71429
,000	-9.71466
▁मुद्रा	-9.71634
▁मानसिक	-9.7179
▁प्रथाओं	-9.71844
▁नौकर	-9.71929
▁पूंजी	-9.71981
▁रहेंगे	-9.7209
▁सेवकों	-9.72127
▁छूट	-9.72134
▁बांग्लादेश	-9.72155
▁लेवियों	-9.72336
▁2015	-9.72369
▁आकर	-9.72397
▁गवाही	-9.72513
▁ढांचा	-9.72575
▁हित	-9.72795
▁तत्काल	-9.72879
▁फ्रांस	-9.72884
▁दुष्ट	-9.72888
▁सुविधाएं	-9.73087
▁बचाने	-9.73226
▁पेट्रोलियम	-9.73316
▁बी	-9.7334
▁दूत	-9.73358
▁बिल	-9.73456
▁निगम	-9.73472
▁प्रतिनिधिमंडल	-9.73564
▁अवगत	-9.73566
▁धन्य	-9.73631
▁मरीज	-9.73714
▁संशोधित	-9.73816
▁आयुष्मान	-9.73849
▁पहुँचा	-9.7392
▁डॉक्टर	-9.7396
▁तीसरे	-9.74068
▁अर्थ	-9.74069
▁नजर	-9.74072
▁क्रेडिट	-9.74081
▁झुंड	-9.74213
▁लोकप्रिय	-9.74312
▁आकर्षण	-9.74313
▁परन्तु	-9.74321
▁रसायन	-9.7433
▁खास	-9.7442
▁प्रतिष्ठित	-9.74569
▁शक्तिशाली	-9.74601
▁बजाय	-9.74667
▁परंपरा	-9.74692
▁सीमित	-9.74819
▁निर्माता	-9.75039
▁श्रीलंका	-9.75084
▁चट्टान	-9.75361
▁पकड़	-9.75459
▁आजादी	-9.75615
धिक	-9.75721
▁किले	-9.75735
▁शिविर	-9.75987
▁कॉलेज	-9.75991
▁डाक	-9.76012
▁अन	-9.76077
▁नवीकरणीय	-9.76085
▁बच	-9.76261
▁साबित	-9.76335
▁भंडारण	-9.76336
▁कहो	-9.76352
▁बीमारियों	-9.76367
▁पसंद	-9.76377
▁बेह	-9.76453
▁प्रतियोगिता	-9.76559
▁इंस्टीट्यूट	-9.76568
▁अड्डे	-9.76592
▁एजेंसियों	-9.76597
▁होटल	-9.76602
▁यात्री	-9.76614
▁सैनिकों	-9.76711
▁कल्पना	-9.76784
▁विशेषज्ञों	-9.76864
▁दुख	-9.7695
▁पहाड़ों	-9.76988
▁पीछ	-9.76999
▁प्रचार	-9.77072
▁फैसला	-9.77105
▁सामुदायिक	-9.77113
▁बढ़कर	-9.7724
▁मिट्टी	-9.7737
▁सिंगापुर	-9.77402
▁कहानी	-9.77417
▁सवाल	-9.77426
▁तनाव	-9.77512
▁सह	-9.77566
▁युग	-9.77615
▁आएंगे	-9.77624
▁200	-9.77641
▁प्रवाह	-9.77645
i	-9.7773
को	-9.77857
▁सुनो	-9.7793
▁बोझ	-9.7799
▁महल	-9.7808
वीं	-9.78089
▁दरवाजे	-9.78139
▁दैनिक	-9.78139
d	-9.78178
▁मल	-9.78261
▁सरल	-9.78372
▁अमेरिकी	-9.78449
▁बौद्ध	-9.78543
▁खेती	-9.78652
▁पचास	-9.78668
NITI	-9.78923
▁सन्दूक	-9.78924
▁क	-9.79104
▁दान	-9.79179
▁दिखाया	-9.79196
▁वाहन	-9.79385
▁शांत	-9.79447
▁परियोजनाएं	-9.79468
▁शताब्दी	-9.79484
▁देर	-9.79515
▁मूल्यों	-9.79577
▁संरचना	-9.79588
▁23	-9.79624
▁रोड	-9.79626
श	-9.79647
▁जाऊंगा	-9.79725
▁प्रयोगशालाओं	-9.79728
▁करे	-9.79756
▁डॉक्टरों	-9.79815
▁गोयल	-9.79976
▁सिंहासन	-9.79996
▁पारस्परिक	-9.80191
▁हिमाचल	-9.80263
▁डिजाइन	-9.80352
▁पुरानी	-9.80517
▁बादल	-9.80526
▁बता	-9.80632
▁काल	-9.80679
▁जाँच	-9.80786
▁राजस्व	-9.80794
▁दाँत	-9.80815
▁150	-9.80968
▁पा	-9.81015
▁घटना	-9.81019
▁बचाव	-9.8105
▁आंध्र	-9.81068
▁साथी	-9.81073
▁पाठ्यक्रम	-9.81236
▁Aayog	-9.81311
▁विटामिन	-9.81312
▁सहकारी	-9.81342
▁बुद्ध	-9.81478
▁500	-9.81481
A	-9.81575
ला	-9.81576
▁कॉन्फ्रेंस	-9.8161
u	-9.81652
▁रेखांक	-9.81725
▁पंजाब	-9.81841
▁महोत्सव	-9.8185
▁लोकसभा	-9.81857
भारत	-9.8191
▁उड़ान	-9.81937
▁नियमों	-9.81981
▁देकर	-9.82063
▁शपथ	-9.82118
▁स्त्री	-9.82118
▁नींद	-9.82118
▁देवताओं	-9.82204
▁खान	-9.8235
▁मुँह	-9.82357
▁प्रदर्शनी	-9.82396
▁दोष	-9.82424
▁मानक	-9.82562
▁प्रोत्साहन	-9.82574
▁पाए	-9.82608
▁पी	-9.82829
▁सोच	-9.82851
▁जानवर	-9.82865
ली	-9.82936
▁दूसरों	-9.8294
▁सफेद	-9.82948
▁बच्चा	-9.82948
▁समावेशी	-9.83017
▁2017-18	-9.83208
▁क्रांति	-9.83209
▁न्यूनतम	-9.83226
▁प्रेस	-9.83274
▁जुड़ा	-9.83331
▁रस	-9.83366
▁तौर	-9.83395
▁मानते	-9.83498
▁सलाम	-9.83523
▁अप	-9.83765
▁भरा	-9.83966
▁इकाइयों	-9.84031
▁मधुमेह	-9.84035
▁भेड़	-9.84128
▁कामों	-9.84183
▁एकता	-9.84189
▁चलता	-9.84215
▁फाउंडेशन	-9.84307
▁पटेल	-9.84307
▁निधन	-9.84308
▁चेहरा	-9.84319
▁नाथ	-9.84379
▁गर्भ	-9.84411
▁जाकर	-9.84475
▁पहलों	-9.84513
▁शिशु	-9.84551
▁कवरेज	-9.84587
▁बिजनेस	-9.84612
▁इजरायल	-9.84622
▁सेवाएं	-9.8463
▁निर्माताओं	-9.8464
▁नरेन्द्र	-9.84862
▁सूचित	-9.84871
▁सिंचाई	-9.84871
▁29	-9.8504
▁परिचालन	-9.85059
▁पति	-9.85142
▁मालदीव	-9.85155
▁कराने	-9.85181
▁?	-9.85185
▁आनन्दित	-9.85468
▁उद्यमियों	-9.85485
▁वैसे	-9.85489
▁लक्ष्यों	-9.85559
▁अद्भुत	-9.857
▁तथ्य	-9.85704
▁साइबर	-9.85707
!";	-9.85739
▁मारा	-9.8588
▁मार्गदर्शन	-9.85983
▁मानवता	-9.86053
▁देखता	-9.86157
पूर्वोत्तर	-9.86235
▁उद्धार	-9.86466
▁गुजर	-9.86467
▁ट्रेनों	-9.86488
▁सिनेमा	-9.86547
▁बिक्री	-9.86552
▁नवीन	-9.86618
▁जहाजों	-9.86729
ात्मक	-9.86782
▁धूप	-9.8683
▁पुल	-9.86833
▁बेटियों	-9.86843
▁सोशल	-9.86846
▁त्याग	-9.86867
▁चलते	-9.86962
▁मद्देनजर	-9.87113
▁बंधन	-9.87162
▁उद्योगों	-9.87172
▁बचत	-9.87268
▁उत्तराखंड	-9.87409
▁मित्र	-9.87422
▁उजाड़	-9.87683
▁ग्लोबल	-9.87703
▁पारित	-9.87872
▁कदमों	-9.87924
▁पूछा	-9.88006
▁खराब	-9.88007
▁थोड़ा	-9.88012
▁पॉल	-9.88037
▁निभाई	-9.88281
▁धारा	-9.88287
▁मौक	-9.88319
▁टूट	-9.88477
▁प्रौद्योगिकियों	-9.88547
▁समापन	-9.88551
▁खेत	-9.88593
▁स्टेशनों	-9.88664
▁किट	-9.88704
▁कॉर्पोरेट	-9.88816
▁कपड़ा	-9.88835
▁स्थिर	-9.89072
▁आश्चर्य	-9.89125
▁श्रेणी	-9.89134
▁दुष्टों	-9.89249
पुर	-9.89274
▁27	-9.89408
▁चोट	-9.89462
▁रोकथाम	-9.89471
▁अपराध	-9.89472
▁प्रस्तावित	-9.8962
▁धीरे	-9.89701
▁फिरौन	-9.89708
▁गहरी	-9.8971
▁चिह्नित	-9.89718
▁शेर	-9.89855
यह	-9.8994
▁वाहनों	-9.90107
टी	-9.9015
▁प्राधिकरण	-9.90236
▁``	-9.9037
या	-9.90385
शील	-9.90394
▁जाया	-9.9045
▁o	-9.90469
▁प्यारे	-9.90516
▁संपत्ति	-9.90553
▁बेच	-9.90614
▁प्रतिमा	-9.90624
▁उन्नत	-9.90887
▁राजनाथ	-9.90892
▁भूटान	-9.90908
▁जाति	-9.90979
▁कीमत	-9.91001
▁पंजीकरण	-9.91184
▁90	-9.91194
▁निकाला	-9.91216
▁पदक	-9.91231
शन	-9.91295
▁व्यावसायिक	-9.91434
▁80	-9.9157
▁दक्षता	-9.91781
▁नियंत्रित	-9.91801
▁रोक	-9.91874
थ	-9.91882
▁IFFI	-9.91883
एक	-9.92039
▁टिकट	-9.92082
▁अनिवार्य	-9.92213
ंग	-9.92245
▁पाने	-9.92268
▁चांदी	-9.92372
▁दृश्य	-9.92579
▁PM	-9.92594
▁सर्वोच्च	-9.92612
कभी	-9.92634
▁मुकाबला	-9.9267
▁फायदा	-9.92673
▁फुट	-9.92701
▁देवता	-9.92716
▁जिम्मेदार	-9.92819
▁विकल्प	-9.92923
▁उपहार	-9.92925
▁जुड़ी	-9.92934
▁अभिषेक	-9.92971
▁आजीविका	-9.92972
▁संगीत	-9.93021
▁बनाते	-9.93198
▁बर्तन	-9.93221
▁अधीन	-9.93273
▁सरदार	-9.93284
▁बहु	-9.93289
▁हिंसा	-9.93298
▁नेता	-9.93317
▁बहादुर	-9.93336
▁आवेदन	-9.93577
▁अक्सर	-9.93577
▁एप्रैम	-9.93882
▁कोविंद	-9.94184
▁अनावरण	-9.94186
▁दोहराया	-9.94188
▁मनाया	-9.94192
▁जुड़	-9.94339
▁खो	-9.94345
▁स्वीकृति	-9.94376
वी	-9.94388
▁वाणिज्यिक	-9.94566
▁प्रक्रियाओं	-9.94621
▁धार्मिक	-9.94745
▁स्वर्ण	-9.94801
▁लंबाई	-9.94822
▁जानवरों	-9.94881
▁तीस	-9.94935
▁एमओयू	-9.95077
▁तारीख	-9.95093
▁बीमार	-9.95191
▁पत्थरों	-9.95194
▁भूल	-9.9521
▁गरीबी	-9.95247
बी	-9.95312
▁अनुरूप	-9.95413
▁ढंग	-9.95418
▁35	-9.9552
▁विषयों	-9.95576
▁बांध	-9.95581
▁महानिदेशक	-9.95728
▁मोआब	-9.95728
▁प्रतिनिधित्व	-9.95729
▁वस्त्र	-9.95751
▁मणिपुर	-9.95767
▁निंदा	-9.9577
▁I	-9.9577
▁वि	-9.96034
▁रखेंगे	-9.96039
▁सेक्टर	-9.96066
▁भागीदार	-9.96355
▁नमक	-9.9638
▁पृष्ठभूमि	-9.96658
▁प्रणालियों	-9.96658
▁फैसले	-9.96659
▁आँखें	-9.96665
▁लद्दाख	-9.96724
▁बेड	-9.9689
▁लेता	-9.96897
▁समर्पण	-9.96976
▁प्रमाण	-9.96998
▁देव	-9.97171
▁क्षमताओं	-9.97209
कारी	-9.97216
▁वसूली	-9.97346
▁खतरा	-9.97354
▁मानकों	-9.97373
▁एन	-9.97401
क्या	-9.97571
▁होमबलि	-9.97603
धीरे	-9.97609
▁प्रदेशों	-9.97765
▁अंग	-9.97863
▁पारदर्शिता	-9.97917
▁बारिश	-9.97952
▁सहन	-9.98125
▁खाद्यान्न	-9.98201
▁हटा	-9.98232
▁तरीका	-9.98235
▁अरुणाचल	-9.9824
▁सपनों	-9.98249
▁भव्य	-9.98499
▁कितना	-9.98554
▁आंतरिक	-9.98558
▁कर्मचारी	-9.98561
19	-9.98629
▁उपज	-9.9863
▁बाहरी	-9.98698
▁शेष	-9.98792
▁दिशानिर्देशों	-9.98806
▁कोरिया	-9.98845
▁ब्याज	-9.98875
▁तम्बू	-9.98878
▁गुफा	-9.99145
▁जाओगे	-9.99197
▁शिक्षकों	-9.99199
▁देखना	-9.99243
▁पश्चिमी	-9.9928
▁रूस	-9.99376
▁पदार्थ	-9.9948
▁कोलकाता	-9.99532
▁तैनात	-9.99568
▁प्रोटोकॉल	-9.99842
▁छत्तीसगढ़	-9.99854
एमओयू	-9.99867
▁अंग्रेजी	-9.99956
▁जय	-10.0004
▁उत्सव	-10.0017
▁लाए	-10.0022
▁बैंकिंग	-10.0034
▁यूरोपीय	-10.0038
▁प्राथमिक	-10.0045
▁प्रकट	-10.0048
▁अपवित्र	-10.0049
▁पहलुओं	-10.0049
▁स्थलों	-10.0049
▁भय	-10.005
▁संस्थागत	-10.0051
▁पहुंचने	-10.0065
▁विशेषज्ञ	-10.0074
▁आयुर्वेद	-10.008
त्मक	-10.0083
▁सीखने	-10.0087
रण	-10.0099
C	-10.0101
▁जानी	-10.0105
▁पापों	-10.0111
▁प्रश्न	-10.0112
▁शायद	-10.0114
▁पारदर्शी	-10.0116
▁वर्गों	-10.0121
▁तीव्र	-10.0141
▁जावड़ेकर	-10.0147
▁देगी	-10.0149
रिक	-10.0151
▁रहो	-10.0161
▁जला	-10.0163
▁कप्तान	-10.0178
o	-10.0178
▁लंबा	-10.0178
▁बराबर	-10.0181
▁आहार	-10.0182
▁विजय	-10.0183
▁औसत	-10.0209
▁जनसंख्या	-10.0213
▁सिटी	-10.023
S	-10.0244
▁गोत्र	-10.0244
▁माहौल	-10.0246
▁महत्त्व	-10.0246
▁आकांक्षाओं	-10.0247
▁निधि	-10.0257
▁त्योहार	-10.0277
ेड	-10.0283
▁बढ़ाकर	-10.0285
▁स्कूलों	-10.029
▁पीड़ा	-10.0293
▁प्रतिस्पर्धा	-10.0297
▁मण्डली	-10.0313
▁बतात	-10.0326
▁निर्देशित	-10.0328
▁शैक्षणिक	-10.0347
▁प्लेटफॉर्म	-10.0347
▁बाबा	-10.0359
तुम	-10.0368
▁विमान	-10.0374
▁दौर	-10.0378
▁जॉर्डन	-10.0381
▁विपणन	-10.0381
▁पदार्थों	-10.0382
▁थोड़ी	-10.0384
▁सुनने	-10.0391
▁समुदायों	-10.0395
▁ईमानदारी	-10.0401
▁नितिन	-10.0409
▁इंतजा	-10.041
▁हज़ार	-10.0413
▁संवाद	-10.0415
▁सफाई	-10.0419
▁देखकर	-10.0424
▁बंदरगाह	-10.0446
▁खातों	-10.0447
▁अभूतपूर्व	-10.0447
▁राज्यपाल	-10.0449
▁डी	-10.0452
▁एशियाई	-10.0452
▁अफगानिस्तान	-10.0452
▁खतरे	-10.0457
▁the	-10.0469
▁हिमालय	-10.0481
▁शहद	-10.0482
▁जनरल	-10.0482
▁नदियों	-10.0484
▁अपनाने	-10.0492
▁गोल	-10.0504
▁सो	-10.0504
▁सुश्री	-10.0515
▁शौचालय	-10.0517
▁and	-10.0548
▁यूसुफ	-10.0549
▁नीतियों	-10.055
▁जीभ	-10.056
▁शिव	-10.0562
▁स्टॉक	-10.0564
▁रोज	-10.0572
▁हरी	-10.0579
▁बाजारों	-10.0582
▁सामान	-10.0583
▁रिसर्च	-10.0585
▁विधि	-10.0585
▁मंत्र	-10.0622
▁जाएँ	-10.0626
▁वहीं	-10.0629
▁सर्वोत्	-10.0632
▁तैयारी	-10.0642
▁संरक्षित	-10.0652
▁भलाई	-10.0652
▁जेल	-10.0659
▁लिखित	-10.0665
▁शिष्यों	-10.067
ेट	-10.0671
▁पशु	-10.0681
▁विभागों	-10.0684
▁चालीस	-10.0687
▁देशवासियों	-10.069
▁होंगी	-10.0693
▁भू	-10.07
▁चंद्र	-10.0704
पास	-10.0708
एं	-10.0709
▁जीवंत	-10.0722
▁तेलंगाना	-10.0722
▁पावर	-10.0744
▁उद्देश्यों	-10.0744
विमर्श	-10.0756
▁आस	-10.0756
▁ठोस	-10.0756
▁प्रकोप	-10.0756
▁सब्सिडी	-10.0757
▁पैसे	-10.0758
▁सदन	-10.0758
▁चक्र	-10.0768
तर	-10.0768
▁बैठ	-10.0774
▁सपना	-10.0792
▁आधे	-10.0792
तौर	-10.0796
▁वीरता	-10.0798
▁काशी	-10.0805
▁जाएं	-10.0814
▁दल	-10.0823
▁सूरज	-10.0827
▁सिय्योन	-10.0828
▁सीईओ	-10.0828
दार	-10.0829
▁श्रमिक	-10.0832
ासन	-10.0833
▁हितों	-10.0841
▁संभावित	-10.0861
▁तीसरा	-10.0862
▁समझने	-10.0862
▁मुश्किल	-10.0862
▁रैंकिंग	-10.0863
▁साहस	-10.0867
▁देखें	-10.0873
▁शिक्षक	-10.0874
▁प्रतिबंध	-10.0889
▁चित्र	-10.089
▁यिर्मयाह	-10.0897
▁अकेले	-10.0897
▁मे	-10.0917
▁कुंभ	-10.0918
▁बर्फ	-10.0928
▁प्रासंगिक	-10.0929
▁रिटर्न	-10.0932
▁तकनीकों	-10.0944
▁बोला	-10.0945
▁सबका	-10.0949
▁कोष	-10.095
▁चावल	-10.0956
्होंने	-10.0959
▁कॉल	-10.0961
▁शोध	-10.0961
▁गाँवों	-10.0964
▁अग्रणी	-10.0968
▁पारिस्थितिकी	-10.0968
▁प्रशिक्षित	-10.0969
▁उत्पादक	-10.097
20	-10.0972
▁घटनाओं	-10.0972
▁जनजात	-10.0985
▁बचने	-10.0986
▁ऑपरेशन	-10.1003
▁मछली	-10.1003
▁संतोष	-10.1003
▁प्रतिज्ञा	-10.1005
▁सब्त	-10.1005
▁स्वदेशी	-10.1007
▁नव	-10.1012
▁समानता	-10.1018
▁चाल	-10.1027
▁गठबंधन	-10.1039
▁प्रदूषण	-10.104
▁संवर्धन	-10.1043
▁सऊद	-10.1043
▁स्नान	-10.1044
▁चुक	-10.1061
▁इस्पात	-10.1075
▁शमूएल	-10.1076
▁चेन्नई	-10.1077
▁मूर्ति	-10.108
▁रोशनी	-10.1081
▁बताता	-10.1098
▁सीतारमण	-10.1111
▁समाचार	-10.1111
▁संपूर्ण	-10.1112
▁अक्षय	-10.1112
▁दुष्टता	-10.1123
▁चाय	-10.1131
▁ट्रस्ट	-10.1137
▁रेडियो	-10.1142
▁इलेक्ट्रॉनिक	-10.1145
▁शासक	-10.1149
▁प्रारंभिक	-10.115
▁भाषाओं	-10.1153
▁अनाज	-10.1156
▁एस	-10.1156
दूसरे	-10.1163
▁सुन	-10.1184
▁सुरेश	-10.1184
▁लेनदेन	-10.1184
▁खेलों	-10.1189
▁S	-10.119
▁छोड़कर	-10.1195
▁गवाह	-10.1195
▁सेनाओं	-10.1197
▁दीर्घकाल	-10.1216
▁उद्यमिता	-10.1221
▁कार्गो	-10.1221
▁दुःख	-10.1222
▁सारा	-10.1245
▁वर्षा	-10.1246
▁कृपा	-10.1254
▁इनोवेशन	-10.1257
▁मुख्यालय	-10.1258
▁धरती	-10.1258
▁जलाशय	-10.1258
▁मत्स्य	-10.1259
▁जितेंद्र	-10.1262
▁पहाड़ियों	-10.1264
▁शैली	-10.1271
▁इंडियास	-10.1286
▁प्रोजेक्ट	-10.1291
2	-10.1292
▁गणमान्य	-10.1294
▁समिट	-10.1294
▁घराने	-10.1294
▁Shri	-10.1294
▁लगत	-10.1294
▁आयकर	-10.1302
▁विश्वविद्यालयों	-10.1311
▁हरे	-10.1314
▁प	-10.1318
▁उपलब्धियों	-10.132
▁बहन	-10.1322
▁आध्यात्मिक	-10.1326
▁मोड	-10.1328
▁प्रतिनिधि	-10.133
▁उड्डयन	-10.1331
▁नमूनों	-10.1331
▁प्रतिभागियों	-10.1331
▁अतीत	-10.1331
▁एजेंसी	-10.1332
▁डेवलपमेंट	-10.1333
▁पंजीकृत	-10.1333
▁इलेक्ट्रॉनिक्स	-10.1334
▁उभरत	-10.134
▁प्रतिदिन	-10.1359
▁याजकों	-10.137
▁हस्तक्षेप	-10.1371
▁दुर्घटना	-10.1402
▁इंटरनेशनल	-10.1408
▁बोली	-10.1409
▁व्यय	-10.1409
▁एफडीआई	-10.141
प	-10.1416
▁बोलने	-10.1417
▁मरीजों	-10.142
▁फूल	-10.1421
▁प्रथम	-10.1421
▁चरणों	-10.1426
साकार	-10.1427
▁घाट	-10.1433
▁ट्रैक	-10.1437
▁नौ	-10.1439
▁सिविल	-10.1444
▁चली	-10.1447
▁प्रिय	-10.1461
▁सागर	-10.1467
▁मुख	-10.1477
▁मूर्ख	-10.1477
▁पात्र	-10.1478
▁काउंसिल	-10.148
▁पीयूष	-10.148
▁वेंकैया	-10.148
▁दावत	-10.148
▁वादा	-10.1485
▁कानूनों	-10.1488
शाली	-10.1492
▁नोट	-10.1499
▁कृपया	-10.15
▁नबी	-10.1506
▁छवि	-10.1517
▁वेबिनार	-10.1517
▁बिस्तर	-10.1521
फ	-10.1527
▁घटक	-10.1534
▁प्रतिभा	-10.1551
▁संतों	-10.1551
▁डेयरी	-10.1556
▁इंडियन	-10.1561
▁जानकर	-10.1564
▁फोरम	-10.1576
▁फेस्टिवल	-10.1594
▁जॉन	-10.1597
▁किरण	-10.1604
▁दोस्त	-10.161
ाई	-10.1612
▁शीघ्र	-10.1626
▁स्टार्टअप	-10.163
▁स्थानांतरित	-10.1631
▁वर्षगांठ	-10.1631
▁सिद्धांत	-10.1634
▁अवशेष	-10.1635
▁प्रशासनिक	-10.1635
▁ऊँची	-10.1635
▁बालों	-10.1643
▁घुटन	-10.1646
▁एकल	-10.1653
▁टी	-10.1661
याँ	-10.1669
▁आकलन	-10.1672
▁गईं	-10.1673
▁भरे	-10.1684
्य	-10.1691
▁कठोर	-10.1702
▁आतंक	-10.1707
▁आकर्षक	-10.1707
▁शैतान	-10.1708
▁अल	-10.1709
200	-10.174
▁घास	-10.1746
▁इकाई	-10.1746
▁परिस्थितियों	-10.1746
▁सशक्तिकरण	-10.1747
▁एकीकरण	-10.175
▁अनुमानित	-10.1761
▁उपयोगी	-10.1763
▁पंख	-10.1767
▁बे	-10.1773
▁पक्षी	-10.1779
▁अनुग्रह	-10.1785
▁अल्पसंख्यक	-10.1788
वे	-10.179
▁उपलब्धि	-10.179
▁प्रतीक्षा	-10.1823
▁शिक्षण	-10.1826
▁आधिका	-10.1827
▁कैद	-10.1832
▁आत्म	-10.1837
▁फसलों	-10.1851
बार	-10.1852
अधिकतम	-10.1857
▁स्व	-10.1859
▁आत्मनिर्भर	-10.1861
▁उतार	-10.1861
▁धोखा	-10.1862
▁आइए	-10.1863
▁कमर	-10.1864
▁मनाने	-10.1886
पी	-10.1889
▁आर	-10.19
▁चीज़	-10.19
▁देवदार	-10.1903
▁निर्भर	-10.1904
▁महासागर	-10.1907
▁जैविक	-10.1907
▁कही	-10.1908
▁राजकुमार	-10.1917
▁मारे	-10.1925
,";	-10.1929
▁गर्मी	-10.193
▁वस्तु	-10.1938
▁सौंदर्य	-10.194
▁परिचित	-10.194
▁मनश्शे	-10.194
▁सिक्किम	-10.1941
▁वेबसाइट	-10.1945
▁बढ़ता	-10.1966
▁स्तुति	-10.198
▁पुजारियों	-10.198
▁आदर्श	-10.1982
▁अभयारण्य	-10.1984
▁अधिकारों	-10.1995
पिता	-10.2013
▁इंजीनियरिंग	-10.2023
▁ग्रहण	-10.2024
▁उत्पादकता	-10.2025
▁दर्शनीय	-10.2027
▁पड़े	-10.2038
▁निम्न	-10.2045
▁उतन	-10.2062
▁सूजन	-10.2063
▁पराक्रमी	-10.2065
▁अहमदाबाद	-10.2066
▁आभार	-10.2074
▁आज्ञाओं	-10.2077
▁मेजबानी	-10.208
▁रथ	-10.2083
▁सच	-10.2093
▁हस्तांतरण	-10.2099
▁अनुदान	-10.2099
▁केन्द्र	-10.2102
▁टेक्नोलॉजी	-10.2102
▁सलाहकार	-10.2102
▁उपग्रह	-10.2106
▁लगी	-10.2111
▁टैक्स	-10.2111
युक्त	-10.2121
▁&	-10.214
▁अपशिष्ट	-10.214
▁पाकिस्तान	-10.2144
▁हां	-10.2145
कार	-10.2151
▁पहुँचने	-10.2169
▁एकजुट	-10.2174
▁विद्रोह	-10.2175
▁बाधा	-10.2177
मात्र	-10.2182
▁गले	-10.2183
▁लिंक	-10.2189
▁स्पेशल	-10.2213
▁बुखार	-10.2219
▁अंधेरे	-10.2219
▁धूल	-10.222
▁सुविधाजनक	-10.2221
▁संत	-10.2222
▁खाता	-10.2232
▁पेशेवरों	-10.2247
▁विश्राम	-10.2252
▁कार्यकाल	-10.2262
▁माह	-10.2264
▁`	-10.227
▁स्वाद	-10.2271
G	-10.2282
▁मानवीय	-10.2286
▁विविध	-10.229
▁कहेंगे	-10.2301
▁संक्रमित	-10.2301
▁बाधाओं	-10.2303
▁ऑफ़	-10.2305
▁कानूनी	-10.2315
▁व्यायाम	-10.2335
▁बोल	-10.2339
▁अभिनव	-10.2341
▁प्रधानमंत्रियों	-10.2341
▁चाहूंगा	-10.2341
▁राज्यसभा	-10.2341
▁चेतावनी	-10.2342
▁हिजकिय्याह	-10.2342
▁नैदानिक	-10.2343
िम	-10.2344
▁रानी	-10.2355
▁ईमानदार	-10.2355
▁अलगाव	-10.2368
ूइंग	-10.2377
▁जड़	-10.238
▁यूपी	-10.2381
▁मस्तिष्क	-10.2383
▁बुरा	-10.2386
▁गारंटी	-10.2386
▁ऊंचे	-10.2387
▁अपराधों	-10.239
ण	-10.2406
ु	-10.2406
▁पाठ	-10.2408
▁";";	-10.241
▁दीं	-10.242
▁मूत्र	-10.2423
▁परिदृश्य	-10.2423
▁सख्त	-10.2423
▁स्क्रीनिंग	-10.2424
़	-10.2432
▁एम्स	-10.2432
ाँ	-10.2442
▁संगरोध	-10.2465
▁आरोप	-10.2465
▁डिग्री	-10.2465
▁शत्रुओं	-10.2467
▁गहराई	-10.2467
▁सैन्य	-10.2469
▁स्तन	-10.248
▁गीत	-10.2484
▁उद्यमों	-10.2492
▁असर	-10.2496
▁खाया	-10.2507
एस	-10.2513
▁खाली	-10.2526
▁प्रो	-10.2529
▁बैठे	-10.2547
▁आवंटन	-10.2548
▁जुड़ाव	-10.2549
▁कार्यकर्ताओं	-10.2552
▁कमान	-10.2555
▁चाँदी	-10.2558
▁उत्कृष्टता	-10.2558
▁मृतक	-10.2564
▁ऊंचाइय	-10.2566
▁ग	-10.2567
आधारित	-10.258
▁सर	-10.2586
▁चर्च	-10.2587
▁त्वरित	-10.259
मीट्रिक	-10.259
▁खनन	-10.2591
▁सैलान	-10.2592
ड	-10.2603
▁छत	-10.2632
▁भर्ती	-10.2632
▁पुराना	-10.2632
▁टेस्ट	-10.2632
▁बाग	-10.2634
▁मिलते	-10.2646
साधारण	-10.2667
▁विकलांग	-10.2668
▁हार्दिक	-10.2674
▁अवस्था	-10.2674
▁पीतल	-10.2674
▁इंटरनेट	-10.2674
▁अनुस	-10.2675
▁आपस	-10.2682
▁शांतिपूर्ण	-10.2682
▁गांव	-10.2692
▁व्यर्थ	-10.2716
▁अड्डा	-10.2716
▁काले	-10.2719
▁कहाँ	-10.2725
ग	-10.2728
lt	-10.2733
▁चमत्कार	-10.2759
▁दबाव	-10.2759
▁दोपहर	-10.2759
▁ठंड	-10.276
▁विभाजित	-10.2763
जो	-10.2764
्हें	-10.2774
▁मंत्रालयों	-10.2792
▁विनाश	-10.2799
▁मोटर	-10.2801
▁रखो	-10.2801
▁लाइव	-10.2803
▁तीसरी	-10.2803
▁गेहूं	-10.2804
ार	-10.2805
▁लेगा	-10.2805
▁मंदिरों	-10.282
▁आदम	-10.2825
ाल	-10.2832
▁खोल	-10.2838
▁सिद्धांतों	-10.2841
▁लाऊंगा	-10.2845
▁चौड़ाई	-10.2847
▁चिकित्सक	-10.2853
▁परिणामों	-10.2875
▁हेक्टेयर	-10.2888
▁अवश्य	-10.2888
▁आगामी	-10.2888
▁नंबर	-10.2889
▁बढ़ी	-10.2898
▁निकायों	-10.2913
gt	-10.2929
▁सन्	-10.293
इन्फ्रास्ट्रक्चर	-10.2931
▁चक्रवात	-10.2931
▁लाएगा	-10.2931
▁2020-21	-10.2931
▁प्लास्टिक	-10.2932
▁दोगुना	-10.2932
▁कामकाज	-10.2932
▁वेतन	-10.2933
▁ज	-10.2943
दाताओं	-10.2947
▁पेड़ों	-10.2948
▁प्रभार	-10.2949
▁कहने	-10.2961
▁हाउस	-10.2964
ले	-10.2971
▁सच्चाई	-10.2975
▁स्मृति	-10.2976
▁भस्म	-10.2976
▁लगाए	-10.2988
▁सौंप	-10.2998
▁वार्ता	-10.3017
▁क्षमा	-10.3018
▁गर्दन	-10.3018
▁एलपीजी	-10.3019
▁कर्तव्य	-10.3025
▁खादी	-10.3026
▁कनाडा	-10.3027
▁कमरे	-10.3057
▁विवेकानंद	-10.3061
▁संतुलित	-10.3062
▁पीपीई	-10.3075
▁पक्षियों	-10.3082
▁कच्च	-10.3094
▁लगते	-10.3095
जागर	-10.31
▁अंतर्	-10.3103
gov	-10.3106
▁सदियों	-10.3107
▁मूर्तियों	-10.3107
▁शर्म	-10.3123
▁कब्ज	-10.3129
▁भविष्यवाणी	-10.3151
▁रुचि	-10.3153
▁MSMEs	-10.3156
▁आंखों	-10.3174
▁छिपा	-10.3188
▁वैकल्पिक	-10.3195
▁स्टाफ	-10.3197
▁उठे	-10.3202
▁दिशानिर्देश	-10.3205
ीकृत	-10.3208
▁रखे	-10.3209
▁आत्मविश्वास	-10.321
ढ़े	-10.3217
▁फैल	-10.3221
▁अति	-10.3224
▁रिकवर	-10.3239
▁मन्दिर	-10.324
▁ट्रिलियन	-10.324
▁भले	-10.3243
▁शुभ	-10.3247
▁लाता	-10.325
डी	-10.3259
▁पाता	-10.3282
▁गतिविधि	-10.3283
▁व्यापारियों	-10.3284
▁विधियों	-10.3284
▁सामरिया	-10.3284
▁बचाया	-10.3285
▁झांकी	-10.3285
7	-10.3287
▁ट्रेनें	-10.3288
▁कहां	-10.3306
▁निपटान	-10.3318
ेश्वर	-10.3319
र्स	-10.3328
▁घाव	-10.3329
▁रैंक	-10.333
▁वेंटिलेटर	-10.333
▁1.5	-10.3331
▁दुश्मन	-10.334
▁बह	-10.336
.25	-10.3361
▁1000	-10.3368
;&	-10.3369
▁उपदेश	-10.3372
ग्रस्त	-10.3372
▁रखरखाव	-10.3374
▁इब्राहीम	-10.3375
▁गहरे	-10.3376
▁बेल	-10.3378
▁फलों	-10.3378
▁पार्टी	-10.338
▁बोलता	-10.338
▁जानने	-10.3381
▁प्रकाशित	-10.3383
▁इमारत	-10.3383
▁सुंदरता	-10.3386
▁सचिवों	-10.3404
च	-10.3413
आप	-10.3414
▁अश्शूर	-10.3417
सर	-10.3419
▁बाघ	-10.342
▁एक्सप्रेस	-10.342
▁हेल्थ	-10.3421
▁लोकतांत्रिक	-10.3421
▁MSME	-10.3434
▁बनाकर	-10.3447
▁डालते	-10.3476
▁निवेशकों	-10.3482
रा	-10.3483
गढ़	-10.3489
▁बुद्धि	-10.3492
▁साधन	-10.3509
▁तोमर	-10.3513
▁यूरिया	-10.3514
▁कार्यशाला	-10.3515
▁महिलाएं	-10.3515
▁G	-10.3517
▁कॉन्फ्रेंसिंग	-10.352
▁देरी	-10.3525
▁एकत्र	-10.3544
▁कारणों	-10.3547
▁राजकुमारों	-10.3552
▁तभी	-10.3557
▁गंतव्य	-10.3558
▁अग्रिम	-10.3558
▁अर्थात	-10.3561
▁हाई	-10.3561
▁सु	-10.3561
▁चमक	-10.3572
खड़ी	-10.3582
▁नफरत	-10.3604
▁विद्युतीकरण	-10.3604
▁अनुमोदन	-10.3604
▁अधिसूचना	-10.3604
▁रखेगा	-10.3604
▁पटना	-10.3608
▁अध्यादेश	-10.3617
▁45	-10.3623
▁निर्देशक	-10.3624
▁A	-10.3626
▁बरामद	-10.3629
▁दाख	-10.3639
▁परिवर्तित	-10.365
▁नबियों	-10.3651
▁आएगी	-10.3653
▁लेट	-10.3653
नाक	-10.3659
▁शिकायतों	-10.3678
▁अनुवाद	-10.3694
िन	-10.3695
▁कायाकल्प	-10.3697
▁सोना	-10.3734
▁जीने	-10.3736
▁अवसंरचना	-10.3744
▁अद्वितीय	-10.3744
▁125	-10.3744
▁योआब	-10.3744
▁2030	-10.3745
▁छोर	-10.3746
▁विस्तारित	-10.3754
▁गेट	-10.3759
4	-10.3768
▁बीत	-10.3771
▁निकलने	-10.3783
▁आधा	-10.3784
▁हड्डियों	-10.3791
▁नकवी	-10.3791
▁उत्सुक	-10.3791
▁मालिश	-10.3792
▁बिन्यामीन	-10.3792
▁अबशालोम	-10.3793
▁जैन	-10.3797
▁हिल	-10.3798
▁चुन	-10.3799
ेशन	-10.3804
▁खोलने	-10.3805
▁कॉलेजों	-10.3808
▁हिंद	-10.3813
▁बहाल	-10.3814
▁ईस्ट	-10.3823
▁भूख	-10.3827
▁रूसी	-10.3836
▁गिरा	-10.3838
▁नागपुर	-10.3842
▁डरते	-10.3846
▁लेवी	-10.3851
▁सौभाग्य	-10.3867
▁फेंक	-10.388
▁यौन	-10.3886
▁समझा	-10.3888
▁लोहे	-10.3888
▁आतंकवादी	-10.389
▁सिफारिश	-10.3898
्	-10.3902
▁विवाद	-10.3906
▁आँत	-10.3926
मंत्रण	-10.393
▁विपरीत	-10.3934
▁खनिज	-10.3934
▁हैदराबाद	-10.3937
▁विद्युत	-10.3941
▁मानदंडों	-10.3951
▁विरोध	-10.3956
▁सोचा	-10.3959
▁नाक	-10.3974
▁अचानक	-10.3982
▁इसीलिए	-10.3982
▁जाएंगी	-10.3983
▁कार्मिक	-10.3985
▁संतुलन	-10.3987
▁फिट	-10.3991
नाथ	-10.4003
▁तत्व	-10.4003
▁बैठा	-10.4008
▁डिवीजन	-10.403
▁अजनबी	-10.403
▁राजदूत	-10.403
▁बहुपक्षीय	-10.403
▁बिल्कुल	-10.4031
▁यातायात	-10.4031
▁सातवें	-10.4032
▁अफ्रीकी	-10.4033
ंट	-10.4036
▁कप	-10.4043
▁संसदीय	-10.4045
▁युक्त	-10.4046
▁ऑस्ट्रेलिया	-10.4048
000	-10.4073
▁बिंदु	-10.4079
▁तापमान	-10.4079
सा	-10.4079
▁पैसा	-10.408
ाब	-10.408
▁खुला	-10.4084
▁मेले	-10.4092
▁श	-10.4097
▁दंड	-10.4101
▁P	-10.4107
▁32	-10.4108
▁लेन	-10.4112
▁चार्ज	-10.4113
वर्ती	-10.4116
परिभाषित	-10.4124
वान	-10.4124
▁प्रावधानों	-10.4126
▁सांख्यिकी	-10.4128
▁एनसीसी	-10.4133
पूर्व	-10.4135
▁हद	-10.4136
▁300	-10.4145
ाना	-10.4157
▁बेथ	-10.4171
▁गणतंत्र	-10.4177
▁घिर	-10.4177
▁कितनी	-10.4177
▁65	-10.4182
▁क्रिया	-10.4184
▁धारण	-10.4184
▁खाई	-10.4186
▁खोला	-10.4194
▁राजमार्गों	-10.4202
▁करोड़ों	-10.4205
▁दीवारों	-10.4208
▁दुश्मनों	-10.4215
▁हॉल	-10.4217
▁कामना	-10.4226
▁मरम्मत	-10.4226
▁टेलीफोन	-10.4226
▁सुभाष	-10.4227
▁छाया	-10.423
▁शून्य	-10.423
▁शर्मा	-10.4242
▁फिल्में	-10.4244
▁वां	-10.4247
ंस	-10.4256
▁सदा	-10.4264
▁अपेक्षा	-10.427
▁तैयारियों	-10.4273
▁सीरिया	-10.4275
▁शौच	-10.4275
▁लाभार्थी	-10.4275
▁विश्लेषण	-10.4275
▁श्रेणियों	-10.4276
▁पथ	-10.4276
▁आधुनिकीकरण	-10.4276
▁गतिशीलता	-10.4281
▁विकार	-10.4286
▁विदा	-10.4308
▁व्यवसायों	-10.4309
▁रचनात्मक	-10.4322
▁कठिनाइयों	-10.4325
▁फोकस	-10.4325
▁बकाया	-10.4326
▁यद्यपि	-10.4327
▁शैक्षिक	-10.4329
▁मासिक	-10.433
आर्थिक	-10.4331
▁पुन	-10.434
▁न्यायालय	-10.434
▁टर्मिनल	-10.4342
▁अर्थव्यवस्थाओं	-10.4352
▁मंडली	-10.437
▁पीटर	-10.4372
▁अन्यजातियों	-10.4375
▁मास्टर	-10.4376
▁सुखद	-10.4376
▁कब	-10.4377
▁इक्विटी	-10.4377
▁पीठ	-10.4385
▁महा	-10.439
▁उभर	-10.4399
▁इलेक्ट्रिक	-10.4425
▁भरपूर	-10.4425
▁लिखे	-10.4427
▁सीधा	-10.4427
▁सर्दी	-10.4428
▁लगाई	-10.4428
▁चिंताओं	-10.4433
▁पेरिस	-10.4433
▁दर्शकों	-10.4436
▁ल	-10.4438
▁पेशेवर	-10.4441
▁अत्याचार	-10.4447
▁गहन	-10.445
▁पैदल	-10.4476
▁खपत	-10.4476
▁अधिसूचित	-10.4477
पान	-10.4482
▁अग्नि	-10.4483
▁कक्ष	-10.4483
▁एकड़	-10.4483
▁योजनाएं	-10.4488
▁रुक	-10.4491
▁परे	-10.4494
अब	-10.4496
▁तिथि	-10.4496
▁घमंड	-10.4499
▁फैलाने	-10.4504
▁गुण	-10.4508
▁निवासी	-10.451
्ड	-10.452
भर	-10.452
▁मेगावाट	-10.4527
▁वैक्सीन	-10.4527
▁अतिथि	-10.4527
▁संवेदनशील	-10.4527
▁देखेंगे	-10.4528
▁सर्विस	-10.4528
▁संबद्ध	-10.4528
▁विजेताओं	-10.4529
▁वर्ल्ड	-10.453
▁नियामक	-10.4552
▁बैठकों	-10.4559
▁चैनल	-10.4566
▁प्रयोगशाला	-10.4573
▁अत्याधुनिक	-10.4578
▁स्टील	-10.4579
▁अमीर	-10.4594
▁चुने	-10.4595
▁निहित	-10.4613
▁भरी	-10.4623
▁सभ्यता	-10.4626
▁मजबूर	-10.4629
▁...	-10.463
▁निर्मला	-10.4631
▁वसा	-10.4637
▁माताओं	-10.4638
▁ग्रिड	-10.4639
▁निरीक्षण	-10.4643
▁देखे	-10.4644
▁ऑल	-10.4644
वा	-10.4648
▁स्तरों	-10.4649
▁अवधारणा	-10.4679
▁साँस	-10.468
▁टीकाकरण	-10.4681
▁आवंटित	-10.4681
▁बारी	-10.4681
▁सैकड़ों	-10.4681
▁पेयजल	-10.4682
▁टीबी	-10.4684
▁कारीगरों	-10.4689
▁नवाचारों	-10.4704
▁ठहर	-10.472
▁बुरे	-10.4732
▁चढ़	-10.4734
▁नामांकन	-10.4736
▁सिद्ध	-10.4739
▁स्वर्गदूत	-10.475
▁भौतिक	-10.476
▁राय	-10.477
▁सार्वभौमिक	-10.4778
▁औपचारिक	-10.478
▁क्रमशः	-10.4786
▁बंदरगाहों	-10.4786
▁त्रिपुरा	-10.4786
▁बोस	-10.4789
▁प्रतिस्पर्धी	-10.4789
▁परंपराओं	-10.4791
▁सराहन	-10.4795
▁उतर	-10.4801
▁बंदी	-10.4807
▁उठो	-10.481
▁आभास	-10.4817
▁मेला	-10.4821
▁ऑयल	-10.4837
▁ब्यूरो	-10.4837
▁सुगंध	-10.4837
▁गिरावट	-10.4837
▁बुरी	-10.4837
▁यहूदी	-10.4837
▁शादी	-10.4838
▁सीजन	-10.4838
जनक	-10.484
▁जीडीपी	-10.4842
▁करेंगी	-10.4843
▁रहेगी	-10.4847
▁महिलाएँ	-10.4849
आ	-10.4852
▁संयंत्र	-10.4855
▁हमले	-10.4858
▁संस्था	-10.4859
▁घेर	-10.4862
▁खुली	-10.4863
e	-10.4868
यम	-10.4871
▁अगल	-10.4874
▁जीव	-10.4882
िव	-10.4884
▁130	-10.4888
▁फूड	-10.4888
▁सद्भाव	-10.4889
▁बपतिस्मा	-10.489
▁अकाल	-10.4892
एल	-10.4897
▁अपनाया	-10.4898
▁ग्रीन	-10.4903
▁क्षण	-10.4907
▁फैले	-10.4922
▁हज	-10.4938
▁घायल	-10.4943
▁खाँसी	-10.4947
▁बढ़ाना	-10.4951
▁शोर	-10.4953
▁सीएसआईआर	-10.4953
समय	-10.4956
▁काली	-10.4968
▁सरकारें	-10.497
▁हिंदी	-10.4977
▁सिफारिशों	-10.4981
इस	-10.4988
▁संतुष्ट	-10.4995
▁फीट	-10.4996
▁ऑक्सीजन	-10.4996
▁राजकोषीय	-10.4996
▁अकादमी	-10.4997
▁टिकाऊ	-10.4998
▁दरबार	-10.4999
▁खेतों	-10.5007
▁मशीन	-10.5014
▁ईज	-10.5015
▁सुपर	-10.5024
▁टुकड़	-10.503
▁C	-10.503
▁चालक	-10.5032
▁प्रस्तुति	-10.5032
▁कीटाणु	-10.5049
ख्यात	-10.5049
▁उन्नयन	-10.5049
▁शिमला	-10.505
▁दिला	-10.5057
▁इको	-10.5065
▁ब्लॉक	-10.5065
ओ	-10.5067
इन	-10.5069
▁स्तंभ	-10.5069
▁अनुभवों	-10.5081
▁एंटी	-10.5082
▁दौरे	-10.5082
▁पहुंचा	-10.5088
▁रसद	-10.5095
▁जवान	-10.5096
▁बोतल	-10.5102
▁उन्मूलन	-10.5103
▁यकीन	-10.5103
▁आश्वस्त	-10.5104
▁साइंस	-10.5104
▁वित्तपोषण	-10.5106
▁निकालने	-10.5106
▁बढ़ना	-10.5117
▁सजा	-10.5123
▁टीमों	-10.5132
ॉल	-10.5142
▁ढाँचे	-10.5157
▁यू	-10.5167
▁दृढ़ता	-10.5169
▁वंचित	-10.5177
▁चिन्ह	-10.5178
▁स्वीकृत	-10.5187
▁तीनों	-10.5196
1	-10.52
▁किला	-10.5205
▁भयभीत	-10.5211
▁पूछताछ	-10.5211
▁चढ़ाया	-10.5212
▁इंडोनेशिया	-10.5216
▁इटली	-10.5218
▁आनन्द	-10.522
▁संभावनाओं	-10.5222
▁ऊपरी	-10.5224
▁अदालत	-10.5229
▁ईरान	-10.5242
▁गर्भव	-10.5246
▁खुल	-10.5257
व्यापी	-10.5261
▁कारोबार	-10.5262
▁D	-10.5263
▁प्रांत	-10.5266
▁निदान	-10.5266
▁श्वास	-10.5269
▁निकासी	-10.5273
▁400	-10.5274
▁पूरक	-10.5274
▁उच्चतम	-10.5279
▁माप	-10.5283
▁वृक्ष	-10.5292
▁चलाने	-10.5311
आई	-10.5316
ः	-10.5316
▁स्वाभाविक	-10.5321
▁उपवास	-10.5321
▁बहुतायत	-10.5321
▁आपातकालीन	-10.5321
▁यहुवेह	-10.5326
▁नाश	-10.5348
▁दस्त	-10.5359
▁वास्तविकता	-10.5362
D	-10.5372
▁प्लांट	-10.5373
▁अनुमोदित	-10.5376
▁आवाजाही	-10.5376
▁एजेंडा	-10.5377
▁छाती	-10.5377
▁कोड	-10.5378
▁आरोग्य	-10.5379
▁उपनगरों	-10.538
▁दायरे	-10.5384
बद्ध	-10.5391
▁कक्षा	-10.5393
▁ओ	-10.5396
▁निर्णयों	-10.5404
▁इसरो	-10.5409
▁निराश	-10.5417
▁हब	-10.5426
▁संध्या	-10.5432
▁पाएंगे	-10.5432
▁विश्वसनीय	-10.5432
▁फायदे	-10.5433
▁ऊँचे	-10.5437
▁कार्यकारी	-10.5441
▁चलना	-10.5442
देव	-10.5477
▁निकला	-10.5481
▁ढाल	-10.5483
▁ऊँचा	-10.5486
▁भक्त	-10.5487
▁विलाप	-10.5487
▁दीक्षा	-10.5489
▁विशेषज्ञता	-10.5497
▁एच	-10.5499
संभव	-10.5506
मेरे	-10.5507
▁बर्बाद	-10.5517
▁अंक	-10.5518
M	-10.5543
▁ईर्ष्या	-10.5544
▁ग्रह	-10.5546
▁शाप	-10.5552
▁कीमतों	-10.5554
▁ताज	-10.5571
▁नकद	-10.5577
▁टू	-10.5579
▁उत्तरी	-10.5583
▁टुकड़े	-10.5589
▁गर्मजोशी	-10.56
▁धैर्य	-10.56
▁रोया	-10.5601
▁दूरसंचार	-10.5602
▁प्रयोगशालाएँ	-10.5602
▁कारक	-10.5603
▁टीवी	-10.5603
▁नौकरी	-10.5607
▁चौथा	-10.5608
▁जाल	-10.5611
▁लिये	-10.5615
▁छीन	-10.5624
हम	-10.564
शियल	-10.5648
▁व्याख्या	-10.5654
▁खिलाड़ियों	-10.5657
▁तालाबंदी	-10.5657
▁सुचारू	-10.5657
▁जेटली	-10.5657
▁सूचकांक	-10.5658
▁अनुपालन	-10.5659
▁जयपुर	-10.566
▁कॉमन	-10.566
यू	-10.5667
ाम	-10.5674
▁गाय	-10.5686
▁पेय	-10.5688
▁सेल	-10.5693
▁बसा	-10.5694
▁कर्तव्यों	-10.5704
▁हाथी	-10.5705
▁इत्यादि	-10.5714
▁ट्वीट	-10.5714
▁सिखाया	-10.5714
▁पश्चाताप	-10.5715
▁तुरही	-10.5716
▁नृत्य	-10.5717
▁आईआईटी	-10.5719
P	-10.5719
a	-10.572
▁चेक	-10.5721
▁कब्र	-10.5737
रेख	-10.574
▁भंडार	-10.5746
▁सूखे	-10.5761
▁कार्यालयों	-10.5771
▁PIB	-10.5771
▁पशुपालन	-10.5772
▁मनोरंजन	-10.5772
▁अनुबंध	-10.5772
▁लेह	-10.5774
▁कन्वेंशन	-10.5775
▁घूमने	-10.5777
▁पड़ती	-10.5783
▁उम्मीदवारों	-10.579
▁मजदूरों	-10.5794
▁किताब	-10.5794
▁राजनीति	-10.5805
▁कु	-10.5808
▁निकले	-10.5809
▁डे	-10.5812
▁तु	-10.5818
▁होम	-10.5829
▁उपरोक्त	-10.5829
▁दुर्लभ	-10.5829
▁पौष्टिक	-10.5829
▁तालमेल	-10.5829
▁रक्तचाप	-10.583
▁यारोबाम	-10.583
▁अपडेट	-10.5832
▁55	-10.5832
▁48	-10.5835
▁पाई	-10.585
▁पल	-10.585
▁चुनावों	-10.5864
▁मल्टी	-10.5869
▁गधे	-10.5887
▁चौथे	-10.5887
▁नेहरू	-10.5887
▁कपड़ों	-10.5888
▁शिपिंग	-10.5888
▁कांग्रेस	-10.5888
▁पहुँचाया	-10.5889
▁बचाओ	-10.5889
▁रासायनिक	-10.5892
▁फंसे	-10.5892
▁पहलू	-10.5897
▁प्राथमिकताओं	-10.59
▁शास्त्र	-10.5909
▁अनुसूच	-10.5927
▁कार्यकर्ता	-10.5944
▁बढ़े	-10.5945
▁जरिए	-10.5946
▁खतना	-10.5947
▁अंबेडकर	-10.5947
▁दमन	-10.595
▁एदोम	-10.5967
ियां	-10.5967
▁गिना	-10.5971
▁एल	-10.5976
B	-10.5984
▁निवारण	-10.6005
▁शिलान्यास	-10.6005
▁हड्डी	-10.6005
▁सब्जियों	-10.6006
▁लाभदायक	-10.6006
▁तत्त्व	-10.6006
▁नेताजी	-10.6007
ana	-10.6011
▁ग्राहकों	-10.6026
▁बढ़ाता	-10.6028
▁निकाय	-10.6029
▁अपार	-10.6038
▁शो	-10.6055
▁गुप्त	-10.6059
▁टिप्पणी	-10.606
तु	-10.6063
▁भयानक	-10.6064
▁इसहाक	-10.6065
▁सकल	-10.6065
▁चंडीगढ़	-10.6066
▁उधार	-10.6066
वर	-10.6072
▁10,000	-10.6072
▁दिखाने	-10.6074
▁पहुंचाने	-10.6079
▁जलन	-10.6084
▁कंटेनर	-10.6094
यों	-10.6095
▁विरोधी	-10.6106
▁भरने	-10.6109
▁इकट्ठ	-10.6109
▁प्रतिकूल	-10.6111
▁खोजने	-10.6118
▁अथक	-10.6124
▁अप्रत्यक्ष	-10.6124
▁उखाड़	-10.6124
▁होंठ	-10.6124
▁आगरा	-10.6126
▁ब्राजील	-10.6128
▁गड़बड़ी	-10.6128
▁श्रेष्ठ	-10.6132
▁मि	-10.6136
भूत	-10.6144
▁नगरों	-10.6153
▁कार	-10.6164
▁बयान	-10.617
▁पुनर्जीवित	-10.6183
▁अहाब	-10.6184
▁अखिल	-10.6184
▁मिजोरम	-10.6184
▁अंतराल	-10.6185
▁डिलीवरी	-10.6187
▁लखनऊ	-10.6187
▁प्रश्नों	-10.6187
▁लाना	-10.6188
▁सं	-10.6189
▁विमानन	-10.6191
▁माउंट	-10.6191
जा	-10.6196
▁शत्रु	-10.6202
स्वतंत्र	-10.6204
▁पाइपलाइन	-10.6207
▁पुरी	-10.6207
मंद	-10.6209
▁नीले	-10.6212
▁मोड़	-10.6219
▁आभारी	-10.6224
▁वन्य	-10.6236
▁कोच	-10.6238
▁दयालु	-10.6238
▁खंभे	-10.6244
▁कच्छ	-10.6245
▁पुनर्वास	-10.6245
▁संगम	-10.6245
▁बेंगलुरु	-10.6245
▁प्राय	-10.6246
▁मकान	-10.6247
▁जेके	-10.6248
अपने	-10.6254
▁गिरने	-10.6255
▁यूके	-10.6258
▁कृष्ण	-10.6264
▁गवर्नर	-10.6268
▁सींग	-10.6275
▁सदस्यता	-10.6277
▁बनता	-10.6279
▁बदला	-10.6288
▁मान	-10.629
▁ग्रुप	-10.6302
▁उल्लंघन	-10.6304
▁ढेर	-10.6304
▁प्लेग	-10.6304
▁लैब	-10.6304
▁ख	-10.6307
▁बड़ों	-10.6309
▁एमएसपी	-10.6313
▁दावा	-10.6318
ये	-10.6325
▁चढ़ा	-10.6326
▁सतह	-10.6328
स्थान	-10.6337
▁सेतु	-10.6342
▁लाओ	-10.6363
▁एलईडी	-10.6365
▁2016-17	-10.6365
▁आयरन	-10.6366
▁घोड़ों	-10.6367
▁आंखें	-10.6367
▁खुजली	-10.6367
▁निवारक	-10.6368
▁संवेदना	-10.637
▁ऑन	-10.638
▁सहयोगी	-10.6386
▁पढ़ा	-10.6387
▁निशान	-10.639
▁तल	-10.6397
▁आत्माओं	-10.6403
▁रेखा	-10.6409
▁कंपनियां	-10.6427
ेल	-10.6427
▁सर्दियों	-10.6427
▁घोड़े	-10.6427
▁अंडमान	-10.6429
▁निष्कर्ष	-10.643
▁भेजे	-10.643
▁प्लेटफार्मों	-10.6431
▁दाखिल	-10.6431
▁सुनते	-10.6434
▁पूल	-10.6436
▁विनियमन	-10.644
▁36	-10.6452
ुच्छेद	-10.6457
▁कष्ट	-10.6457
गी	-10.6478
8	-10.6487
▁उत्तम	-10.649
▁सर्जरी	-10.649
▁प्रोग्राम	-10.649
▁भूकंप	-10.6491
▁कोरोनावायरस	-10.6491
▁42	-10.6491
▁फेस	-10.6492
▁सुशासन	-10.6492
▁घने	-10.6492
▁सफर	-10.6496
क्शन	-10.6496
▁मजदूरी	-10.6508
9	-10.6508
▁250	-10.6509
▁बदले	-10.6517
▁सांसद	-10.6518
संशोधन	-10.6519
▁प्रमुखों	-10.6523
▁सवार	-10.6525
▁बहस	-10.6527
▁विशेषता	-10.6545
▁शेख	-10.6546
▁सीट	-10.6549
▁प्रतिबिंब	-10.655
▁दोहन	-10.655
▁यहोशापात	-10.655
▁जल्दबाजी	-10.6551
▁बढ़ाएगा	-10.6551
▁आरक्षण	-10.6551
▁लंबित	-10.6551
▁तूफान	-10.6552
▁रोते	-10.6554
▁संस्थाओं	-10.6554
▁संचय	-10.6555
लाइन	-10.6559
▁दिख	-10.6561
▁रोने	-10.6564
▁अरुण	-10.6575
▁याह	-10.6578
▁यहीं	-10.6582
▁दक्षिणी	-10.6585
▁संभाल	-10.6594
▁फूलों	-10.6609
▁धूम्रपान	-10.6613
▁कितने	-10.6613
▁इंजन	-10.6614
▁नानक	-10.6614
▁मिश्रण	-10.6614
▁मेजबान	-10.6616
▁थाईलैंड	-10.6617
वार	-10.6619
▁फाटक	-10.6641
▁प्रसारित	-10.665
▁जवानों	-10.6653
▁लिंग	-10.667
▁वैसा	-10.6675
▁कटौती	-10.6676
▁अभिनेता	-10.6677
▁गुवाहाटी	-10.6677
▁लड़कियों	-10.6677
▁गढ़	-10.6678
▁करुणा	-10.6678
▁मामला	-10.6678
▁तीर्थ	-10.6679
▁द्वितीय	-10.668
▁इलाकों	-10.6686
▁स्टेट	-10.6686
▁पौधों	-10.6686
▁इनका	-10.6689
▁श्रीनगर	-10.6691
फल	-10.6714
▁लेती	-10.6716
▁प्रायश्चित	-10.6739
▁खजाने	-10.674
▁नंगे	-10.674
▁बांस	-10.6741
▁निकोबार	-10.6741
▁चलाया	-10.6744
▁मॉरीशस	-10.6744
▁स्राव	-10.6748
▁नमस्कार	-10.6753
▁लाभकारी	-10.6755
▁शा	-10.6757
माल	-10.6772
▁वापसी	-10.6794
▁33	-10.6799
▁अनुपात	-10.6803
▁मतदान	-10.6804
जल	-10.6826
3	-10.6833
▁भटक	-10.6842
रे	-10.6849
▁ना	-10.6855
▁लाइसेंस	-10.6856
▁in	-10.6856
▁वीर	-10.6862
▁वेश्या	-10.6867
▁शोधकर्ताओं	-10.6868
▁नज़र	-10.687
▁बैठकें	-10.6888
▁कंधे	-10.6893
▁बुजुर्गों	-10.6899
▁छू	-10.69
देखो	-10.6902
▁बायो	-10.6903
▁मांसपेशिय	-10.6917
▁ब्रिटिश	-10.6931
▁कंप्यूटर	-10.6931
▁बापू	-10.6932
▁विभाजन	-10.6932
▁एहसास	-10.6932
▁अखंडता	-10.6932
▁मिलेंगे	-10.6932
▁मुकुट	-10.6932
▁अर्थात्	-10.6933
▁लचीलापन	-10.6933
▁लेबनान	-10.6933
▁खरीफ	-10.6934
▁खासकर	-10.6939
▁उठ	-10.6939
▁रखती	-10.6945
▁Bharat	-10.6957
▁आंख	-10.696
▁लौटने	-10.6971
▁मृत	-10.6974
▁लूट	-10.6982
▁सुलभ	-10.6991
▁विधवा	-10.6992
▁मवेशियों	-10.6996
▁कारगिल	-10.6996
▁जंगलों	-10.6996
▁रोडमैप	-10.6997
▁खाड़ी	-10.6997
▁संपन्न	-10.6997
▁कठिनाई	-10.6997
▁समितियों	-10.6998
▁कोशिकाओं	-10.6999
▁चुनौतीपूर्ण	-10.7
▁साहसिक	-10.7
▁पद्धति	-10.7014
▁कीमती	-10.7023
▁शिष्य	-10.7027
▁आयुक्त	-10.7032
▁जापानी	-10.7039
▁जनजाति	-10.704
▁उज्ज्वल	-10.7048
ाइड	-10.7052
▁शेयर	-10.7057
▁अवार्ड	-10.7058
▁गरिमा	-10.7059
▁खतर	-10.7062
▁किराए	-10.7062
▁इंटेलिजेंस	-10.7062
▁पैगंबर	-10.7062
▁प्रोफेसर	-10.7063
▁पोषित	-10.7064
▁यूनिवर्सिटी	-10.7064
▁नमन	-10.7077
▁आयाम	-10.7088
▁वी	-10.7094
▁जलमार्ग	-10.7094
▁भागों	-10.7099
मा	-10.7102
▁जोशी	-10.7119
▁क्लस्टर	-10.7124
▁शासकों	-10.7125
▁पोखरियाल	-10.7127
▁मुख्यमंत्रियों	-10.7127
E	-10.7128
▁शिक्षित	-10.7128
▁कोच्चि	-10.7129
▁बेकार	-10.7131
▁2000	-10.7137
▁पौधे	-10.7137
हार	-10.7162
▁साधारण	-10.7163
▁हरा	-10.7164
▁भेजने	-10.7164
▁बनो	-10.7172
▁स्थितियों	-10.7173
▁कट	-10.7193
▁अड्डों	-10.7194
▁संलग्न	-10.7194
▁पार्सल	-10.7194
▁अंगूर	-10.7194
▁एसोसिएशन	-10.7194
▁छुटकारा	-10.7195
▁ऊंचाई	-10.7195
क्लिक	-10.7196
▁सशक्तीकरण	-10.7197
सरकारी	-10.7199
▁हल्के	-10.72
▁सेब	-10.7223
▁राव	-10.7226
▁कार्बन	-10.7229
▁दोस्ती	-10.7241
▁सावधान	-10.7251
आर	-10.7254
▁एयरपोर्ट	-10.7257
▁रसोई	-10.726
▁डिज़ाइन	-10.7261
▁शेकेल	-10.7261
▁धनुष	-10.7261
▁दोगुनी	-10.7262
▁नॉर्थ	-10.7263
▁करूँगा	-10.7265
में	-10.7266
▁अनुशासन	-10.7268
▁प्रसन्नता	-10.7275
▁निकलता	-10.7283
▁भावनाओं	-10.7283
▁मजबूती	-10.7292
▁दु	-10.7294
▁इंटर	-10.7302
▁:-	-10.7318
▁प्रसव	-10.7323
▁निर्दोष	-10.7327
▁संग्राम	-10.7329
▁व्यक्तित्व	-10.733
▁सूरत	-10.7332
मान	-10.7337
▁आरडी	-10.7342
▁कचर	-10.7347
▁रो	-10.7352
▁मुक्ति	-10.7362
▁पकड़ने	-10.7363
▁मार्गों	-10.7364
▁हमला	-10.7371
▁विफल	-10.738
▁संज	-10.7391
▁चूंकि	-10.7395
ाधिक	-10.7397
▁समावेशन	-10.7398
▁दुखी	-10.7398
▁खूब	-10.7403
▁लगाते	-10.742
▁मी	-10.7424
5	-10.7433
▁सेवाएँ	-10.7438
▁सुख	-10.7438
▁सत्ता	-10.7451
भिन्न	-10.7459
ालू	-10.7462
▁उत्पत्ति	-10.7463
▁परिकल्पना	-10.7463
▁प्रचुर	-10.7463
▁नबूकदनेस्सर	-10.7463
▁मानसून	-10.7463
▁पड़ेगा	-10.7464
▁चोटी	-10.7464
▁स्वचालित	-10.7464
▁संभावनाएं	-10.7465
ed	-10.7466
▁फटकार	-10.7467
▁ताल	-10.7468
▁परीक्षणों	-10.747
▁अंगों	-10.747
▁लगाना	-10.7474
▁स्टैंड	-10.7477
▁समझते	-10.7481
▁वीजा	-10.7484
▁चोरी	-10.7487
▁बिन	-10.7492
ायें	-10.75
▁B	-10.7501
▁नर	-10.7503
▁49	-10.7519
▁सीख	-10.7525
▁भविष्यद्वक्ता	-10.7528
▁वाजपेयी	-10.7532
▁निचले	-10.7532
▁पतरस	-10.7532
▁हेल्थकेयर	-10.7532
▁आशंका	-10.7533
▁दीपक	-10.7534
▁घातक	-10.7534
▁हिस्सेदारी	-10.7535
▁www	-10.7542
राष्ट्रीय	-10.7545
बकरियों	-10.7548
▁M	-10.7551
वन	-10.7561
▁औ	-10.7595
▁दलों	-10.76
▁आउटरीच	-10.7601
▁घनिष्ठ	-10.7601
▁छुट्टी	-10.7601
▁जताई	-10.7601
▁परिश्रम	-10.7601
▁खातिर	-10.7601
▁स्टोरेज	-10.7601
▁गर्भावस्था	-10.7601
▁विशेषताएं	-10.7601
▁अंजीर	-10.7602
▁भजन	-10.7602
▁स्वराज	-10.7603
▁फाइबर	-10.7603
▁शिल्प	-10.7605
▁रूपरेखा	-10.7605
▁सेंट्रल	-10.7607
▁पंचायत	-10.761
▁उज्ज्वला	-10.7617
▁कै	-10.7618
▁2013	-10.762
▁खोले	-10.7627
▁बाई	-10.7629
▁रेगिस्तान	-10.7635
▁मातृ	-10.7635
▁न्यायाधीश	-10.7635
▁जरूरतमंद	-10.7636
▁तैनाती	-10.7658
▁छलांग	-10.767
▁अद्यतन	-10.767
ाह	-10.7671
▁गड्ढे	-10.7673
▁ट्रैकिंग	-10.7675
▁गिलाद	-10.7676
लय	-10.7677
▁जर्मनी	-10.7685
▁स्रोतों	-10.7702
▁भाव	-10.7704
▁बुजुर्ग	-10.7706
कश्मीर	-10.7716
▁ऊंचा	-10.7716
एच	-10.7729
▁यरदन	-10.774
▁बल्ब	-10.774
▁आंकड़ों	-10.774
▁सांस	-10.7742
▁ढक	-10.7742
▁करवाया	-10.7742
▁भविष्यद्वक्ताओं	-10.7743
▁मानता	-10.7746
▁गांधीजी	-10.7748
▁आपदाओं	-10.7751
▁लाई	-10.776
I	-10.7768
▁पंचायतों	-10.7775
्याह	-10.7776
ोत्तम	-10.7778
▁समाधानों	-10.778
▁अधि	-10.778
▁पहुंचे	-10.7803
▁शरण	-10.7805
▁मेघालय	-10.781
▁रिजर्व	-10.781
▁नारियल	-10.781
▁आराधना	-10.781
▁प्रतिपादन	-10.7811
▁छात्रवृत्ति	-10.7811
▁क्रॉस	-10.7811
▁संधि	-10.7811
▁मेगा	-10.7812
▁ठोकर	-10.7812
▁तस्करी	-10.7813
▁स्वीडन	-10.7819
ड़	-10.7821
दान	-10.7827
▁मेज	-10.7839
▁ट्रेड	-10.7847
▁रूम	-10.7853
क्योंकि	-10.7858
▁34	-10.7872
▁महायाजक	-10.7881
▁रवाना	-10.7881
▁पापबलि	-10.7881
▁फसह	-10.7881
▁इनपुट	-10.7883
▁ध्वनि	-10.7887
▁इलाके	-10.7888
▁IIT	-10.7889
▁पाते	-10.7891
▁गुस्सा	-10.7892
▁नाते	-10.7894
▁जे	-10.7895
ज़	-10.79
▁उद्यमी	-10.7902
▁कमांडर	-10.791
▁जरूरतमंदों	-10.7917
▁सूख	-10.7922
CCEA	-10.7929
साहेब	-10.793
▁तटों	-10.7931
▁II	-10.7935
▁नकारात्मक	-10.7941
▁रथों	-10.7944
▁यूरोप	-10.7947
▁दिलचस्प	-10.7953
▁पत्नियों	-10.7953
▁प्रशस्त	-10.7953
▁युवक	-10.7953
▁सुनेंगे	-10.7953
▁मूर्तियाँ	-10.7954
▁व्यापारी	-10.7954
▁कराधान	-10.7954
▁सैर	-10.7956
▁उठकर	-10.7956
▁वाटर	-10.7961
▁आँख	-10.7964
▁प्रवृत्ति	-10.7981
▁आदत	-10.7989
▁स्वर्गदूतों	-10.8001
▁धारणा	-10.8019
▁चौबीस	-10.8024
▁अस्वीकार	-10.8025
▁महत्वाकांक्षी	-10.8025
▁योनातन	-10.8025
▁उत्सर्जन	-10.8025
▁ट्रम्प	-10.8025
▁अवलोकन	-10.8025
▁विनिमय	-10.8026
▁अब्राहम	-10.8026
▁यूनानी	-10.8032
▁उठाना	-10.8032
▁चंगा	-10.8032
▁मां	-10.8042
रत	-10.8047
काल	-10.8049
▁मेजबानों	-10.8065
▁द्वीपों	-10.8069
िस	-10.8074
▁विधानसभा	-10.8094
▁उकसाया	-10.8097
▁जबरदस्त	-10.8097
▁कटाई	-10.8098
▁सुनता	-10.8108
K	-10.8114
▁घट	-10.8115
▁कहावत	-10.8117
▁बनना	-10.8126
▁हटाने	-10.8127
▁दौड़	-10.8128
▁गरम	-10.8137
▁बनाती	-10.8148
▁तत्वों	-10.815
कृत	-10.8151
▁बर्फ़	-10.8166
or	-10.8169
▁जश्न	-10.817
▁अधिग्रहण	-10.817
▁संदेह	-10.817
▁पुनरुत्थान	-10.817
▁गये	-10.817
▁अभाव	-10.8171
▁नागालैंड	-10.8171
▁घड़ी	-10.8171
▁दोहरे	-10.8172
फायत	-10.8172
▁पैनल	-10.8172
▁इरादा	-10.8173
ीकरण	-10.8173
▁छः	-10.8174
▁नियुक्ति	-10.8182
▁मेल	-10.8186
▁जगहों	-10.8199
▁वास	-10.8208
▁प्यास	-10.821
▁सार	-10.8215
मेंट	-10.8224
▁फिल्म्स	-10.8231
ोन	-10.8235
▁प्रस्तावों	-10.8239
▁इच्छुक	-10.8244
▁अनुकरण	-10.8244
▁तप्त	-10.8244
▁आश्रम	-10.8244
▁मंडाविया	-10.8244
▁एक्सप्रेसवे	-10.8244
▁आगमन	-10.8245
▁कृत्रिम	-10.8245
▁सैनिक	-10.8245
▁खाओ	-10.8246
▁ब्लू	-10.8246
▁स्वैच्छिक	-10.8246
▁उड़ानें	-10.8249
▁मोटे	-10.8251
▁वन्यजीव	-10.8256
▁कलाकारों	-10.8261
▁केयर	-10.8261
क्त	-10.8274
▁चैनलों	-10.8294
`	-10.8297
जैसे	-10.8298
मुझे	-10.8298
▁चिकित्सकों	-10.8303
▁पोलियो	-10.8313
▁जागरूक	-10.8313
▁मुद्दा	-10.8318
▁उपभोग	-10.8318
▁सुनाई	-10.8331
▁सेलाह	-10.8333
▁उठाते	-10.8335
▁600	-10.8344
िश	-10.8346
▁पित्त	-10.8361
▁नाव	-10.8361
▁किस्त	-10.8364
▁लक्षित	-10.8367
टाइम	-10.8373
▁जीता	-10.8384
▁ब्रांड	-10.839
▁गाद	-10.8392
▁नजदीक	-10.8392
▁रमेश	-10.8392
▁प्याज	-10.8392
▁खाएंगे	-10.8393
▁फ्रेमवर्क	-10.8393
▁मुस्लिम	-10.8396
▁बहत	-10.8397
▁सीरियाई	-10.8397
▁बैंड	-10.8399
▁सालों	-10.8404
▁गार्डन	-10.8404
▁38	-10.8407
▁बढ़ाते	-10.8413
▁बैठने	-10.8423
बा	-10.8428
▁-2	-10.843
सिस्टम	-10.8449
▁सहज	-10.846
▁सिलेंडर	-10.8467
▁आधी	-10.8468
▁अध्याय	-10.8468
▁पट्टिका	-10.8469
▁मौतें	-10.8474
▁चुप	-10.8476
▁टोल	-10.8482
▁कांप	-10.8483
▁नजार	-10.8485
▁स्टोन	-10.8488
▁स्पेस	-10.8489
▁इंडो	-10.849
▁नवीनत	-10.8497
▁सावधानी	-10.8497
▁पीस	-10.8498
▁कनान	-10.8505
▁गोद	-10.8516
▁मालिक	-10.852
▁इंडिय	-10.852
▁मठ	-10.8525
▁काला	-10.8528
30	-10.8531
▁हेब्रोन	-10.854
▁कोर्स	-10.8541
▁वास्तुकला	-10.8543
▁प्रक्षेपण	-10.8543
▁प्रजनन	-10.8543
▁अधिकारिता	-10.8544
▁पुनः	-10.8544
▁बताओ	-10.8544
▁मुकाबले	-10.8544
▁सामरिक	-10.8544
▁औषधीय	-10.8545
▁राशन	-10.8545
▁इस्त्राएलियों	-10.8545
▁हल्का	-10.8545
▁कोरोनोवायरस	-10.8546
▁बगल	-10.8547
▁लाइफ	-10.8549
▁कर्म	-10.8554
▁नीलामी	-10.8556
▁चलो	-10.8562
▁निभात	-10.8579
▁वकील	-10.8584
▁फैली	-10.8589
▁दिलात	-10.8599
वह	-10.8608
▁थीम	-10.8616
▁त्यौहार	-10.862
▁निगल	-10.862
सके	-10.862
▁गतिविधियाँ	-10.862
▁लायक	-10.8621
▁पर्दे	-10.8621
▁स्कीम	-10.8622
▁पंक्ति	-10.8623
▁एनर्जी	-10.8623
▁सॉफ्टवेयर	-10.8624
▁प्रवासियों	-10.8625
▁आखिरी	-10.8626
▁पुकारा	-10.8627
▁मैत्री	-10.8632
▁दिखा	-10.8639
▁बहा	-10.8641
▁लगाकर	-10.8642
▁ICMR	-10.8644
▁नौकरों	-10.8652
▁बैच	-10.8661
ोडल	-10.8668
▁रोका	-10.8677
▁नामित	-10.8683
▁बगीच	-10.8687
▁डिफेंस	-10.8697
▁रखूंगा	-10.8697
▁क्लब	-10.8698
▁निर्धारण	-10.8699
▁बैठकर	-10.87
▁कहानियों	-10.8701
▁50,000	-10.8705
ंतु	-10.8707
कर्ताओं	-10.8715
▁रोल	-10.8743
▁साधनों	-10.8755
▁2.5	-10.8764
यदि	-10.877
▁खींच	-10.877
▁पाल	-10.8771
▁आतिथ्य	-10.8774
▁उपन्यास	-10.8774
▁समक्ष	-10.8774
▁एक्सचेंज	-10.8774
▁साक्षी	-10.8775
▁अर्ध	-10.8775
▁वार्ड	-10.8775
▁कॉन्क्लेव	-10.8777
▁पिछड़े	-10.8781
राज	-10.8787
▁वंश	-10.8792
▁सेंट	-10.8794
ii	-10.8801
▁रेड	-10.8802
▁भार	-10.8802
मन	-10.8813
▁सुनहर	-10.8815
▁यूनिट	-10.8823
▁माफ	-10.8823
▁गोली	-10.8839
स्त्रियों	-10.8846
▁दीव	-10.8848
▁a	-10.885
▁दीनदयाल	-10.8852
▁रहूंगा	-10.8853
▁वर्णन	-10.8853
▁कुष्ठ	-10.8853
▁दमिश्क	-10.8853
▁उदर	-10.8853
▁बनाऊंगा	-10.8853
▁युगांडा	-10.8854
▁अस्थायी	-10.8854
▁समर्थित	-10.8854
▁भक्ति	-10.8858
▁प्रेमियों	-10.8869
▁रियल	-10.8871
झंडी	-10.8875
▁एसिड	-10.8876
▁बारीक	-10.8878
▁प्राप्ति	-10.8881
▁विकृत	-10.8886
▁रि	-10.889
▁खतरों	-10.8894
▁मुड़	-10.8903
▁बुक	-10.8922
▁विजेता	-10.8928
▁कॉरिडोर	-10.8931
▁भौगोलिक	-10.8931
▁समीप	-10.8931
▁पशुधन	-10.8931
▁दफनाया	-10.8931
▁छुड़ाया	-10.8931
▁चक्कर	-10.8933
▁शाखाओं	-10.8934
▁निर्दिष्ट	-10.8934
▁नियत	-10.8936
▁केन्या	-10.8937
▁एक्शन	-10.8938
▁हट	-10.894
▁लाते	-10.8944
भार	-10.8944
▁2025	-10.8964
▁धार	-10.8967
▁बताएं	-10.8975
▁पायलट	-10.8979
▁ज्यादात	-10.898
ेस	-10.8984
▁विवेक	-10.9003
▁वक्त	-10.9003
▁वै	-10.9007
▁गो	-10.9009
▁संहिता	-10.901
▁परि	-10.901
▁गुलाब	-10.901
▁नित्य	-10.901
▁बढ़ेगी	-10.9011
▁चौथी	-10.9011
▁बनाएंगे	-10.9011
▁ज्ञात	-10.9012
▁सत्तर	-10.9012
जब	-10.9012
▁मछुआरों	-10.9012
▁बनाएगा	-10.9013
▁अंधे	-10.9015
▁दांत	-10.9015
▁नारायण	-10.9034
▁भेदभाव	-10.9038
▁रोमांचक	-10.9047
▁साझेदार	-10.9064
▁विपत्ति	-10.9077
▁परिपूर्ण	-10.9086
▁शाखा	-10.9088
▁स्नेह	-10.909
▁निर्बाध	-10.909
▁समझौतों	-10.909
▁उपाध्यक्ष	-10.9091
▁मैनेजमेंट	-10.9091
▁प्रभुत्व	-10.9092
▁गुणा	-10.9092
▁बुकिंग	-10.9093
▁नर्मदा	-10.9093
▁पहुँचे	-10.9094
▁370	-10.9094
▁कब्जा	-10.91
▁भेद	-10.9113
▁गार्ड	-10.9117
▁पहने	-10.9125
ूर्ण	-10.9125
बीर	-10.9155
▁मनुष्यों	-10.916
▁डालने	-10.9164
▁स्वायत्त	-10.9165
▁टाइगर	-10.9171
▁कसम	-10.9172
▁बढ़ेगा	-10.9172
▁पॉलिसी	-10.9173
▁सि	-10.9173
▁संग्रहण	-10.9173
▁रोना	-10.9173
▁अन्यथा	-10.9174
▁पुनर्गठन	-10.9174
▁पिघल	-10.9178
▁चंद्रमा	-10.9186
▁तकलीफ	-10.9188
▁हाट	-10.9194
▁धर्मशाला	-10.9195
▁ऐ	-10.9237
▁चोर	-10.9238
▁शास्त्री	-10.924
▁हस्ताक्षरित	-10.9244
▁चाहती	-10.9249
▁देखेगा	-10.9253
▁कफ	-10.9254
▁गुदा	-10.9254
▁भ्रष्ट	-10.9254
▁योद्धाओं	-10.9255
▁प्रोटीन	-10.9258
▁ज्वर	-10.926
▁जूते	-10.9262
▁अपराधियों	-10.9263
▁इनाम	-10.9267
▁क्षति	-10.9267
ंड	-10.9269
▁गंभीरता	-10.9281
▁दबा	-10.9295
▁सुरंग	-10.9296
▁स्वरूप	-10.9301
▁पश्चात	-10.9305
भाई	-10.9319
▁तत्पर	-10.9329
▁निष्पक्ष	-10.933
▁रूबेन	-10.933
▁चुनौतियां	-10.9334
▁तिरस्कार	-10.9334
▁इथेनॉल	-10.9335
▁कॉर्पोरेशन	-10.9335
▁साबुन	-10.9335
▁फीसदी	-10.9335
▁पोषक	-10.9336
▁मोहम्मद	-10.9339
▁लाइट	-10.9343
▁जुकाम	-10.9345
▁बाँध	-10.9349
▁हरित	-10.9355
▁निर्देशों	-10.9365
बू	-10.9366
▁कोर्ट	-10.9384
▁कमजोरी	-10.9395
▁काटने	-10.9397
.2020	-10.9397
▁1.	-10.941
▁राजीव	-10.9413
कम	-10.9416
▁अंग्रेज	-10.9417
▁छुआ	-10.9417
▁सेनानियों	-10.9417
▁चौधरी	-10.9417
▁फरीसियों	-10.9418
▁रिफाइनरी	-10.9418
▁तरलता	-10.9421
▁नस	-10.9421
▁वियतनाम	-10.9424
▁डीडी	-10.9426
▁सोचते	-10.9427
▁आत्मनिर्भरता	-10.9428
▁2021	-10.9431
▁सोलर	-10.9432
▁शर्तों	-10.9435
▁उपक्रमों	-10.9438
▁दाव	-10.9444
रात	-10.9446
▁लड़	-10.945
▁कुंड	-10.945
▁अस्तित्व	-10.9455
▁परेड	-10.9455
PM	-10.9458
सरकार	-10.9461
▁सांसदों	-10.9463
▁Ra	-10.9464
▁कराना	-10.9465
▁राजनयिक	-10.9465
0	-10.9468
▁जड़ी	-10.9472
▁बेहोश	-10.9473
▁बिता	-10.9474
▁95	-10.9482
▁रियायत	-10.9499
▁जनादेश	-10.95
▁चिड़ियाघर	-10.95
▁एलिय्याह	-10.95
▁अंधेरा	-10.9501
▁गर्भाशय	-10.9501
▁दसवें	-10.9501
▁रणनीतियों	-10.9501
▁Covid	-10.9501
▁मृदा	-10.9501
▁हस्तशिल्प	-10.9501
▁गोत्रों	-10.9504
▁";&#39;	-10.9506
▁आसन	-10.9507
▁पशुओं	-10.9508
▁घाटियों	-10.9509
▁संवेदनशीलता	-10.9509
▁टीका	-10.9511
▁उठने	-10.9517
▁विहार	-10.9522
▁अनुप्रयोगों	-10.9532
▁व्यभिचार	-10.9555
▁योगी	-10.9557
▁संस्थापक	-10.9559
▁कराई	-10.9564
▁सका	-10.9576
▁साहित्य	-10.9582
▁क़ानून	-10.9584
▁मुताबिक	-10.9584
▁स्टेडियम	-10.9584
▁सगाई	-10.9584
▁दूं	-10.9584
▁अय्यूब	-10.9585
▁संयोजन	-10.9585
▁अम्मोनियों	-10.9588
▁सरसों	-10.9589
▁झरने	-10.9597
▁आतंकवादियों	-10.9609
▁पे	-10.9618
▁हथियारों	-10.9619
▁त	-10.9628
▁डूब	-10.9633
▁वृक्षों	-10.9638
▁सील	-10.9639
▁कंट्रोल	-10.9649
स्ट	-10.9653
▁मैरी	-10.9661
▁उपयोगकर्ता	-10.9668
संख्य	-10.9669
▁मुसीबत	-10.9669
▁जैतून	-10.9669
▁प्रजातियों	-10.9669
▁अर्ज	-10.967
▁पाइप	-10.967
▁पाचन	-10.9671
▁जिगर	-10.9671
▁सीधी	-10.9672
▁शक्तियों	-10.9673
▁भावनात्मक	-10.9673
▁सर्विसेज	-10.9675
▁गाड़ी	-10.9677
▁नीम	-10.9678
▁राख	-10.968
▁मिर्च	-10.968
▁एकजुटता	-10.968
▁नौकरियों	-10.9682
▁एकत्रित	-10.9684
▁इ	-10.9692
ति	-10.9697
▁रेत	-10.9706
िल	-10.9719
▁हथियार	-10.9723
▁जटिल	-10.9746
इंडिया	-10.9747
▁पवन	-10.9754
▁गलियारे	-10.9754
▁म्यूजियम	-10.9754
▁रीढ़	-10.9754
▁धर्मेंद्र	-10.9755
▁सर्वशक्तिमान	-10.9755
▁धरोहर	-10.9755
▁जाएँगे	-10.9756
▁भ्रमण	-10.9757
▁चढ़ाई	-10.9757
▁वर्चुअल	-10.9757
,500	-10.976
▁पद्म	-10.9762
▁प्रचल	-10.9767
▁to	-10.9774
▁नीली	-10.9775
▁रे	-10.9777
▁रहित	-10.978
▁समयबद्ध	-10.9784
▁रोमांच	-10.9793
▁वृत्तचित्र	-10.9805
▁E	-10.9813
▁मानो	-10.9817
▁ढँक	-10.9821
▁हफ्त	-10.9822
▁120	-10.9825
भगवान	-10.9833
शहूर	-10.984
▁कैलेंडर	-10.9841
▁नमूने	-10.9841
▁भयंकर	-10.9841
▁मोर्दकै	-10.9841
▁हस्तांतरित	-10.9841
▁पुतिन	-10.9841
▁डैनियल	-10.9841
▁सुसज्जित	-10.9841
▁प्रिंस	-10.9841
▁प्रबल	-10.9841
▁PRAGATI	-10.9842
▁हथकरघा	-10.9842
▁स्वामित्व	-10.9843
▁LMT	-10.9843
▁पवित्रता	-10.9844
▁अनूठा	-10.9846
▁खुदरा	-10.9847
▁श्रद्धालु	-10.9849
▁बेस	-10.985
▁परिवर्तनों	-10.9857
▁डीएसटी	-10.9863
▁चीफ	-10.9866
▁मात्र	-10.9871
▁आकांक्षा	-10.9886
▁5000	-10.9889
गर	-10.9901
▁लाइनों	-10.9905
ानुसार	-10.991
▁दिव्य	-10.9911
ानी	-10.9919
▁उदार	-10.9924
▁लचीला	-10.9927
▁श्वसन	-10.9928
▁शुरूआत	-10.9928
▁दूरदर्शन	-10.9928
श्री	-10.9928
▁तीर	-10.9929
▁संतुष्टि	-10.9929
▁दिनांक	-10.993
▁एप्लिकेशन	-10.993
▁ज्योति	-10.9931
▁ब्रिटेन	-10.9935
▁ऑटो	-10.9938
▁लिखी	-10.9939
▁कोनों	-10.9942
▁महानता	-10.9942
▁परियोजनाएँ	-10.9948
▁भेड़ों	-10.9951
▁N	-10.9955
चर	-10.9963
▁भ	-10.9971
▁विद्यालय	-10.9982
▁स्तंभों	-10.9984
▁विकृति	-10.9992
▁बहने	-10.9997
▁प्रतिशोध	-11.0004
और	-11.001
▁Pradhan	-11.0015
▁घृणित	-11.0015
▁वफादार	-11.0015
▁एसाव	-11.0015
▁ठहराया	-11.0016
▁रिफंड	-11.0018
▁लॉजिस्टिक्स	-11.0018
▁संतान	-11.0019
▁लैस	-11.002
▁भोपाल	-11.002
▁परिवर्तनकारी	-11.0021
▁फ्रंट	-11.0022
▁जनजातियों	-11.0025
▁गलील	-11.0026
▁कलाम	-11.0039
▁घटा	-11.0039
▁प्राणी	-11.0044
▁लेख	-11.0069
▁किशोर	-11.0081
यर	-11.0086
दर	-11.009
पोस्ट	-11.0092
एनएएम	-11.0094
▁प्लान	-11.0099
▁सुन्दर	-11.0104
▁जेम्स	-11.0104
▁शिवाजी	-11.0104
▁सकेंगे	-11.0105
▁स्नातक	-11.0105
▁जूट	-11.0106
▁गुर्दे	-11.0109
▁सोते	-11.0115
▁मूर्खता	-11.0116
िए	-11.0121
▁कार्यात्मक	-11.0122
▁भूत	-11.0133
▁बसे	-11.0137
▁राह	-11.0148
▁क्रम	-11.0151
▁बिगाड़	-11.0154
▁आदर्शों	-11.0183
▁पूर्वानुमान	-11.0184
▁गाँठ	-11.0186
▁वैध	-11.0188
▁अशोक	-11.0189
-30	-11.0191
▁बेंजामिन	-11.0193
▁भविष्यद्वाणी	-11.0193
▁ब्लड	-11.0193
▁वीणा	-11.0193
▁पुनर्निर्माण	-11.0193
▁संसार	-11.0193
▁अयोध्या	-11.0194
▁सीएम	-11.0194
▁अवैध	-11.0194
▁आईएनएस	-11.0195
▁Mantri	-11.0195
▁हिंदू	-11.0196
▁कोरियाई	-11.0197
▁हिसाब	-11.0198
▁56	-11.0201
▁यहुवह	-11.0202
▁पब्लिक	-11.0204
हट	-11.0205
▁बदलना	-11.0208
▁अनार	-11.0214
एन	-11.0215
▁GeM	-11.0216
▁मार्केट	-11.0217
▁मजदूर	-11.0223
▁सौंपा	-11.0223
50	-11.0251
▁तालाब	-11.0254
▁जगत	-11.0256
▁श्रेय	-11.0267
आर्थराइटिस	-11.0273
▁भोज	-11.0277
▁52	-11.0279
निहारना	-11.028
▁उद्यमशीलता	-11.0283
▁वक्तव्य	-11.0283
▁सार्थक	-11.0283
▁खिलाड़ी	-11.0283
▁2.	-11.0283
▁परिधान	-11.0283
▁नाराज	-11.0284
▁पैलेस	-11.0284
▁एस्टेट	-11.0284
▁अपमान	-11.0284
▁अकेला	-11.0284
▁प्रतिरक्षा	-11.0285
▁किलोग्राम	-11.0286
▁बूढ़े	-11.0288
▁भागीदारों	-11.0294
▁सड़कें	-11.0304
▁डाली	-11.031
▁37	-11.0319
त्र	-11.0321
▁85	-11.0329
राज्य	-11.0332
▁लेफ्टिनेंट	-11.0336
▁यात्राओं	-11.037
▁वर्णित	-11.0375
▁ड्रग	-11.0375
▁समन्वित	-11.0376
▁सकेगा	-11.0376
▁प्रेममयी	-11.0379
▁वोट	-11.0382
▁होम्योपैथी	-11.0382
▁दिलाई	-11.0384
▁मजा	-11.0386
▁01	-11.0389
▁हत्या	-11.0398
▁जमात	-11.0402
गा	-11.0405
▁पुनर्	-11.0407
▁यूएस	-11.0411
▁धो	-11.0412
▁उठी	-11.0412
▁बैलों	-11.0424
▁अनुप्रयोग	-11.0434
▁समावेश	-11.0435
पर	-11.046
▁वार	-11.0463
▁कॉरपोरेट	-11.0463
▁MoS	-11.0466
▁आरंभ	-11.0466
▁तदनुसार	-11.0466
▁मुद्रास्फीति	-11.0466
▁अभिसरण	-11.0466
▁कुपोषण	-11.0466
▁अन्तर्	-11.0466
▁नवजात	-11.0466
▁इंदौर	-11.0466
▁डालेगा	-11.0466
▁स्तूप	-11.0467
▁खिड़की	-11.0469
▁टेबल	-11.0469
▁गाइड	-11.047
▁74	-11.0475
▁जवाबदेही	-11.0478
▁मेडल	-11.0478
▁फील्ड	-11.0479
▁प्रिंट	-11.048
▁छड़ी	-11.048
▁प्रकाशन	-11.0484
▁पर्व	-11.0485
टिव	-11.049
▁वायरल	-11.049
▁मोहन	-11.0496
▁फ्री	-11.0502
▁बदलते	-11.0505
▁तमा	-11.0509
▁मिश्रा	-11.0519
▁रहस्य	-11.0522
▁विन	-11.0524
▁संगठित	-11.0527
▁टीके	-11.0536
▁एक्ट	-11.0539
▁कागज	-11.055
▁तमिल	-11.0558
▁नमूना	-11.0558
▁स्वभाव	-11.0558
▁खाओगे	-11.0559
▁स्पोर्ट्स	-11.0559
▁ग्लेशियर	-11.0559
▁झूठे	-11.0559
▁चेलों	-11.0561
▁ड्रग्स	-11.0562
▁अमरीक	-11.0562
▁बनाओ	-11.0565
▁हवेली	-11.0566
▁फोर्स	-11.0568
▁मेढ़े	-11.0573
▁रखकर	-11.0574
▁जले	-11.0575
▁उठाकर	-11.0576
▁डालकर	-11.0576
▁रॉयल	-11.0577
▁ब्रिज	-11.058
िटी	-11.0581
▁माइक्रो	-11.0585
▁दालों	-11.0593
▁सूखी	-11.0594
O	-11.0609
▁वहन	-11.0612
▁सहयोगियों	-11.0628
▁R	-11.0651
▁एस्तेर	-11.0652
▁खुराक	-11.0652
▁कुल्लू	-11.0652
▁अब्बास	-11.0652
▁प्रतीत	-11.0652
▁0	-11.0654
▁पीआईबी	-11.0655
▁रेटिंग	-11.0656
▁टेंट	-11.0657
▁अम्मोन	-11.0657
▁खरे	-11.0659
▁आरटी	-11.0664
▁निर्भरता	-11.0672
▁पंद्रह	-11.0674
▁आवासीय	-11.0686
▁44	-11.0687
▁सवारी	-11.0693
ुओं	-11.0697
▁फ	-11.07
▁लेप	-11.071
▁मारता	-11.071
▁संयंत्रों	-11.0714
▁वध	-11.0717
▁संयम	-11.0719
▁नल	-11.072
▁माँग	-11.0732
▁गुस्स	-11.0735
▁मायन	-11.0735
मेक	-11.0735
▁अमर	-11.0736
▁भ्रम	-11.0738
▁जाऊं	-11.0746
▁मुगल	-11.0746
▁अंधकार	-11.0746
▁बागवानी	-11.0746
▁विष्णु	-11.0748
▁सोसाइटी	-11.0748
▁दाल	-11.0748
▁बनारस	-11.0749
▁मिश्रित	-11.0749
▁पंडित	-11.075
▁इरादे	-11.0751
▁हैकथॉन	-11.0757
▁पि	-11.0772
▁डरो	-11.0773
▁कार्यान्व	-11.0776
▁दस्तावेज	-11.0776
▁शहीदों	-11.078
▁पंचायती	-11.0783
▁दम	-11.0789
▁योनि	-11.0795
▁फीचर	-11.0797
▁पड़ी	-11.0805
करण	-11.0811
▁800	-11.0819
▁लोड	-11.0829
▁आईबी	-11.0831
,&#39;	-11.0832
▁मॉड्यूल	-11.0835
▁सटीक	-11.0836
▁चर्बी	-11.0841
▁फिटनेस	-11.0842
▁कवच	-11.0843
▁कार्यबल	-11.0843
हीन	-11.0843
▁हार्ट	-11.0844
▁बीमारियाँ	-11.0845
▁क्रूस	-11.0846
▁बौद्धिक	-11.0849
▁हिला	-11.0849
▁डेरा	-11.085
▁हाउसिंग	-11.0854
▁जम	-11.0858
▁प्राण	-11.0858
राव	-11.086
N	-11.0861
▁लेखा	-11.0862
वाले	-11.0874
नों	-11.0887
▁सोचने	-11.0888
F	-11.0894
▁छोड़ा	-11.0896
▁तोड़ने	-11.0899
▁वेब	-11.0903
▁ग्राहक	-11.0903
▁गुणों	-11.0907
▁गणेश	-11.0909
▁चकित	-11.0918
▁हाइड्रो	-11.093
▁चम्मच	-11.0938
▁मंडियों	-11.0938
▁ढलान	-11.0938
▁एजेंडे	-11.0938
ाइट	-11.0939
▁अम्बेडकर	-11.0939
▁कैडर	-11.0939
▁विक्रेताओं	-11.094
▁संपदा	-11.094
▁विधान	-11.094
▁पड़ोसियों	-11.0941
▁किराया	-11.0942
▁बिम्सटेक	-11.0944
▁Rs	-11.0946
▁बैंकर	-11.0951
▁रत्न	-11.0956
▁संभाला	-11.0958
▁न्यायिक	-11.0963
▁निरंतरता	-11.0968
▁&#39;&#39;	-11.0973
सहारा	-11.0977
ड़ी	-11.1001
▁सन	-11.1004
▁अध्यादेशों	-11.101
▁लगाएँ	-11.1015
▁प्रबंध	-11.1019
R	-11.1026
ीसी	-11.1032
▁53	-11.1033
▁करूं	-11.1034
▁किंगडम	-11.1035
▁सिन्हा	-11.1035
▁गन्ना	-11.1035
▁प्रयागराज	-11.1035
▁अपेक्षित	-11.1035
▁उत्पीड़न	-11.1035
▁स्कीइंग	-11.1038
▁साठ	-11.1038
▁रेड्डी	-11.1038
लेकिन	-11.1039
▁जूरी	-11.104
▁सैनिटाइज़र	-11.1042
▁विजन	-11.1042
▁उठता	-11.1043
▁मसौद	-11.1044
▁इस्राएलियों	-11.105
▁आर्ट	-11.1054
▁महाराजा	-11.1055
▁दिखात	-11.1057
▁उभरा	-11.1066
▁बूँद	-11.1068
▁हु	-11.1068
ठों	-11.1084
जीत	-11.1088
▁मानी	-11.1089
यें	-11.1092
▁अतिचार	-11.1098
▁मानदंड	-11.1098
▁शहीद	-11.11
▁संकेतक	-11.1106
▁1500	-11.1118
▁सतर्क	-11.1127
▁सत्याग्रह	-11.1129
▁झलक	-11.1132
▁नेविगेशन	-11.1133
▁आलू	-11.1133
▁मुख्यधारा	-11.1134
▁अबीमेलेक	-11.1134
▁बोलना	-11.1136
▁डेढ़	-11.1139
▁रंगों	-11.1146
दा	-11.1149
▁निर्यातकों	-11.1155
▁मित्रता	-11.1158
▁समाजों	-11.1159
▁फैलने	-11.1162
▁खरीदा	-11.1168
▁मो	-11.117
्हीं	-11.1172
▁अर्क	-11.1192
▁U	-11.1194
मैंने	-11.1198
▁इमारतों	-11.1209
दम	-11.1213
ing	-11.1213
▁तार	-11.1219
▁पथरी	-11.1226
▁टेक	-11.1227
▁जिंदगी	-11.1232
▁सुसमाचार	-11.1232
▁मुखर्जी	-11.1232
▁मार्गदर्शक	-11.1232
▁अन्वेषण	-11.1232
▁चिंतित	-11.1232
▁एलीशा	-11.1233
▁शासनकाल	-11.1234
▁अन्दर	-11.1234
▁प्री	-11.1237
▁बताना	-11.1237
▁अनन्त	-11.1239
▁कहें	-11.1244
▁मौ	-11.1245
▁लीटर	-11.1246
याह	-11.1247
रो	-11.1247
▁असीम	-11.1248
▁मिलना	-11.1249
▁91	-11.125
▁अल्	-11.1251
फेफड़ों	-11.1255
▁गठित	-11.1256
▁पाठ्यक्रमों	-11.1261
▁नकदी	-11.1279
वाला	-11.1288
▁भाग्य	-11.1291
▁बचे	-11.1292
▁कद	-11.1293
▁72	-11.1294
▁विनियम	-11.1296
▁मिसाइल	-11.1297
▁टैक्सी	-11.1299
हर	-11.1301
▁फाड़	-11.1306
▁प्रारंभ	-11.133
▁सामंजस्य	-11.1331
▁क्रूज	-11.1332
▁रांची	-11.1332
▁व्यवधान	-11.1332
▁विरूद्ध	-11.1332
▁बिल्डिंग	-11.1332
▁बेटियाँ	-11.1332
▁लिनन	-11.1332
▁जनशक्ति	-11.1333
▁लंदन	-11.1333
▁नशे	-11.1333
शिप	-11.1334
▁जनगणना	-11.1335
▁स्पर्श	-11.1336
▁मापदंडों	-11.1336
शोधन	-11.1337
बंदी	-11.1353
▁मानसिकता	-11.1354
▁त्रि	-11.1364
▁भीख	-11.1366
▁जीते	-11.1375
▁उसको	-11.1376
▁वर्क	-11.1385
▁2018)	-11.1402
▁आसा	-11.1404
त्व	-11.1409
एम	-11.1417
▁दिखाए	-11.1427
▁चौड़ा	-11.1431
▁मोर्च	-11.1432
▁तीर्थयात्रियों	-11.1433
▁योशिय्याह	-11.1433
▁आवरण	-11.1433
▁वल्लभ	-11.1433
▁आभूषण	-11.1433
▁कहेगा	-11.1433
▁विमोचन	-11.1433
▁रहोगे	-11.1434
▁फैसलों	-11.1434
▁रोम	-11.1434
▁ग्रैंड	-11.1434
▁भुवनेश्वर	-11.1434
▁रेशम	-11.1435
▁अनौपचारिक	-11.1435
▁बढ़ेंगे	-11.1435
▁एड्स	-11.1436
▁त्योहारों	-11.1439
▁सज्जनों	-11.144
▁समझना	-11.1443
▁परीक्षाओं	-11.1447
▁The	-11.1451
ड़े	-11.1452
▁पहुँचते	-11.1456
▁बलिदानों	-11.1471
▁51	-11.1476
▁खबर	-11.1476
▁ढील	-11.1487
▁मै	-11.1492
▁आएं	-11.1492
▁करवा	-11.1508
▁टिक	-11.1509
▁बहादुरी	-11.1523
▁निर्णायक	-11.1529
▁ड्राइव	-11.1529
▁आंगनवाड़	-11.153
▁अजीब	-11.1534
▁ओपन	-11.1534
▁पसंदीदा	-11.1535
▁बैक्टीरिया	-11.1535
▁यरुशलम	-11.1535
▁धनराशि	-11.1535
▁फैशन	-11.1535
▁जहाजरानी	-11.1535
▁ड्यूटी	-11.1535
▁आंशिक	-11.1535
▁तपस्या	-11.1535
▁लाभांश	-11.1537
▁पेटेंट	-11.1537
▁बकरी	-11.1537
▁गेम्स	-11.1537
▁बेचैन	-11.154
▁रुप	-11.1541
▁नारंग	-11.1541
राम	-11.1543
▁प्रतिभाओं	-11.1543
▁संक्रामक	-11.1545
िंदा	-11.1547
▁बागान	-11.155
▁उद्धारकर्ता	-11.1554
र्टिफि	-11.1556
▁ड्रोन	-11.1558
▁पत्रों	-11.1562
▁लहर	-11.1568
▁अनजान	-11.1579
▁बोले	-11.1581
िका	-11.1586
▁ईरानी	-11.1586
▁बोर	-11.1588
▁एसटी	-11.1591
0,000	-11.1595
▁उदय	-11.16
▁महाराज	-11.1622
▁लौटा	-11.1624
▁प्रदूष	-11.1625
्र	-11.1628
▁श्रद्धा	-11.1633
▁इसराएल	-11.1634
▁रद्द	-11.1638
▁पुरस्कृत	-11.1638
▁मलेरिया	-11.1638
▁टॉवर	-11.1638
▁फेसबुक	-11.1638
▁डॉक्यूमेंट्री	-11.1639
▁मशीनरी	-11.164
▁थर्मल	-11.164
▁शौचालयों	-11.1643
▁बैंगनी	-11.1643
▁रुपए	-11.1643
▁अनूठी	-11.1649
▁सोर	-11.165
▁सेहत	-11.1655
▁व्यवस्थित	-11.1656
▁निवेशक	-11.1661
▁टूर	-11.1664
▁चू	-11.1671
▁जोश	-11.1673
▁दाग	-11.1675
▁समझता	-11.168
भाग्यशाली	-11.1681
घर	-11.1681
▁थकान	-11.1685
▁सेवानिवृत्त	-11.1687
-2	-11.1696
▁मस्जिद	-11.1709
▁फिलिस्तीन	-11.1716
न्त	-11.1717
▁आइस	-11.1718
▁प्रशांत	-11.1726
▁करों	-11.173
ताजा	-11.1731
▁स्टोर	-11.1732
▁ऑप्टिक	-11.1738
▁इंडेक्स	-11.1742
▁टेलीविजन	-11.1742
▁मोक्ष	-11.1742
▁सुदूर	-11.1742
▁भेजूंगा	-11.1742
▁महासचिव	-11.1743
▁शूटिंग	-11.1743
▁व्यावहारिक	-11.1745
▁मनोरम	-11.1745
▁Minister	-11.1747
▁पापी	-11.1747
▁विवाह	-11.1751
▁ईमेल	-11.1753
▁धोने	-11.1757
▁फेंका	-11.1773
▁लड़ी	-11.1776
▁नौका	-11.1786
▁03	-11.1787
हा	-11.1787
▁आउट	-11.179
▁सूचनाओं	-11.1792
कुल	-11.1797
er	-11.1802
दो	-11.1814
फा	-11.1845
▁गुंजाइश	-11.1847
▁यशायाह	-11.1847
▁साजिश	-11.1847
▁प्रातः	-11.1848
▁टोकरी	-11.1848
▁कहूंगा	-11.1848
▁अभिवादन	-11.1849
▁चलेगा	-11.185
▁राज्यपालों	-11.1851
▁मध्यस्थता	-11.1852
▁कोयले	-11.1852
▁अधिकृत	-11.1853
▁सतर्कता	-11.1854
▁अवसाद	-11.1858
कॉमर्स	-11.1859
दूर	-11.1859
▁गुजरता	-11.1868
▁पीते	-11.187
▁आशाओं	-11.187
▁पीना	-11.1871
▁प्रतिबंधित	-11.1873
ाता	-11.1876
वें	-11.1892
ूली	-11.1893
▁लगाता	-11.1905
▁झुका	-11.1921
▁India	-11.1938
▁अवशेषों	-11.1945
▁हुईं	-11.1952
▁देहरादून	-11.1954
▁मेमोरियल	-11.1954
▁उत्थान	-11.1954
▁राधा	-11.1954
▁मार्शल	-11.1954
▁पर्वतारोहण	-11.1954
▁मलेशिया	-11.1954
▁2015-16	-11.1954
▁ऑडिट	-11.1954
▁बस्तियों	-11.1955
▁सर्किट	-11.1955
▁रा	-11.1955
▁यूनाइटेड	-11.1956
▁कॉफी	-11.1957
▁गोल्डन	-11.1958
▁डब्ल्यूटीओ	-11.1959
▁मंत्रिस्तरीय	-11.196
▁बिंदुओं	-11.196
▁मंचों	-11.1968
▁जोड़त	-11.1969
▁डालें	-11.1969
▁डब्ल्यूएचओ	-11.1971
▁स्वयंसेवकों	-11.1971
▁प्रतिष्ठानों	-11.1973
▁निकलती	-11.1975
फिर	-11.1976
▁घंटा	-11.1977
▁64	-11.1987
कब्जे	-11.1993
▁टाइम	-11.1993
▁700	-11.2001
▁अनुसूची	-11.2003
▁अव	-11.2005
▁दोहरा	-11.201
al	-11.2011
▁लॉक	-11.2016
▁रेक	-11.2017
▁54	-11.2027
▁उम्मीदवार	-11.2029
रिया	-11.2031
▁नर्स	-11.2053
ावीर	-11.2056
▁आश्रय	-11.2057
▁लाभप्रद	-11.2057
▁व्यस्त	-11.2058
▁तरल	-11.2061
▁एक्सरसाइज	-11.2061
▁पैनोरमा	-11.2061
▁हानिकारक	-11.2061
▁गयी	-11.2061
▁केदारनाथ	-11.2061
▁लाएंगे	-11.2062
▁अफगान	-11.2062
▁बेथेल	-11.2062
▁आंकड़े	-11.2062
▁आदिवासियों	-11.2063
▁बनवाया	-11.2063
▁गतिशील	-11.2063
▁2014-15	-11.2063
▁एनिमा	-11.2064
▁कॉम्प्लेक्स	-11.2064
▁पंप	-11.2065
▁आईसीयू	-11.2066
▁लेक	-11.2067
▁जोड़ना	-11.2067
▁कमीशन	-11.207
गंज	-11.2071
▁वो	-11.2071
▁पहनने	-11.2072
▁जानना	-11.2074
▁क्षय	-11.2075
▁कैलोरी	-11.2086
▁सुविधाएँ	-11.2086
▁महादेव	-11.2105
▁शव	-11.2106
6	-11.2123
जन	-11.2129
▁मनात	-11.2137
▁छाप	-11.2154
▁चेन	-11.2157
▁स्वेच्छा	-11.2169
▁ग्यारह	-11.2169
▁मैसूर	-11.217
▁चैंपियन	-11.217
▁दरवाजा	-11.217
▁शंघाई	-11.217
▁एडमिरल	-11.217
▁स्पेक्ट्रम	-11.217
▁अंश	-11.217
▁मौलिक	-11.217
▁गोल्ड	-11.2171
▁आऊंगा	-11.2171
▁बाशान	-11.2172
▁जलाया	-11.2172
▁संदिग्ध	-11.2173
▁पासपोर्ट	-11.2174
▁कस्बों	-11.2175
▁खाएँ	-11.2177
▁सुनकर	-11.2178
▁पढ़ने	-11.2179
▁मंडप	-11.2183
▁आईसीटी	-11.2183
India	-11.2184
▁खिला	-11.2189
ढ़ी	-11.2196
▁शीर्षक	-11.2201
▁मिलों	-11.2217
मोनिया	-11.2218
▁दाने	-11.2221
▁बैग	-11.2223
लोड	-11.2236
▁साइट	-11.2236
▁पका	-11.2244
▁प्रवास	-11.2245
टू	-11.2246
▁डोर	-11.2247
पाल	-11.2249
्टर्ड	-11.2253
▁दुर्ग	-11.226
्त	-11.227
वाँ	-11.2277
▁कबूतर	-11.228
▁दरअसल	-11.228
▁गिबा	-11.228
▁रविवार	-11.228
▁सूर्योदय	-11.228
▁शिमोन	-11.228
▁जैसलमेर	-11.228
▁शर्करा	-11.228
t	-11.2281
▁साक्षरता	-11.2281
▁सामानों	-11.2282
▁अमृतसर	-11.2283
▁प्रतिभाशाली	-11.2283
▁किन्तु	-11.2284
▁संकाय	-11.2284
▁वादे	-11.2285
▁उठते	-11.2286
▁उल्टी	-11.2286
▁स्मरण	-11.2287
▁जूस	-11.2288
▁पूछ	-11.229
▁छठे	-11.2291
▁गणना	-11.2295
अगर	-11.2297
▁तीव्रता	-11.2298
▁लेखन	-11.2299
▁श्वेत	-11.23
▁संघों	-11.2304
▁निशंक	-11.2306
▁टूरिज्म	-11.2307
▁कोमल	-11.2311
▁संभालन	-11.2322
▁पत्ते	-11.2326
▁स्वर्गीय	-11.2327
पा	-11.233
▁कोल्ड	-11.2331
▁एली	-11.2354
▁करूब	-11.2358
▁कथा	-11.2362
▁रोज़	-11.2363
ंद	-11.2365
▁परिभाषा	-11.2386
▁स्वीकार्य	-11.2389
▁इंफ्रास्ट्रक्चर	-11.2391
▁चरित्र	-11.2391
▁बिखेर	-11.2391
▁अग्रवाल	-11.2391
▁यहोयादा	-11.2391
▁थोक	-11.2391
▁परिव्यय	-11.2391
▁डाउनलोड	-11.2391
▁प्रीमियम	-11.2392
▁विज्ञापन	-11.2392
एलएमटी	-11.2393
▁दूरदराज	-11.2393
▁उत्प्रेर	-11.2394
▁बनूंगा	-11.2394
▁फोटो	-11.2394
▁ईसा	-11.2395
▁कार्यभार	-11.2395
▁3000	-11.2398
▁शर्मिंद	-11.2402
डे	-11.2407
▁DRDO	-11.2412
▁67	-11.2416
▁जरा	-11.2432
धार	-11.2432
▁दीन	-11.2434
▁मांगी	-11.2452
▁झुक	-11.2453
गंगा	-11.2453
ियन	-11.2456
▁नागरिकता	-11.2463
U	-11.2464
ान	-11.2468
नगर	-11.2471
▁गिलियड	-11.2477
▁शीश	-11.2492
▁चौक	-11.2494
▁घटकों	-11.2495
▁रचना	-11.2499
▁पर्वतों	-11.2503
▁अब्नेर	-11.2503
▁निर्वहन	-11.2503
▁परिचय	-11.2503
▁साहब	-11.2503
▁इंसान	-11.2504
▁बोया	-11.2504
▁आयरलैंड	-11.2504
▁संघवाद	-11.2504
▁प्रवर्तन	-11.2505
▁आसमान	-11.2505
▁एक्सपो	-11.2505
▁द्वि	-11.2506
▁कुंवारी	-11.2508
▁ऊंट	-11.2509
▁डोमेन	-11.2509
▁ट्रिपल	-11.2509
▁डीजल	-11.251
▁नैतिक	-11.251
▁कड़े	-11.2512
▁हानि	-11.2513
▁विद्वानों	-11.2524
▁शेरों	-11.2525
▁छूने	-11.2526
▁पासवान	-11.2529
▁F	-11.2535
रहित	-11.254
▁77	-11.2549
▁2010	-11.2549
▁3.	-11.2551
▁मिस्रियों	-11.2552
लिंग	-11.2554
▁सीटों	-11.2567
▁माम	-11.257
▁कोचों	-11.257
▁घुस	-11.2576
▁ओवर	-11.2577
▁जिनसे	-11.2578
▁काउंटर	-11.2585
▁39	-11.2586
▁कोटा	-11.2586
▁ब्रेक	-11.2601
▁किस्म	-11.2601
▁बाध्य	-11.2611
▁अभिशाप	-11.2617
▁नींबू	-11.2617
▁बॉम्बे	-11.2617
▁पैटर्न	-11.2617
▁उपाध्याय	-11.2618
▁निष्क्रिय	-11.2618
▁यिप्तह	-11.2618
▁गंदगी	-11.2618
▁शुभकामनाएँ	-11.2618
▁अगरबत्ती	-11.2618
▁चढ़ावा	-11.2618
▁हमलों	-11.2619
▁तर्क	-11.2619
▁MyGov	-11.2619
▁विशेषाधिकार	-11.262
▁2008	-11.262
▁चित्रों	-11.262
▁ईपीएफओ	-11.2622
▁इकोनॉमिक	-11.2623
▁यूनेस्को	-11.2623
▁वाइब्रे	-11.2623
▁मेमने	-11.2625
▁थोड़े	-11.2625
▁फैलता	-11.2631
▁ग्रेट	-11.2655
▁ठंडा	-11.2657
▁दासी	-11.2661
शेष	-11.2662
▁हर्ष	-11.2681
लाद	-11.2687
▁पैन	-11.2691
▁छिप	-11.2695
▁दिव्यांग	-11.2703
▁पड़ोस	-11.2706
्तार	-11.271
▁2011	-11.2711
▁43	-11.2721
▁हस्तक्षेपों	-11.2725
▁विनम्र	-11.2726
▁मतदाता	-11.2729
▁ट्रांसपोर्ट	-11.273
KVIC	-11.2732
▁जुनून	-11.2732
▁पच्चीस	-11.2732
▁क्षतिग्रस्त	-11.2732
▁मकई	-11.2733
▁जातियों	-11.2733
▁साइंसेज	-11.2734
एस्पिरेशनल	-11.2734
▁तर्ज	-11.2735
▁एनडीए	-11.2735
▁दूरस्थ	-11.2735
▁स्टार	-11.2743
▁औसतन	-11.2746
▁करियर	-11.2747
▁सिखा	-11.2747
▁हालत	-11.275
▁मरे	-11.2752
▁उत्साही	-11.2754
▁प्रेरितों	-11.2756
▁स्किल	-11.2757
▁दुर्गा	-11.2763
▁प्रमाणित	-11.2764
▁तंत्रिका	-11.2772
h	-11.2772
▁पत्त	-11.2779
▁जलाने	-11.2779
▁समझदार	-11.2781
99	-11.2789
▁आकस्मिक	-11.2797
▁H	-11.2801
▁कालीन	-11.2807
▁समारोहों	-11.2807
▁बोलो	-11.2809
▁पहचाना	-11.2818
▁लेखक	-11.2822
▁करा	-11.2829
▁अनोख	-11.2832
▁बालक	-11.284
▁बनें	-11.2841
▁नामांक	-11.2846
▁हिंस	-11.2847
▁गिबोन	-11.2848
▁अजर्याह	-11.2848
▁पिकनिक	-11.2848
▁तुच्छ	-11.2848
▁यकृत	-11.2848
▁खाएगा	-11.2848
▁बताई	-11.2848
▁आस्था	-11.2848
▁जनसांख्यिकी	-11.2849
▁अंकुश	-11.2849
▁गलियों	-11.2849
▁गिनती	-11.285
▁अशर	-11.2851
▁आरबीआई	-11.2851
▁सिफारिशें	-11.2852
▁नियोजन	-11.2852
▁रजत	-11.2852
▁नैतिकता	-11.2854
▁भेड़ें	-11.2855
▁अंततः	-11.2856
▁बिखरे	-11.2864
▁वचनों	-11.2864
▁सच्चे	-11.2867
▁99	-11.2867
हाउस	-11.2869
गवर्नेंस	-11.2871
▁रिंग	-11.2872
▁कंध	-11.2875
स्तु	-11.2875
▁शापित	-11.2884
म्बर	-11.2885
▁डाउन	-11.2895
th	-11.2902
▁कोट	-11.2911
▁ऑफिसर	-11.2911
▁मंजिल	-11.2913
▁नेत्र	-11.2917
▁46	-11.2925
▁कैडेट	-11.2927
▁मंडल	-11.2933
▁शिक्षाओं	-11.2935
▁रामा	-11.2936
ल्स	-11.2937
ेंस	-11.2943
▁कहलात	-11.2947
▁साम्राज्य	-11.2949
▁जब्त	-11.2954
▁73	-11.2956
▁रैपिड	-11.2957
▁जौ	-11.2962
▁उत्पादकों	-11.2964
▁फिलीपींस	-11.2966
▁शरारत	-11.2966
▁हड्डियाँ	-11.2966
▁ओलंपिक	-11.2966
▁हेल्पलाइन	-11.2966
▁आरक्षित	-11.2966
▁आत्मान	-11.2966
▁तेरह	-11.2967
▁यूथ	-11.2967
▁लगेगा	-11.2968
▁मोटापा	-11.2968
▁उदयपुर	-11.2968
▁गिदोन	-11.2969
▁बिछाने	-11.2972
▁सत्यापन	-11.2975
▁फैट	-11.2978
▁आजकल	-11.2978
▁शिक्षाविदों	-11.2978
▁उपयोगकर्ताओं	-11.2979
▁पकाने	-11.298
▁सीखा	-11.299
चकित	-11.2991
▁दिखाता	-11.2992
▁होली	-11.2992
फार्मास्यूटिकल्स	-11.2994
खबर	-11.2995
▁श्रृंखलाओं	-11.2997
▁फट	-11.2997
▁47	-11.3001
▁साहेब	-11.3004
▁उन्मुख	-11.3007
ंसिक	-11.3009
▁डालता	-11.301
ेंगे	-11.3012
▁कंधा	-11.3013
▁L	-11.3021
▁अर	-11.3025
▁2012	-11.3041
▁मनो	-11.3044
▁आशावाद	-11.3045
▁उतनी	-11.3046
▁2.0	-11.3047
▁अभिव्यक्ति	-11.305
▁आचार्य	-11.305
टेक	-11.3051
▁थका	-11.3054
▁चौदह	-11.3057
▁उपग्रहों	-11.307
▁छेद	-11.307
▁रुझान	-11.3085
▁जकर्याह	-11.3085
▁टैगोर	-11.3085
▁सोलह	-11.3085
▁पूर्णिमा	-11.3085
▁बाधित	-11.3086
▁पहुंचाया	-11.3086
▁इवेंट	-11.3087
▁कपास	-11.3087
▁दवाएं	-11.3088
▁प्रतिवर्ष	-11.3088
▁मोबिलिटी	-11.3089
▁कुंजी	-11.3089
.30	-11.309
▁अर्जेंटीना	-11.309
▁रबी	-11.3092
▁सार्क	-11.3094
▁बस्ती	-11.3096
▁विपक्ष	-11.3096
गार	-11.3098
▁गोल्फ	-11.3105
▁स्वर	-11.3108
iii	-11.3111
पीएम	-11.3111
▁i	-11.3114
▁बाय	-11.3114
रियाली	-11.3116
▁सूखा	-11.312
▁डालर	-11.3121
▁मोर	-11.3126
▁रूपों	-11.3141
▁बेचा	-11.315
▁175	-11.315
▁बोट	-11.3152
▁कमांड	-11.316
▁मा	-11.3163
▁गाल	-11.3173
▁गंगे	-11.3178
▁बो	-11.3187
▁छुड़ा	-11.3195
▁अंडर	-11.32
▁ट्विटर	-11.3205
▁भाईचारे	-11.3205
▁सदोम	-11.3205
▁रिपब्लिक	-11.3205
▁आक्रोश	-11.3205
▁बवासीर	-11.3206
▁वयस्क	-11.3206
▁जेरिको	-11.3207
▁बुवाई	-11.3207
▁चलेंगे	-11.3207
▁सीखना	-11.3208
▁डायबिटीज	-11.3208
▁भाले	-11.3209
▁स्वछता	-11.321
▁आगंतुकों	-11.3217
▁फार्मा	-11.3218
▁टाटा	-11.3218
▁गोबर	-11.3219
▁मोह	-11.3222
मामि	-11.3223
▁डबल	-11.3227
▁बरकर	-11.323
▁कानपुर	-11.3232
छोटे	-11.3233
प्रदेश	-11.3233
▁हफ्ते	-11.3235
▁दिखत	-11.3241
▁जेसी	-11.3241
▁CSIR	-11.3242
▁नर्सों	-11.3245
▁चलकर	-11.3248
▁पक्क	-11.3261
▁ओस	-11.3263
▁इंडस्ट्री	-11.3272
▁बहाली	-11.3275
स्त	-11.3276
00	-11.3284
▁क्रिकेट	-11.3286
▁अभियानों	-11.3294
▁2019)	-11.3297
▁फूट	-11.33
▁पैरा	-11.3302
बेस्ट	-11.3304
रन	-11.3316
▁टास्क	-11.3327
▁डैशबोर्ड	-11.3327
▁एंटीबॉडी	-11.3327
▁ब्लेयर	-11.3327
▁कर्नल	-11.3327
▁शोषण	-11.3327
र्	-11.3328
▁दिलाया	-11.3329
▁संवैधानिक	-11.3329
▁निर्वाचन	-11.3329
▁देखोगे	-11.333
▁इं	-11.333
एमआईएफएफ	-11.333
▁फिक्की	-11.3333
▁लापरवाही	-11.3334
▁स्पेन	-11.3341
▁रिश्ते	-11.3343
▁लगना	-11.3349
▁एनएच	-11.335
▁चलाई	-11.3352
▁मिनी	-11.3353
▁तिहाई	-11.3355
धाम	-11.3357
▁डीबीटी	-11.3358
▁ओह	-11.3358
▁डरता	-11.336
▁INS	-11.3363
▁मांगा	-11.3369
▁जायज	-11.3371
▁होटलों	-11.3372
▁निकटता	-11.3375
29	-11.3378
an	-11.3397
.00	-11.3406
▁मीठ	-11.3414
प्सी	-11.3425
क्षेत्र	-11.3436
▁बलि	-11.3444
17	-11.3445
▁फॉर्म	-11.3447
विज्ञान	-11.345
▁छुट्टिय	-11.3451
▁प्रेरक	-11.3451
▁जख्म	-11.3451
▁दोहरीकरण	-11.3451
▁सस्ता	-11.3451
▁सहकारिता	-11.3451
▁दूरदर्शी	-11.3451
▁सिरदर्द	-11.3451
▁अजनबियों	-11.3451
▁फिलिप	-11.3452
▁आयुर्वेदिक	-11.3459
▁प्रबंधित	-11.3461
▁तिल	-11.3461
▁IAF	-11.3462
▁विकल्पों	-11.347
▁जेब	-11.3471
कल	-11.3476
▁दुकानों	-11.3477
▁गाओ	-11.348
▁यूएसए	-11.3483
▁इंटरैक्	-11.3487
▁कैडेटों	-11.3488
▁चर्चाओं	-11.3513
▁पाला	-11.3537
▁माथे	-11.3539
.75	-11.354
▁मीनार	-11.354
▁संगीतकार	-11.3541
▁विवादों	-11.3542
▁धाम	-11.3547
▁ऑफिस	-11.3548
▁गवर्नेंस	-11.3551
▁प्रजाति	-11.3554
▁पान	-11.3563
▁एक्सेस	-11.357
▁दूष	-11.3571
▁खदान	-11.3575
▁अठारह	-11.3576
▁दुरुपयोग	-11.3576
▁नोएडा	-11.3576
▁पुनरुद्धार	-11.3576
▁समकालीन	-11.3576
▁एलर्जी	-11.3576
▁टियर	-11.3576
▁उबर	-11.3576
▁कहोगे	-11.3577
▁समझाया	-11.3577
▁2009	-11.3578
▁ट्रीटमेंट	-11.3578
▁सीपीएसई	-11.3579
▁कृमि	-11.358
▁अंधा	-11.3581
▁साइकिल	-11.3583
▁गिने	-11.3584
▁केवीआईसी	-11.3585
▁कैंप	-11.3585
▁तं	-11.3588
▁अनलॉक	-11.3588
▁02	-11.3592
▁घी	-11.3593
▁नासिक	-11.3597
▁य	-11.3605
▁अच्छाई	-11.3606
सबका	-11.3608
जीवन	-11.3609
▁गौर	-11.3613
ेन	-11.3617
▁यूनिटी	-11.3619
▁उठाता	-11.3623
▁मंगोलिया	-11.3625
▁आबे	-11.3633
▁वनस्पति	-11.3633
▁कनानी	-11.3635
ड़ा	-11.3642
▁फाटकों	-11.3646
▁घाटे	-11.3646
▁सुगम	-11.3654
▁पुस्तकों	-11.3659
▁अहाज	-11.3659
मती	-11.3664
▁अनुकूलन	-11.3665
▁ताड़	-11.3672
गे	-11.3674
▁चंद	-11.3675
▁दमा	-11.3676
▁पहन	-11.3679
▁रन	-11.3684
▁स्ट्रीट	-11.3685
निया	-11.3686
ोसिस	-11.3693
▁गली	-11.3693
▁फोर्ट	-11.3695
▁हनुमान	-11.3699
▁-20	-11.37
▁कहे	-11.37
▁सुषमा	-11.3702
▁नेतन्याहू	-11.3702
▁Pradesh	-11.3703
▁एजुकेशन	-11.3703
▁लौह	-11.3703
▁सरोवर	-11.3705
▁रवांडा	-11.3706
▁बेन	-11.3706
▁गोलियाँ	-11.3706
▁ऋतु	-11.3706
▁जुटाने	-11.3708
▁हल्दी	-11.3708
▁संगोष्ठी	-11.3708
▁मददगार	-11.3708
ल्शिय	-11.3708
▁प्राइवेट	-11.3709
▁2005	-11.371
बीसीएम	-11.3712
▁सालाना	-11.3718
▁बचें	-11.3718
▁पीपीपी	-11.3724
▁डाइट	-11.3725
▁स्क्रीन	-11.3727
▁कचरा	-11.3731
▁मीठी	-11.3734
▁41	-11.3735
प्रतिदिन	-11.3736
बहुत	-11.3736
▁टेली	-11.3739
▁नारी	-11.3739
ेज	-11.3743
▁रात्रि	-11.3748
▁योग्यता	-11.375
मुख्य	-11.3753
▁छाल	-11.3759
ाभ	-11.3766
▁हैंड	-11.378
▁जिम्मेदारिय	-11.3787
▁साथियों	-11.3789
लिया	-11.3795
▁प्राचीनों	-11.3809
DoNER	-11.3816
▁कड़ा	-11.3818
▁पीड़ितों	-11.3824
▁कराए	-11.3825
▁be	-11.3825
▁सच्च	-11.3826
▁मादक	-11.3826
▁क्विंटल	-11.383
▁इन्द्रधनुष	-11.383
▁नाखून	-11.383
▁आंकड़ा	-11.3831
▁नाइक	-11.3831
▁आरामदायक	-11.3831
▁#	-11.3831
▁ट्रांसमिशन	-11.3831
▁आचरण	-11.3832
▁अहिंसा	-11.3832
▁राष्ट्रमंडल	-11.3832
▁गांधीनगर	-11.3832
▁साइमन	-11.3832
▁नैनो	-11.3833
▁डेनमार्क	-11.3834
▁मोटा	-11.3834
▁अर्पण	-11.3835
▁Dr	-11.3837
ाते	-11.3837
▁धारकों	-11.3843
▁वांछ	-11.3847
▁डीआरडीओ	-11.3847
▁ट्रेनिंग	-11.3849
▁फास्ट	-11.3852
तोष	-11.3854
▁शमन	-11.3857
शक्ति	-11.3861
▁संघीय	-11.3862
▁चढ़ने	-11.3864
▁59	-11.3865
▁महलों	-11.3875
▁उतारा	-11.3878
AM	-11.3879
▁रू	-11.3879
▁05	-11.3901
▁III	-11.3902
▁आईएसए	-11.3906
▁गढ़वाल	-11.3909
▁350	-11.3913
▁पेशा	-11.3913
▁लि	-11.3917
बाकू	-11.3918
▁करदाता	-11.3923
▁सेमिनार	-11.3925
▁साहसी	-11.393
ियल	-11.3944
▁निष्पाद	-11.3946
▁वनों	-11.3958
▁छोड़ी	-11.3959
▁निदेशालय	-11.396
▁सहानुभूति	-11.396
▁सौन्दर्य	-11.396
▁नदियाँ	-11.396
▁लोकाचार	-11.396
▁यथा	-11.3961
▁साहिब	-11.3961
▁हांगकांग	-11.3961
▁समस्त	-11.3961
▁बॉन्ड	-11.3961
▁पचम	-11.3962
▁कन्याकुमारी	-11.3962
▁इष्ट	-11.3962
▁धातु	-11.3964
▁मगर	-11.3964
दियों	-11.3965
▁नग्नता	-11.3966
इयाँ	-11.3967
▁तिमाही	-11.3967
▁सोचना	-11.3967
▁चौड़ी	-11.3968
▁भट्ट	-11.397
पश्चिम	-11.397
▁अभि	-11.397
▁दोगे	-11.3972
▁गिलग	-11.3973
▁फीड	-11.3977
द्वार	-11.3983
▁बॉक्स	-11.3987
▁भारती	-11.3987
▁पुलों	-11.399
▁मानस	-11.3992
▁खेलो	-11.3996
▁57	-11.3997
मेरी	-11.4002
▁वश	-11.4014
▁शु	-11.4028
▁पंच	-11.4029
▁पूर्णता	-11.4034
▁69	-11.4035
▁जोड़ी	-11.4036
▁परहेज	-11.4064
▁शंकर	-11.4064
▁हाय	-11.4065
▁अन्याय	-11.4066
फर	-11.4068
ra	-11.4073
▁जू	-11.4074
▁ठहरन	-11.4076
▁लज्ज	-11.4078
▁फार्म	-11.4083
▁शकेम	-11.4092
▁सम्राट	-11.4092
▁सस्ते	-11.4092
▁क्राउन	-11.4092
▁कारखाने	-11.4092
▁बनते	-11.4092
▁धक्का	-11.4092
▁हर्निया	-11.4093
▁हाइड्रोकार्बन	-11.4093
▁छवियों	-11.4093
▁मच्छर	-11.4093
▁प्रशिक्षुओं	-11.4094
▁ब्रुक	-11.4094
▁मजाक	-11.4094
▁सर्जिकल	-11.4094
▁दार्जिलिंग	-11.4095
▁ग्राउंड	-11.4095
▁पूछते	-11.4096
▁मोरक्को	-11.4096
▁पूर्ति	-11.4096
▁यमुना	-11.4096
▁प्रायोज	-11.4098
▁मुंशी	-11.4099
▁चेतना	-11.41
▁एससीओ	-11.41
▁सूत्र	-11.411
▁मीठा	-11.4114
▁पीसीआर	-11.4117
▁भिन्न	-11.4137
▁शिविरों	-11.4141
लैंड	-11.4143
▁लिख	-11.4149
▁ईद	-11.416
▁पुष्पांजल	-11.4175
▁रक्षक	-11.4176
▁मशीनों	-11.4179
▁सिरे	-11.4183
▁दफन	-11.4189
▁नाग	-11.4192
▁बैक	-11.4192
▁मिद्यान	-11.4193
▁पारि	-11.4213
ुल	-11.4214
▁63	-11.4218
▁निरस्त	-11.4225
▁पुण्यतिथि	-11.4225
▁सीढ़ियों	-11.4225
▁सिंधु	-11.4225
▁निभाएगा	-11.4225
▁छुड़ाओ	-11.4225
▁कपूर	-11.4226
▁गर्भनिरोधक	-11.4226
▁शमौन	-11.4226
▁मरियम	-11.4227
▁पिच	-11.4227
▁मधुमक्खी	-11.4227
▁लड़ाकू	-11.4227
▁प्रभावशीलता	-11.4228
▁हल्की	-11.4229
▁अजय	-11.4229
▁वस्तुएँ	-11.423
▁बॉडी	-11.423
▁ऑडियो	-11.423
▁इलाहाबाद	-11.423
▁मुम्बई	-11.423
▁पार्वती	-11.423
▁अहम	-11.4231
▁विनम्रता	-11.4232
▁मतदाताओं	-11.4233
▁तत्परता	-11.4234
▁नॉन	-11.4236
वत	-11.4245
▁फ्लोर	-11.4247
▁विकलांगता	-11.4248
▁बनाएं	-11.4252
▁अंदाज	-11.4254
▁कवि	-11.4266
▁प्रधानों	-11.4269
▁ग्रेड	-11.427
y	-11.4271
▁नीला	-11.4284
▁इंग	-11.4285
▁इनसे	-11.4297
सन	-11.4298
▁मेन	-11.4299
▁लौ	-11.4315
▁असफल	-11.4323
▁अनुभवी	-11.4332
▁कर्ज	-11.4341
▁गेम	-11.4355
▁नग्न	-11.4357
▁इश्माएल	-11.436
▁ईटानगर	-11.436
▁चैंबर	-11.436
▁न्यायसंगत	-11.436
▁ब्रॉडबैंड	-11.436
▁माशे	-11.436
▁मनसुख	-11.4361
▁गंद	-11.4361
▁भालू	-11.4361
▁निस्वार्थ	-11.4361
▁खुलासा	-11.4361
▁कार्यवाही	-11.4361
▁विलय	-11.4362
▁जीवनशैली	-11.4362
▁चरवाहे	-11.4362
▁प्रताप	-11.4363
फिनटेक	-11.4363
▁जोनाथन	-11.4364
थेरेपी	-11.4365
▁डालो	-11.4366
▁गोरखपुर	-11.4368
▁गौड़ा	-11.437
▁दुर्घटनाओं	-11.4372
▁ऑर्डर	-11.4375
क्स	-11.4379
▁स्पीड	-11.4381
▁निष्पादन	-11.4384
▁बसें	-11.4386
▁रिपोर्टिंग	-11.4388
▁दोहरात	-11.4395
स्थायी	-11.4399
▁प्रतिबद्धताओं	-11.4405
▁विनियमों	-11.4408
▁किलो	-11.4408
▁बंधे	-11.4416
▁लॉज	-11.4416
कालत	-11.442
ूर	-11.4421
▁खाल	-11.4424
▁बताए	-11.4427
▁सुस्त	-11.4438
▁छ	-11.4439
लाल	-11.4447
▁महीन	-11.4456
▁हाकिम	-11.4462
▁उपक्रम	-11.4463
▁दुखद	-11.4464
▁घूमत	-11.447
▁विश्वासघात	-11.4471
गो	-11.4481
▁फोरे	-11.4485
▁बचाए	-11.4486
▁ट्रैफिक	-11.4495
▁uality	-11.4497
▁अनमोल	-11.4497
▁गंगोत्री	-11.4497
▁हिम्मत	-11.4497
▁व्यंजन	-11.4497
▁रविशंकर	-11.4497
▁वेलनेस	-11.4497
▁जलप्रपात	-11.4497
▁उपयोगिता	-11.4498
▁ढाँचा	-11.4498
▁रामायण	-11.4498
▁वक्फ	-11.4498
▁प्रयोगशालाएं	-11.4499
▁जिक्र	-11.4499
▁आठवें	-11.45
▁पुण्य	-11.4501
▁ताकतवर	-11.4501
श्वत	-11.4501
▁दही	-11.4503
▁विमानों	-11.4503
ंच	-11.4503
▁अकादमिक	-11.4503
▁दादा	-11.4503
▁सुनाया	-11.4505
▁वर्गीकृत	-11.4505
▁कप्तानों	-11.4506
▁फायर	-11.4506
▁पूर्वजों	-11.4508
▁स्टार्टअप्स	-11.451
▁छोड़ो	-11.4511
▁महीना	-11.4512
▁लटका	-11.4524
▁वैगनों	-11.4526
▁निकालकर	-11.4528
▁पर्वतीय	-11.4528
▁धान	-11.4528
हू	-11.4533
▁-1	-11.4535
पेट	-11.4539
निहित	-11.4542
▁लहरों	-11.4544
िप्त	-11.4549
्या	-11.4551
तीन	-11.4565
▁गिरता	-11.4565
▁नशील	-11.4567
▁04	-11.457
▁गीता	-11.4576
▁1200	-11.4577
▁सू	-11.4577
▁पुकार	-11.4581
▁निकली	-11.4585
▁ब्लॉकों	-11.4587
▁निविदा	-11.4593
टैक	-11.4595
▁आदेशों	-11.4597
नाम	-11.4601
▁शि	-11.4623
▁गज	-11.4631
▁मीटिंग	-11.4635
▁अंजाम	-11.4636
▁आशु	-11.4637
▁सीवेज	-11.4637
▁संक्ष	-11.4637
▁जन्मदिन	-11.4637
▁हस्तियों	-11.4638
▁गिरेंगे	-11.4638
▁कंबोडिया	-11.4638
▁ढाई	-11.4639
▁लगाओ	-11.4641
▁मसाले	-11.4641
▁शिमी	-11.4643
▁परिपक्व	-11.4644
▁यूएई	-11.4644
▁दवाएँ	-11.4647
▁सिंगल	-11.4648
▁सिगरेट	-11.4652
▁वस्त्रों	-11.4654
▁स्प्रे	-11.4654
प्रकाश	-11.4659
▁रिहा	-11.4668
▁पेमेंट	-11.4669
▁नेशन	-11.4669
▁जोड़े	-11.4671
▁खुर	-11.4673
▁सभाओं	-11.4674
AIL	-11.4677
▁ब्रह्म	-11.468
▁He	-11.4685
ख	-11.4688
▁दस्तावेजों	-11.4688
▁जज	-11.4688
▁नील	-11.4688
▁DBT	-11.469
VA	-11.4697
▁र	-11.4698
▁हार	-11.4701
▁हिम	-11.4712
▁हाथियों	-11.4723
▁550	-11.4726
▁(1	-11.4726
शाह	-11.4735
▁चलें	-11.4737
्ट	-11.4741
▁दायर	-11.4742
▁66	-11.4747
▁आज़ाद	-11.4749
▁लगन	-11.4749
▁परत	-11.4758
▁चिर	-11.476
दी	-11.4768
▁सिख	-11.4771
▁चाँद	-11.4775
▁सबक	-11.4777
▁वैभव	-11.4777
▁BULLETIN	-11.4777
▁पनडुब्बी	-11.4777
▁शुष्क	-11.4777
▁सिल्वर	-11.4777
▁इस्साकार	-11.4777
▁पार्टनरशिप	-11.4777
▁खेप	-11.4777
▁राजमहल	-11.4777
▁शिवलिंग	-11.4778
▁जवाहरलाल	-11.4778
▁2024	-11.4778
▁खजाना	-11.4778
▁दुकानें	-11.4778
▁औरंगाबाद	-11.4779
▁चंद्रयान	-11.4779
▁याहवी	-11.4781
▁पढ़ाई	-11.4781
▁मान्य	-11.4783
▁ठहरा	-11.4784
▁मीका	-11.4786
▁तेज़	-11.4787
▁पिला	-11.4788
▁खुदाई	-11.479
▁गलती	-11.4795
▁लक्ष्मी	-11.4797
▁छोड़ना	-11.4798
▁बढ़ाई	-11.4803
▁अधिकता	-11.4806
▁सुधारने	-11.481
▁दफना	-11.4811
संगठित	-11.4825
बीच	-11.4827
▁मारते	-11.4833
ास	-11.4834
लक्षित	-11.4844
▁मार्क	-11.4861
▁क्लास	-11.4872
▁तस्वीर	-11.4883
▁हेलीकॉप्टर	-11.4884
▁दायित्व	-11.4885
▁मर्ज	-11.4897
▁फारस	-11.4897
15,000	-11.4902
▁फाइल	-11.4908
▁अनंत	-11.4912
▁सुल्तान	-11.4918
▁पर्वतारोह	-11.492
▁जीवाणु	-11.492
▁रिजिजू	-11.492
▁हेरोदेस	-11.492
▁स्वरोजगार	-11.492
▁तटरक्षक	-11.492
▁मूत्राशय	-11.492
▁पार्टियों	-11.492
▁अर्जुन	-11.492
▁बेसिन	-11.4921
▁पाउडर	-11.4921
▁बिरादरी	-11.4921
▁टिंकर	-11.4921
ai	-11.4921
▁स्थापत्य	-11.4922
▁डिजिटलीकरण	-11.4925
▁अहमद	-11.4925
▁नामों	-11.4926
▁सुनें	-11.4929
▁कैसा	-11.493
▁मनाली	-11.4932
▁उग	-11.4934
▁टूरिस्ट	-11.4936
ov	-11.494
V	-11.4941
▁मिटा	-11.4946
▁इंजीनियरों	-11.4946
▁सोमवार	-11.4948
▁(1)	-11.4949
ठ	-11.4953
▁मेहनती	-11.4955
▁मापा	-11.496
▁एसडीजी	-11.4966
ऑफ	-11.4966
रगर	-11.4966
मुक्त	-11.4969
▁हंस	-11.497
▁प्रेमी	-11.4974
▁झुंडों	-11.4977
सैट	-11.4987
ेशीय	-11.4991
▁रूट	-11.5005
iv	-11.5021
▁योजनाएँ	-11.5026
▁घुड़सवार	-11.5031
सार	-11.5032
v	-11.5037
▁T	-11.5046
▁जीप	-11.5047
▁उबाल	-11.5048
▁छान	-11.5049
2019	-11.5053
बड़े	-11.5061
▁इथियोपिया	-11.5063
▁मानचित्र	-11.5065
▁टमाटर	-11.5065
▁लक्षद्वीप	-11.5065
▁प्लाज्मा	-11.5065
▁सिवाय	-11.5065
ँकि	-11.5065
▁इन्वेस्टमेंट	-11.5065
▁रिसाव	-11.5065
▁अटूट	-11.5065
▁निवेदन	-11.5065
▁हिरण	-11.5065
▁सफारी	-11.5065
▁बुराइयों	-11.5065
▁बताएंगे	-11.5065
▁फरीसी	-11.5066
▁मनोवैज्ञानिक	-11.5066
▁मुझमें	-11.5067
▁नड्डा	-11.5067
▁डालेंगे	-11.5067
▁हर्बल	-11.5067
▁संप्रभुता	-11.5068
▁इंडिअ	-11.5068
▁अमूल्य	-11.5068
▁कालेब	-11.5068
▁छूत	-11.5069
▁बूढ़ा	-11.507
वारिक	-11.5072
▁रॉक	-11.5072
▁लैब्स	-11.5073
▁लेवल	-11.5073
▁भवनों	-11.5074
▁मेजर	-11.5076
▁शेखर	-11.508
▁गुजरते	-11.5083
▁अनु	-11.5085
▁प्रासंगिकता	-11.5087
▁निराशा	-11.5087
▁पैकेजिंग	-11.5088
▁यजमानों	-11.5089
▁वाई	-11.5096
▁घुड़सवारों	-11.51
ेश	-11.5101
COVID	-11.5118
जे	-11.5119
▁58	-11.512
▁परमिट	-11.512
▁जाग	-11.5126
▁माय	-11.5133
सीएसआर	-11.5135
▁न्यायाधीशों	-11.5139
▁जवानी	-11.5139
अप्स	-11.5142
▁कलाकार	-11.5156
ूंगा	-11.5157
▁नकल	-11.5157
ग्राम	-11.5159
ियस	-11.5167
बात	-11.5173
▁केबल	-11.519
्यू	-11.5197
▁क्रूर	-11.52
सेना	-11.5202
▁बीएस	-11.5207
▁गलियारों	-11.5212
▁तम्बाकू	-11.5212
▁दृष्टान्त	-11.5212
▁लिविंग	-11.5212
▁योआश	-11.5212
▁जनऔषधि	-11.5212
▁हामान	-11.5212
▁शॉपिंग	-11.5212
▁रक्तस्राव	-11.5212
▁शान्ति	-11.5212
▁न्यायपालिका	-11.5213
▁सब्जियाँ	-11.5213
▁दुर्भाग्यपूर्ण	-11.5213
▁बटन	-11.5213
▁अनिल	-11.5213
▁प्रमाणपत्र	-11.5213
▁तस्वीरें	-11.5214
▁मनोहर	-11.5214
▁बैटरी	-11.5215
▁असल	-11.5215
▁कारखानों	-11.5216
▁मसालों	-11.5216
▁याह्वे	-11.5216
▁कोशिका	-11.5216
निर्देश	-11.5217
▁फैक्ट्री	-11.5218
▁BIMSTEC	-11.5218
▁प्लेटफ़ॉर्म	-11.522
▁अवस्थित	-11.5221
▁ट्रांसफर	-11.5222
▁एफसीआई	-11.5224
▁दिवाली	-11.5229
▁अंतर्द	-11.5229
▁कविता	-11.523
▁वाहक	-11.5235
▁एमएचए	-11.5237
ै	-11.525
▁क्रीम	-11.525
जापान	-11.5268
भ	-11.5276
सात	-11.528
-4	-11.5284
▁खरीदे	-11.5284
▁आदतों	-11.5284
b	-11.5295
ंटों	-11.5314
▁दूतावास	-11.5326
▁रेंज	-11.533
▁पढ़	-11.535
▁मीट	-11.5352
▁इंद्र	-11.5356
▁उत्कीर्ण	-11.5358
▁प्रतिष्ठा	-11.5358
▁योद्धा	-11.5358
▁इंदिरा	-11.5361
▁टिप्पणिय	-11.5361
▁अभ्यारण्य	-11.5361
▁ढुलाई	-11.5361
▁बियाबान	-11.5361
▁लोकोमोटिव	-11.5361
▁स्नायु	-11.5361
▁इसराइल	-11.5361
▁थूक	-11.5361
▁सोलोमन	-11.5361
▁गन्ने	-11.5361
▁सेकंड	-11.5361
▁पारगमन	-11.5361
▁नगरी	-11.5362
▁बोलूंगा	-11.5362
▁ब्लैक	-11.5362
▁गोविंद	-11.5362
▁PMO	-11.5362
▁आटे	-11.5362
▁पहरेदार	-11.5363
▁गंध	-11.5363
▁दोहराई	-11.5363
▁पुष्ट	-11.5364
▁ध्वज	-11.5364
▁तिलक	-11.5364
▁मुहैय	-11.5365
निर्मित	-11.5365
▁पीला	-11.5367
▁वासना	-11.5367
▁कैरियर	-11.5368
▁एसएचजी	-11.5376
▁विक्रेता	-11.5383
▁फार्मास्युटिकल	-11.5385
▁घूम	-11.5391
देन	-11.5392
▁संस्कृत	-11.5392
▁भेजता	-11.5396
▁दाई	-11.5398
▁जु	-11.5399
▁अली	-11.5413
नुमा	-11.5416
यूरोपीय	-11.5419
ुआ	-11.5421
▁डिवाइस	-11.5426
▁अपनाना	-11.5428
▁at	-11.5431
▁रोगिण	-11.5433
▁पहचाने	-11.5439
नेस	-11.5441
खमीर	-11.5443
अ	-11.5444
▁चरम	-11.5448
▁पुरातत्व	-11.5449
18	-11.5455
चार	-11.547
ांडी	-11.547
▁पोल	-11.5476
k	-11.5476
▁बिखर	-11.5477
टन	-11.548
▁नंदा	-11.5483
▁जियो	-11.5486
▁विश्वनाथ	-11.5487
▁कॉमर्स	-11.5497
▁अजमेर	-11.5498
▁नली	-11.5501
▁विचारधारा	-11.5511
▁नाटक	-11.5512
▁सर्प	-11.5512
▁उड़ीसा	-11.5513
▁चरवाहों	-11.5513
▁पौराणिक	-11.5513
▁मवेशी	-11.5513
▁कुम्हार	-11.5513
▁एनीमिया	-11.5513
▁अस्सी	-11.5513
▁बचाएगा	-11.5513
▁न्यायमूर्ति	-11.5513
▁चैलेंज	-11.5513
▁बढ़ाएंगे	-11.5514
▁विवेकपूर्ण	-11.5515
▁गैलरी	-11.5515
▁एनीमेशन	-11.5515
▁रामेश्वरम	-11.5516
▁यादगार	-11.5517
▁साबर	-11.5517
▁डिप्रेशन	-11.5518
▁बनेगा	-11.5518
▁पीटा	-11.552
▁तंबू	-11.5521
▁लड़की	-11.5522
▁छठी	-11.5524
▁2016,	-11.5525
▁गुफाओं	-11.5527
▁फंडिंग	-11.553
▁61	-11.553
▁पाती	-11.5532
▁एथलीटों	-11.5533
▁-3	-11.5534
▁गुजरा	-11.554
▁निपटा	-11.5549
▁जग	-11.5551
Seva	-11.5565
टेज	-11.5568
हमारे	-11.5572
HO	-11.5575
▁पार्कों	-11.5582
▁दि	-11.5586
डोर	-11.5595
▁अबू	-11.5625
▁गुजरे	-11.5632
▁रोशन	-11.5641
▁ओबेद	-11.5643
▁रिश्त	-11.5647
कालीन	-11.5648
▁मंद	-11.5659
▁आपराधिक	-11.5662
ाइटिस	-11.5662
▁अवज्ञा	-11.5666
▁सकूं	-11.5666
▁अपग्रेड	-11.5667
▁एडवेंचर	-11.5667
▁घोंसल	-11.5667
▁इकाइयाँ	-11.5667
▁एजेंसियां	-11.5667
▁जोआब	-11.5667
▁बुलंद	-11.5667
▁मदुरै	-11.5667
▁बहुआयामी	-11.5667
▁सुप्री	-11.5667
▁युवावस्था	-11.5667
▁नौवें	-11.5667
▁लक्ष्मण	-11.5667
▁हेशबोन	-11.5667
▁स्विट्जरलैंड	-11.5667
▁कमांडिंग	-11.567
▁समस्याएं	-11.5672
▁हेड	-11.5672
▁मिलाया	-11.5677
▁नवीनीकरण	-11.5677
▁आईसीएआर	-11.5678
ावश्यक	-11.5678
द्रिक	-11.5679
बारा	-11.5682
▁मैदानों	-11.5688
▁अनोखा	-11.5688
▁96	-11.5689
▁नियोजित	-11.5694
▁सबको	-11.5694
▁बीम	-11.5695
▁एफपीओ	-11.5696
▁प्रेशर	-11.5702
▁घबरा	-11.5703
▁कॉ	-11.5707
▁on	-11.5715
▁गिनी	-11.5722
स्तर	-11.5722
जाओ	-11.5727
प्रशांत	-11.5728
इसलिए	-11.5729
जैसा	-11.5729
▁पुष्प	-11.5748
धन	-11.575
सिंह	-11.5751
▁समुद्रत	-11.5755
▁शह	-11.5763
▁सौंपी	-11.5763
गाँव	-11.5768
T	-11.578
▁प्रारूप	-11.5788
40	-11.5789
▁किनार	-11.5795
▁मंजूर	-11.5797
सेवा	-11.5803
▁उग्र	-11.5813
वाद	-11.5815
▁जर्मन	-11.5817
▁प्रीमियर	-11.5819
▁चाहें	-11.5819
▁रेट	-11.5819
▁दुर्भाग्य	-11.5822
▁इंजेक्शन	-11.5823
▁परस्पर	-11.5823
▁लुत्फ़	-11.5823
▁अल्पकालिक	-11.5823
▁अब्दुल	-11.5823
▁अग्रसर	-11.5823
▁फलस्वरूप	-11.5823
▁ओली	-11.5823
▁बेंच	-11.5823
▁लाइफलाइन	-11.5823
▁पितर	-11.5824
▁प्वाइंट	-11.5824
▁महासभा	-11.5824
▁घोल	-11.5824
▁सुनवाई	-11.5824
▁नीतियां	-11.5824
▁समायोज	-11.5825
H	-11.5825
आईसी	-11.5825
▁पसीना	-11.5825
▁रावत	-11.5825
रोग	-11.5826
▁वाइस	-11.5826
▁देखिए	-11.5826
▁जीसस	-11.5826
▁हरदीप	-11.5827
▁बनेंगे	-11.5829
▁जुबल	-11.5831
▁संचरण	-11.5831
▁अवशोष	-11.5833
▁उठाई	-11.5834
▁नर्सिंग	-11.5835
▁माला	-11.5838
्म	-11.5841
▁संरचनाओं	-11.5841
▁लाकर	-11.5842
▁आकृति	-11.5846
▁गाज	-11.5865
भाग	-11.5871
▁आह	-11.5872
▁जाये	-11.5874
▁भुजा	-11.588
▁देय	-11.5883
▁डाले	-11.5885
स्वास्थ्य	-11.5887
▁हाशि	-11.5897
▁is	-11.59
बल	-11.5931
ारी	-11.5943
▁लॉ	-11.5957
▁09	-11.5961
▁ग्रीष्मकाल	-11.5961
▁यंत्र	-11.5968
▁लौटे	-11.597
▁अम्ल	-11.5973
▁फुटबॉल	-11.5973
▁आलोचना	-11.5981
▁दुष्प्रभाव	-11.5982
▁परिकल्पित	-11.5982
▁संगमरमर	-11.5982
▁नूह	-11.5982
▁कीटनाशक	-11.5982
▁चरागाह	-11.5982
▁वैश्वीकरण	-11.5982
▁भूस्खलन	-11.5982
▁द्रव्य	-11.5982
▁बहरीन	-11.5982
▁राजेंद्र	-11.5982
▁डेटाबेस	-11.5983
▁तेंदु	-11.5983
▁खाए	-11.5983
▁मरारी	-11.5984
▁आटा	-11.5984
▁परिवेश	-11.5984
▁न्यूयॉर्क	-11.5985
▁लूंगा	-11.5985
▁शुरु	-11.5986
▁डैम	-11.5986
▁नतीज	-11.5988
▁इशारा	-11.5988
▁गुजरना	-11.5989
▁TRIFED	-11.599
▁फेडरेशन	-11.5991
▁वैन	-11.5991
▁मोटी	-11.5994
▁डायरेक्टर	-11.5994
▁कलात्मक	-11.5996
▁परिजनों	-11.5999
▁कहकर	-11.6003
▁बुनकरों	-11.6007
▁ओडीएफ	-11.601
▁छूता	-11.6011
हित	-11.6013
▁द्वारका	-11.6013
▁नायकों	-11.6013
▁आमीन	-11.6014
▁62	-11.6015
▁बादाम	-11.6017
CoV	-11.6027
▁115	-11.6029
▁भूखा	-11.603
▁थ	-11.6035
ूम	-11.6037
▁असंतुल	-11.6039
▁5.	-11.6056
एक्टिव	-11.606
ास्त	-11.6077
▁फर्ज	-11.608
विक	-11.6082
▁एक्स	-11.6083
▁उड़	-11.609
▁धमनिय	-11.609
▁वसूल	-11.6093
▁मास	-11.6095
▁पैक	-11.6098
▁बाज़ार	-11.6105
▁शर्त	-11.6106
▁ज़मीन	-11.6107
▁बूंद	-11.6112
▁पके	-11.6125
▁हितधारक	-11.6126
▁किंग	-11.6131
▁जगन्नाथ	-11.6137
▁वात	-11.6138
▁किंतु	-11.6138
▁प्रथा	-11.6141
▁समेक	-11.6141
▁परमेश्	-11.6143
▁इन्सॉल्वेंसी	-11.6143
▁दृष्टांत	-11.6143
▁न्यायाधिकरण	-11.6143
▁नतीजतन	-11.6143
▁एनटीपीसी	-11.6143
▁गर्भधारण	-11.6143
▁अमोरियों	-11.6143
▁फर्श	-11.6143
▁जीओडी	-11.6143
▁अब्राम	-11.6143
▁बंजर	-11.6143
▁सर्वांग	-11.6143
▁जेपी	-11.6144
▁रुकावट	-11.6144
▁निर्यातक	-11.6144
▁जनसभा	-11.6144
▁चौबे	-11.6145
▁सितारों	-11.6145
▁स्नो	-11.6145
▁ठाकुर	-11.6145
▁पणजी	-11.6145
▁मिनिस्ट्री	-11.6145
▁उठना	-11.6146
▁सद्भावना	-11.6147
▁ओमान	-11.6147
▁फर्स्ट	-11.6148
▁जोसेफ	-11.6148
▁कैपिटल	-11.6149
▁प्राणियों	-11.6149
▁SARS	-11.615
िस्तान	-11.615
▁निन्दा	-11.6153
▁विशेषताओं	-11.6153
▁शिकायतें	-11.6154
▁पेट्रोल	-11.6156
▁भ्रमित	-11.6157
▁दलितों	-11.616
▁खजुराहो	-11.6163
▁फेरी	-11.6164
्री	-11.6165
r	-11.6166
▁वा	-11.6166
▁आध्यात्मिकता	-11.6167
▁मारना	-11.6168
▁प्रगतिशील	-11.6169
▁मंदी	-11.6171
▁मिशनों	-11.618
m	-11.6182
ारा	-11.6183
▁किस्मों	-11.6193
▁वर्गीकरण	-11.6193
▁GST	-11.62
▁उत्साहित	-11.6202
▁लर्निंग	-11.6206
शहरी	-11.6209
▁लीं	-11.6209
▁पलक	-11.6211
▁07	-11.6217
▁गुड़	-11.6223
▁समा	-11.6225
▁गेज	-11.6226
▁बा	-11.623
▁अँगुलिय	-11.6239
▁4.	-11.6262
▁180	-11.6268
▁कतर	-11.6272
▁तोड़ा	-11.6274
ाकार	-11.6279
वानी	-11.6282
▁बिस्तरों	-11.6295
▁08	-11.6297
▁82	-11.6303
▁लॉजिस्टिक	-11.6303
▁शोधकर्ता	-11.6304
▁68	-11.6304
LUE	-11.6307
▁तर्कसंगत	-11.6307
▁प्राचीर	-11.6307
▁बुद्धिमत्ता	-11.6307
▁यहोयाकीम	-11.6307
▁सीढ़ियाँ	-11.6307
▁जूझ	-11.6307
▁मोटापे	-11.6307
▁रोष	-11.6307
▁रहूब	-11.6307
▁तुलसी	-11.6307
▁पीलातुस	-11.6307
▁बताऊंगा	-11.6307
▁लैंगिक	-11.6307
▁देशभक्ति	-11.6309
▁भाला	-11.6309
▁आक्रामक	-11.6309
▁सेवानिवृत्ति	-11.6309
▁ड्राइविंग	-11.6311
▁मसूरी	-11.6311
▁टीकों	-11.6311
▁योना	-11.6314
▁औषधियों	-11.6314
▁इस्लाम	-11.6317
▁चाहा	-11.6321
▁भेजी	-11.6322
जात	-11.6322
▁30,000	-11.6323
▁सच्चा	-11.6324
▁शिशुओं	-11.6328
▁खरीदारी	-11.6333
काशी	-11.6334
▁विलास	-11.6336
▁1,000	-11.6338
▁यादव	-11.6346
▁टुकड़ा	-11.6351
ोर	-11.6357
▁रेकी	-11.6359
▁ग्रंथि	-11.6363
रु	-11.6363
निर्माण	-11.6378
छोटी	-11.6379
▁जायें	-11.6384
▁शीत	-11.6385
▁टुकड़ी	-11.6394
बर	-11.6404
▁पोत	-11.6408
ुस	-11.641
▁आक्रमण	-11.6415
▁वंचितों	-11.6416
▁चाह	-11.642
▁भगा	-11.6432
▁दुकान	-11.6434
▁डाकघर	-11.644
▁कलंक	-11.6445
ोस	-11.6453
▁खिल	-11.6454
चीन	-11.6456
▁छिड़क	-11.6458
रोता	-11.6459
▁असामान्य	-11.6469
▁बजा	-11.647
▁आपातकाल	-11.6473
▁अरविंद	-11.6473
▁कॉरपोरेशन	-11.6473
▁पत्नियाँ	-11.6473
▁विशाखापत्तनम	-11.6473
▁वृक्षारोपण	-11.6473
▁ग्वालियर	-11.6473
▁ज्वार	-11.6473
▁चाहिये	-11.6473
▁भ्रूण	-11.6473
▁किडनी	-11.6474
▁गतिविधियां	-11.6474
▁मछलिय	-11.6474
▁मूवमेंट	-11.6474
▁प्रयोजन	-11.6474
▁नक्काशी	-11.6474
▁प्रलोभन	-11.6474
▁एपिसोड	-11.6474
▁हिंदुस्तान	-11.6474
▁हैकाथॉन	-11.6474
▁चमकदार	-11.6475
▁गेस्ट	-11.6476
▁BHIM	-11.6477
▁सब्जी	-11.6477
▁nc	-11.6478
▁दादरा	-11.6479
▁महाद्वीप	-11.6479
▁निश्चय	-11.6479
▁व्यवहार्यता	-11.6479
▁सुनना	-11.648
▁अंडे	-11.6483
▁कुत्ते	-11.6483
▁RBI	-11.6484
▁सोचें	-11.6485
▁सम	-11.6488
▁टीमें	-11.6493
▁लिखने	-11.6494
▁हुनर	-11.6498
▁V	-11.6508
ड़ों	-11.6509
मैन	-11.6512
▁झरन	-11.6515
ाशय	-11.6533
▁हैंडल	-11.6536
▁घाटा	-11.6538
▁शीतल	-11.6539
▁पीता	-11.6546
मूल्य	-11.6546
कृपया	-11.6548
▁सम्	-11.6552
▁शिला	-11.6554
▁सर्वे	-11.6556
▁जलमार्गों	-11.6563
-14	-11.6571
▁आये	-11.6572
en	-11.6577
▁वायुसे	-11.6578
15	-11.6591
रोहण	-11.6598
टर	-11.66
▁ऊंच	-11.6602
ोगे	-11.6603
▁सकारात्मकता	-11.6604
▁वैगन	-11.6608
";;	-11.6609
▁वृद्ध	-11.6611
▁बुला	-11.6611
ीण	-11.6617
▁दर्शक	-11.662
▁आजाद	-11.6622
▁सुकून	-11.6623
▁नो	-11.6629
▁धीमा	-11.6638
▁78	-11.664
▁नियोक्ता	-11.664
▁पत्रिका	-11.6641
▁फाइनेंस	-11.6642
▁आवागमन	-11.6643
▁उछाल	-11.6643
▁काठमांडू	-11.6643
▁ठाणे	-11.6643
▁पारिश्रमिक	-11.6643
▁दहलीज	-11.6643
▁उच्चारण	-11.6643
▁मुट्ठ	-11.6643
▁प्रत्यारोपण	-11.6643
▁विस्मय	-11.6643
▁लम्बी	-11.6643
▁गर्भगृह	-11.6643
▁आँसू	-11.6643
▁विश्वासयोग्य	-11.6643
▁आकांक्षाएं	-11.6644
िनी	-11.6644
▁फरमान	-11.6644
▁मुहर	-11.6644
▁मुन्ना	-11.6645
▁अश्विनी	-11.6645
▁उठाएगा	-11.6645
▁नौकरियां	-11.6646
▁2006	-11.6646
▁मौजूदगी	-11.6646
▁एरिया	-11.6647
▁विक्रम	-11.6648
▁पांचवें	-11.6648
▁कराएँ	-11.6649
▁प्रतिभाएँ	-11.6649
▁कुलपति	-11.665
▁हार्मोन	-11.665
▁प्राणायाम	-11.665
▁प्लस	-11.665
▁रोकना	-11.6651
▁बनाएगी	-11.6651
संपत्तियों	-11.6651
▁संस्कृतियों	-11.6652
▁विधानसभाओं	-11.6653
▁बाज	-11.6654
ेर	-11.6657
▁दयालुता	-11.6658
▁डालना	-11.6659
▁e	-11.6659
▁विश्वसनीयता	-11.666
▁मनाई	-11.6663
देश	-11.6667
▁राजक	-11.6669
हसास	-11.6669
▁ओक	-11.6669
▁खरीदारों	-11.6674
▁करार	-11.6677
▁कार्यशील	-11.6695
.05.2020	-11.6698
▁ड्यू	-11.6702
▁कौर	-11.6705
पैसिफिक	-11.6714
आउट	-11.672
▁भा	-11.6721
बैक	-11.6721
वर्ष	-11.6726
▁तह	-11.673
▁K	-11.6742
पूर्वी	-11.6745
▁नमी	-11.6752
ुलर	-11.6757
▁2500	-11.6758
▁लड़े	-11.6765
▁रुख	-11.6771
ीज	-11.6771
▁नेट	-11.6775
रपुर	-11.678
▁रास्त	-11.6781
लक्ष्य	-11.6791
▁सीता	-11.6792
▁चंदन	-11.6794
▁धिक्कार	-11.6799
▁मनोहार	-11.68
▁नीच	-11.6802
न्स	-11.6814
▁याचिका	-11.6814
▁वारियर्स	-11.6815
▁ऑटोमोबाइल	-11.6815
▁यज्ञ	-11.6815
▁पांडे	-11.6815
▁तिलहन	-11.6816
▁दर्शाया	-11.6816
▁मूक	-11.6816
▁व्हाट्सएप	-11.6816
▁दुग्ध	-11.6816
▁अनिश्चितता	-11.6816
▁धुए	-11.6817
▁प्रभाग	-11.6817
▁गाड़ियों	-11.6817
▁इच्छाशक्ति	-11.6817
▁ईख	-11.6818
▁दार्शनिक	-11.6818
▁अंत्योदय	-11.6818
▁मधुर	-11.6818
▁आर्मिस	-11.6818
▁प्रपात	-11.6819
▁राजकोट	-11.6819
▁2001	-11.6819
▁फैलाया	-11.6819
▁विनोद	-11.682
▁IAS	-11.682
▁हरिद्वार	-11.6821
▁वंदे	-11.6822
▁गुफाएँ	-11.6822
▁इम्फाल	-11.6823
▁धड़कन	-11.6823
ओबीसी	-11.6824
▁भूषण	-11.6826
▁संभवतः	-11.6827
फेल	-11.6827
▁दीवारें	-11.6828
▁गु	-11.6829
नून	-11.6831
▁एनएसएस	-11.6832
▁कैदियों	-11.6833
▁फि	-11.6837
▁पत्रकारों	-11.6842
▁सोचता	-11.685
▁झरनों	-11.6851
▁शोथ	-11.6855
35	-11.6865
▁रोए	-11.687
▁करूबों	-11.687
▁मौन	-11.6873
▁गाथा	-11.6875
▁परवाह	-11.6878
गिनत	-11.6883
▁गुप्ता	-11.689
▁83	-11.6893
▁कराह	-11.6895
फीचर	-11.6896
▁मेलों	-11.6899
95	-11.6909
रू	-11.6915
▁ठंडी	-11.6926
▁स्कि	-11.6929
▁अलक	-11.6929
▁बेत	-11.6936
▁गठ	-11.6936
ाइन	-11.6945
क्रम	-11.6951
▁पंद्रहव	-11.6952
▁धोखेबाज	-11.6954
▁काउंसलर	-11.6956
▁ईंट	-11.6963
दिन	-11.6965
02	-11.6979
▁मूर्खों	-11.6979
▁तिब्बत	-11.6982
▁स्थग	-11.6987
▁खोजा	-11.6988
▁शुभकामना	-11.6989
▁विंडो	-11.699
▁क्रियान्वयन	-11.6991
▁गीगावॉट	-11.6991
▁चरवाहा	-11.6991
▁परिसंघ	-11.6991
▁चंपारण	-11.6991
▁पीएसयू	-11.6991
▁कहानियां	-11.6991
▁ट्यूमर	-11.6991
▁सचेत	-11.6991
▁पैकेट	-11.6991
▁घटनाक्रम	-11.6991
▁फलदायी	-11.6991
▁शौकीन	-11.6991
▁बैंगलोर	-11.6992
▁नप्ताली	-11.6992
▁मैक्रो	-11.6992
▁वैली	-11.6992
▁हसीना	-11.6992
▁देखूंगा	-11.6993
▁खुशबू	-11.6993
ऑक्साइड	-11.6993
▁ईपीएफ	-11.6993
▁वॉटर	-11.6994
▁वाक्य	-11.6994
बंगलौर	-11.6996
▁ऋषि	-11.6998
▁बेल्जियम	-11.6998
▁पहाड़ियाँ	-11.6999
▁उत्तरदायी	-11.6999
▁बचना	-11.7001
▁ज़ोन	-11.7001
▁मुला	-11.7001
▁आँवला	-11.7003
▁फेफड़े	-11.7003
▁गला	-11.7007
▁किर्गिज़	-11.7012
▁आयुध	-11.7018
▁निकलकर	-11.7021
▁मून	-11.7022
▁नायक	-11.7023
▁शुक्रवार	-11.7026
▁झीलों	-11.7028
▁मानने	-11.703
▁बैठता	-11.7032
व्य	-11.7043
▁अशुद्धता	-11.7047
कों	-11.7059
सह	-11.7065
▁मसूड़	-11.7081
▁भिगो	-11.7084
नंदा	-11.7084
▁साइड	-11.7087
▁सींगों	-11.7093
▁आकांक्ष	-11.7107
▁लै	-11.7114
क्र	-11.7118
▁कोटिंग	-11.7118
▁रक्तदा	-11.7129
45	-11.713
ुर	-11.7139
▁बन्द	-11.714
ेंद्र	-11.7146
L	-11.7148
अर	-11.7153
▁कसर	-11.716
कोट	-11.7165
▁गंगटोक	-11.7169
▁गहलोत	-11.7169
▁चॉकलेट	-11.7169
▁नौवहन	-11.7169
▁फव्वारे	-11.7169
▁गेहूँ	-11.7169
▁महत्वाकांक्षा	-11.7169
▁UDAN	-11.7169
▁सहभागिता	-11.7169
▁बेटियां	-11.7169
▁घबराहट	-11.717
▁प्रवचन	-11.717
▁टावर	-11.717
▁मछलियाँ	-11.717
▁संरक्षक	-11.717
▁अयोग्य	-11.717
▁बोलेंगे	-11.717
▁सबूत	-11.717
▁पौधा	-11.717
▁पुलवामा	-11.717
▁कबीर	-11.7171
▁मद्रास	-11.7172
▁शिंज	-11.7173
▁सीटें	-11.7174
▁क्रांतिकारी	-11.7174
▁घनी	-11.7174
▁बुढ़ापे	-11.7175
▁रईसों	-11.7177
▁कीमतें	-11.7179
▁साक्षात्कार	-11.7181
▁धर्मों	-11.7181
▁पाँव	-11.7181
▁बाबू	-11.7181
▁कार्यशालाओं	-11.7182
▁व्याख्यान	-11.7182
▁शहरीकरण	-11.7183
▁निकलना	-11.7185
▁मंथन	-11.7191
-6	-11.7196
▁ट्रांस	-11.7198
▁प्रमाणन	-11.72
▁फ्लू	-11.7207
▁दर्जन	-11.7214
▁पॉजिट	-11.7221
▁निहार	-11.7222
▁राइड	-11.7227
▁चार्टर	-11.7234
▁नरम	-11.7234
es	-11.7237
▁टाउन	-11.725
▁बोर्डों	-11.725
ग्रामीण	-11.7257
▁लंग	-11.7263
▁मोम	-11.7284
▁मनी	-11.7295
▁न्यायालयों	-11.7297
▁160	-11.73
ंगी	-11.73
डा	-11.7308
▁निहितार्थ	-11.7311
▁प्रशासक	-11.7317
▁निदेशकों	-11.7317
ोबल	-11.7323
▁ज़	-11.7341
ेगा	-11.7343
मे	-11.7347
▁पिताओं	-11.7347
▁व्यवहार्य	-11.7349
▁असमर्थ	-11.7351
▁पागल	-11.7351
▁saith	-11.7351
▁इमरजेंसी	-11.7351
▁ऑरोविले	-11.7351
▁बरनबास	-11.7351
▁अतिक्रमण	-11.7351
▁मंत्रमुग्ध	-11.7351
▁प्रारम्भ	-11.7351
▁अमीरात	-11.7351
▁उपहास	-11.7352
▁गौतम	-11.7352
▁गुलाम	-11.7352
▁धोया	-11.7352
▁नोटिस	-11.7352
▁छिद्र	-11.7352
▁सरलीकरण	-11.7353
▁मछुआरे	-11.7354
▁पहुंचेंगे	-11.7354
▁विमुद्रीकरण	-11.7354
▁धोना	-11.7354
▁चरणबद्ध	-11.7355
▁स्वच्छाग्रहियों	-11.7356
▁मंगल	-11.7357
▁इकोनॉमी	-11.7357
▁तुर्की	-11.7359
▁दुर्गम	-11.7359
▁गुड्स	-11.7359
▁450	-11.7361
▁स्टेज	-11.7362
▁कक्षाओं	-11.7362
▁अभिभावकों	-11.7362
▁मराठी	-11.7362
▁वैधता	-11.7362
▁कर्फ्यू	-11.7364
▁एनएचएआई	-11.7364
उ	-11.7366
▁सरपंचों	-11.7368
तो	-11.7369
▁गुजराती	-11.737
▁फ्रेंच	-11.737
▁रचनात्मकता	-11.7371
▁मंडी	-11.7372
▁बहनें	-11.7372
▁छिपे	-11.7373
▁एनडीआरएफ	-11.7373
ौली	-11.7378
▁विशिष्टता	-11.7383
▁कलेक्टरों	-11.7383
▁स्तनपा	-11.7384
▁धूम	-11.7387
स्थ	-11.7393
्थ	-11.7397
▁पट्टी	-11.7401
▁भूमिगत	-11.7409
▁81	-11.7412
▁हैरान	-11.7415
वाई	-11.7416
▁140	-11.7418
▁एआई	-11.7422
c	-11.7428
▁जीन	-11.7431
▁बुद्धिमानों	-11.744
उन्होंने	-11.7444
▁थके	-11.7444
▁तोप	-11.7445
▁दयाल	-11.7449
वट	-11.7454
शाही	-11.7457
▁ज़ोर	-11.7462
▁खोली	-11.7463
▁3.5	-11.7465
▁बसों	-11.7468
▁बोडो	-11.7469
था	-11.748
▁अनियमित	-11.749
दायक	-11.7496
पाद	-11.7501
▁विद्वान	-11.7501
▁गिरे	-11.7502
▁एफ	-11.7503
▁87	-11.7504
▁बदलावों	-11.7505
बीन	-11.7506
▁शीतकाल	-11.7507
▁उत्तराधिकार	-11.7511
▁छल	-11.7514
▁तड़प	-11.7525
▁110	-11.7527
▁नगरपालिका	-11.7536
▁इकाइयां	-11.7536
▁दिक्कत	-11.7536
▁पढाओ	-11.7536
▁परिप्रेक्ष्य	-11.7536
▁बढ़ोतरी	-11.7536
▁मातृभाषा	-11.7536
▁संवर्धित	-11.7537
▁गिलास	-11.7537
▁मक्का	-11.7537
▁मेहराब	-11.7537
▁बेल्ट	-11.7537
▁नब्बे	-11.7537
▁राहेल	-11.7537
▁1942	-11.7537
▁आघात	-11.7537
▁सर्कल	-11.7537
▁राजेश	-11.7537
▁मातृभूमि	-11.7538
▁पूर्वांचल	-11.7538
▁बहाया	-11.7538
▁1947	-11.7538
▁सोन	-11.7539
▁बनाये	-11.7539
▁ढल	-11.754
▁बैठत	-11.754
▁डल	-11.7541
▁संस्कार	-11.7541
▁प्लेट	-11.7541
▁व्यास	-11.7542
▁बर्लिन	-11.7542
▁आईएफएफआई	-11.7543
प्पा	-11.7543
▁आईसीएमआर	-11.7544
▁2002	-11.7545
▁प्रियजन	-11.7546
म्मा	-11.7546
▁कर्णधारों	-11.7547
▁टिड्डी	-11.7549
▁स्वायत्तता	-11.7549
रेन	-11.755
▁मंगलवार	-11.7552
▁गुड	-11.7555
▁भाँ	-11.7559
▁उत्तराधिकारी	-11.7564
▁पात्रता	-11.7564
▁मैन	-11.7571
▁06	-11.7571
▁कार्ब	-11.7581
▁कैन	-11.7602
▁5,000	-11.7612
▁अथॉरिटी	-11.7613
▁उगा	-11.7618
ay	-11.762
▁आपूर्तिकर्ता	-11.7625
फूल	-11.764
▁किशन	-11.7651
▁कमल	-11.7652
ची	-11.7654
▁प्रभारी	-11.7659
▁ग्रामीणों	-11.7664
▁सभापति	-11.7667
▁एमटी	-11.7669
25	-11.7671
एंड	-11.7681
▁इंजीनियर	-11.7684
▁कहत	-11.7689
लो	-11.7698
▁पराक्रम	-11.7698
▁6000	-11.7705
ोत्तर	-11.7716
▁इस्त्राएल	-11.7721
▁एहसान	-11.7725
▁अड़चन	-11.7725
▁एयरोस्पेस	-11.7725
▁खुफिया	-11.7725
▁मैनुअल	-11.7725
▁शमायाह	-11.7725
▁टोकन	-11.7725
▁दीपावली	-11.7725
▁हित्ती	-11.7725
▁सुलह	-11.7725
▁कमेटी	-11.7725
▁छिड़काव	-11.7726
▁पत्रकारिता	-11.7726
▁चिंतन	-11.7726
▁देसाई	-11.7726
▁ढंक	-11.7726
▁अनियंत्रित	-11.7726
▁समुच	-11.7726
▁बिताया	-11.7726
▁सोचिए	-11.7726
▁बारहवें	-11.7726
▁बीसवें	-11.7726
▁डरेंगे	-11.7726
▁सुनोगे	-11.7726
▁मुरझा	-11.7726
▁दलहन	-11.7727
▁बसाया	-11.7727
▁नियोक्ताओं	-11.7729
▁स्पष्टीकरण	-11.7729
छ	-11.7729
▁बीयर	-11.773
▁रायपुर	-11.773
▁अज्ञात	-11.773
▁बीएसएफ	-11.773
▁बनोगे	-11.773
▁यहुवाह	-11.7732
कला	-11.7732
▁बिग	-11.7733
▁जासूसी	-11.7735
▁अवार्ड्स	-11.7735
▁उग्रवाद	-11.7738
▁शास्त्रियों	-11.7738
▁जंजीरों	-11.7739
▁सराय	-11.774
▁लिंक्ड	-11.7741
▁कैमरा	-11.7744
▁आत्मीय	-11.7745
▁बाण	-11.7748
▁AIIMS	-11.7752
▁दुर्बलता	-11.7752
▁प्रयाग	-11.7753
▁ओम	-11.7756
▁जीवाश्म	-11.7757
▁रहकर	-11.7758
▁लौटते	-11.7758
▁याहवेह	-11.7764
ेबल	-11.777
IBC	-11.7771
▁बीजों	-11.7788
▁बदलकर	-11.779
▁छोड़ते	-11.7798
.03.2020	-11.78
▁तुमको	-11.7808
▁तारा	-11.7812
▁टूटने	-11.7813
ौर	-11.7814
▁हॉटस्पॉट	-11.7814
सैनिक	-11.7823
नियामक	-11.7824
दल	-11.7835
सागर	-11.7837
प्रसिद्ध	-11.7837
▁तोला	-11.7839
▁आंदोलनों	-11.7841
▁बरसात	-11.7842
घाट	-11.7855
आज	-11.7855
▁सिटीज	-11.7856
▁विंग	-11.7859
निर्देशों	-11.7865
▁मज़ा	-11.7868
्याप्त	-11.7869
▁प्रशंस	-11.7872
▁विस्फोट	-11.7873
▁महानुभाव	-11.788
▁खरीदार	-11.7881
▁नरक	-11.7887
▁प्रतिष्ठान	-11.7888
▁प्रतिरोध	-11.7888
▁अविश्वास	-11.7891
ेंट	-11.7891
.50	-11.7901
▁छड़	-11.7903
▁भूखे	-11.7904
▁कैलाश	-11.7905
ar	-11.7913
▁सुदृढ़	-11.7917
▁एलीआजर	-11.7917
▁वडोदरा	-11.7917
▁अनुसमर्थन	-11.7917
▁कटोरे	-11.7917
▁सिदकिय्याह	-11.7917
▁पूरब	-11.7917
▁कड़वाहट	-11.7918
▁कांस्य	-11.7918
▁सिनाई	-11.7918
▁बहुमत	-11.7918
▁देवेंद्र	-11.7918
▁कैशलेस	-11.7918
▁नैनीताल	-11.7918
▁खंडहर	-11.7919
▁मनयार	-11.7919
▁ट्रेकिंग	-11.7919
▁सृजित	-11.7919
▁माइकल	-11.7921
▁पेंटिंग	-11.7922
▁हिरन	-11.7922
▁बाँट	-11.7922
▁लड़कों	-11.7922
▁डीएनए	-11.7924
▁अर्बन	-11.7925
▁मुखिया	-11.7925
▁काँच	-11.7925
▁उलट	-11.7926
▁भंग	-11.7927
▁यूनिवर्सल	-11.7928
▁भूलें	-11.7928
▁बचाना	-11.7932
▁देवियो	-11.7934
▁मैप	-11.7936
▁शिप	-11.7937
▁शेड	-11.7938
▁धाराओं	-11.7938
▁कोरह	-11.7941
मेल	-11.7946
▁योगा	-11.7949
▁भव्यता	-11.7951
16	-11.7956
▁PPE	-11.7958
▁सेंसर	-11.7959
▁पिन	-11.7959
ाव	-11.7962
▁मेडिसिन	-11.7966
▁अम्मा	-11.7967
▁केदार	-11.7968
▁अपनाए	-11.7973
डर	-11.7975
▁निर्भार	-11.7979
▁पै	-11.7982
▁नाना	-11.7984
▁पूछे	-11.799
▁अँगुल	-11.7998
▁लोगो	-11.8002
सेवानिवृत्त	-11.8019
is	-11.8019
▁दासों	-11.802
▁बाइक	-11.8038
ाइल	-11.8045
▁लैंड	-11.8051
वश	-11.8054
▁रिलीज	-11.8055
▁7.5	-11.8055
▁अनुभाग	-11.8076
▁एजेंट	-11.8078
▁ट्रक	-11.8079
▁पत	-11.8082
▁कुचल	-11.8083
▁000	-11.8091
▁समर्थक	-11.8095
▁अदा	-11.8099
▁खाद	-11.8106
▁बेबीलोन	-11.8109
▁बाशा	-11.811
▁मध्यस्थ	-11.811
▁अर्द्ध	-11.8113
भाजपा	-11.8113
▁कत्ल	-11.8113
▁पुस्तिका	-11.8113
▁रफ्तार	-11.8113
▁रेंगने	-11.8113
▁वैधानिक	-11.8113
▁साउथ	-11.8113
▁MIFF	-11.8113
वधि	-11.8113
▁छटा	-11.8114
▁ग्रीनफील्ड	-11.8114
▁पेपर	-11.8114
▁बेलारूस	-11.8114
▁कीटाणुनाशक	-11.8114
▁सुनेगा	-11.8114
▁खिलाया	-11.8114
▁उठेगा	-11.8114
▁लहसुन	-11.8115
▁वगैरह	-11.8115
▁द्रष्टा	-11.8115
▁मैपिंग	-11.8116
▁सम्मेलनों	-11.8116
▁पॉइंट	-11.8117
▁AI	-11.8117
▁धुले	-11.8117
▁जेठा	-11.8118
▁पेंशनरों	-11.812
▁इंडिआ	-11.812
साज	-11.812
▁लिखता	-11.8122
बितर	-11.8122
वाल	-11.8123
▁DARPG	-11.8124
▁शनिवार	-11.8124
▁गेट्स	-11.8128
▁एससी	-11.813
▁साझाकरण	-11.8131
▁बुधवार	-11.8131
▁स्म	-11.8137
▁जानो	-11.8139
▁GoM	-11.8141
▁गुरुवार	-11.8142
▁मरना	-11.8142
▁कुरु	-11.8149
▁लोकल	-11.815
ियाम	-11.8156
▁चौदहव	-11.8159
।"	-11.816
▁76	-11.8163
▁अगला	-11.8167
▁नही	-11.817
डिक	-11.817
▁एसी	-11.8178
कर्ता	-11.8183
▁अकाउंटेंट	-11.8188
▁प्रा	-11.8188
▁यूवी	-11.8189
▁88	-11.8195
▁सिकुड़	-11.8198
▁MoU	-11.8202
▁900	-11.8209
चर्या	-11.8213
▁जलने	-11.8214
▁अपराधी	-11.8217
उठो	-11.8219
वार्षिक	-11.8219
अमेरिका	-11.8219
सभी	-11.822
▁शराबी	-11.8221
पत्तियों	-11.8221
संचारी	-11.8228
▁बुलात	-11.8229
ीत	-11.823
▁पकड़ा	-11.8243
तीत	-11.8251
▁रिक्शा	-11.8257
▁अधर्मी	-11.8265
▁कलेक्टर	-11.8279
्सर	-11.8281
▁ज़रूर	-11.8284
▁गायक	-11.8287
▁ड्राइवर	-11.829
▁2007	-11.8294
▁रण	-11.8295
06	-11.8295
▁बिचौलिय	-11.8298
▁यहुव	-11.8299
▁डि	-11.8304
▁लीग	-11.8305
▁गवाहों	-11.8305
▁देशवासियो	-11.8307
▁प्रदाता	-11.8313
▁इक्कीस	-11.8313
▁झाँसी	-11.8313
▁दरवाजों	-11.8313
▁भयावह	-11.8313
▁सियोल	-11.8313
▁हजारीबाग	-11.8313
▁धीमी	-11.8313
▁एलएनजी	-11.8313
▁चिकित्सीय	-11.8313
▁जांघ	-11.8314
▁कुदरत	-11.8314
अजंता	-11.8314
▁संयोग	-11.8314
▁पाटिल	-11.8314
▁अनुपम	-11.8314
▁उठेंगे	-11.8314
▁वरदान	-11.8314
▁सोसायटी	-11.8315
▁सिंधुदुर्ग	-11.8315
▁प्रतिस्थापन	-11.8315
ाधीन	-11.8315
▁तृतीयक	-11.8316
▁आरोही	-11.8316
▁मलयालम	-11.8316
▁ट्रॉफी	-11.8316
▁लड़के	-11.8316
▁मैन्युफैक्चरिंग	-11.8317
▁टाइम्स	-11.832
▁मोती	-11.8321
▁पूछें	-11.8323
▁उपलब्धियां	-11.8323
▁कृत्यों	-11.8324
▁कंट्री	-11.8326
▁एमएफपी	-11.8328
96	-11.8329
▁रहेंगी	-11.8329
▁पेड	-11.833
▁एसएमई	-11.833
▁जटिलता	-11.8331
▁बाला	-11.8333
▁ट्रेडिंग	-11.8333
▁रिश्तेदारों	-11.8336
▁जिम	-11.8336
स्थल	-11.8339
▁71	-11.8341
मोहक	-11.8343
▁चौकीदार	-11.8344
▁तिब्बती	-11.8345
▁स्पॉट	-11.8349
▁हवाओं	-11.8355
यूँ	-11.8371
25,000	-11.8371
CO	-11.8372
▁मूड	-11.8376
▁टूटे	-11.8384
▁जादू	-11.8389
▁देखती	-11.839
मेज	-11.839
▁स्पष्टता	-11.8397
▁पुरातात्व	-11.8398
ाइट्स	-11.8407
िकल	-11.8409
GST	-11.8423
अस्तित्व	-11.8423
रस	-11.8423
-2018	-11.843
न्यू	-11.8443
▁सौं	-11.8446
हावी	-11.846
▁टिका	-11.8462
▁विपत्तिय	-11.8471
▁92	-11.8471
दानी	-11.8475
▁हिचक	-11.8484
▁जवाबदेह	-11.8492
▁थिएटर	-11.8492
लेन	-11.8496
▁दीप	-11.8499
▁पुर्तगाल	-11.8499
▁86	-11.8504
लखंड	-11.8505
▁साइन	-11.8505
p	-11.8507
▁नीदरलैंड	-11.8514
▁तिरुवनंतपुरम	-11.8518
▁अवकाश	-11.8518
▁साक्ष्य	-11.8518
▁सोलापुर	-11.8518
▁कॉलेस्ट्र	-11.8518
▁रवींद्रनाथ	-11.8518
▁विनिवेश	-11.8518
▁नाभि	-11.8518
▁गाऊंगा	-11.8518
▁धोएगा	-11.8518
▁बुंद	-11.8518
▁बुलाओ	-11.8518
▁तितर	-11.8518
▁सताया	-11.8518
▁परिसंपत्तियों	-11.8518
▁विस्थापित	-11.8518
▁नौसैनिक	-11.8518
▁उड़ाया	-11.8518
▁वसंत	-11.8518
▁दवाइयों	-11.8518
▁1857	-11.8519
िक्रमा	-11.8519
▁टेलीमेडिसिन	-11.8519
▁लगेंगे	-11.8519
▁जानोगे	-11.8519
▁पटरियों	-11.852
▁पहनना	-11.852
▁विधियाँ	-11.852
▁MUDRA	-11.8522
▁लिखते	-11.8523
▁उपेक्षा	-11.8524
सो	-11.8524
▁2003	-11.8525
ाक	-11.8525
▁हमात	-11.8525
▁4.0	-11.8525
▁पनप	-11.8526
▁सुगमता	-11.8526
▁दाढ़ी	-11.8527
▁सिखाता	-11.8527
▁लाइसेंसिंग	-11.8528
▁शौक	-11.8532
ॉन	-11.8532
▁प्याले	-11.8535
▁प्रतिरोधक	-11.8536
▁40,000	-11.8537
▁राक्षसों	-11.8538
at	-11.8541
▁लोहा	-11.8547
▁परिष्कृत	-11.8547
▁अंकित	-11.8549
▁इज़	-11.8551
▁उपकर	-11.8554
▁ID	-11.8557
▁प्रजा	-11.8557
▁गुरुद्वार	-11.858
▁मकर	-11.858
▁कुशलता	-11.858
▁चर	-11.859
▁नेवल	-11.8597
ोथ	-11.8598
यापन	-11.8601
▁गहने	-11.8604
▁अपनाई	-11.8623
दिवस	-11.8628
दैव	-11.863
मुंबई	-11.8632
▁कॉपर	-11.8632
मोडल	-11.8632
▁डा	-11.8635
▁हुक	-11.8638
▁आरके	-11.8639
▁बर्	-11.8642
▁मेड	-11.865
रंगीन	-11.8653
प्र	-11.8659
अपनी	-11.8661
▁झूठा	-11.8661
▁तेलों	-11.8679
वादी	-11.8687
▁गायन	-11.8688
▁पीपल	-11.8689
▁स्वयंसेवक	-11.8692
▁फैक्ट	-11.8693
.15	-11.8696
▁लोभ	-11.8699
▁O	-11.8702
▁SHG	-11.8703
▁कुटुम्बकम	-11.8707
गामी	-11.8709
▁उम्मीदों	-11.8712
▁नाल	-11.8712
पक्षीय	-11.8715
▁Singh	-11.8718
▁वेस्ट	-11.8723
▁रीति	-11.8723
▁संकटों	-11.8725
▁RuPay	-11.8726
▁पुडुचेरी	-11.8726
▁लिहाज	-11.8726
▁वृहद	-11.8726
▁कांगड़ा	-11.8726
▁मक्खन	-11.8726
▁इंटरफेस	-11.8726
▁संक्षेप	-11.8726
▁ग्रोथ	-11.8726
▁पोर्च	-11.8726
▁लाबान	-11.8726
▁कोहिमा	-11.8726
▁चीड़	-11.8726
▁एनालिटिक्स	-11.8726
▁सागरमाला	-11.8726
मार्केटप्लेस	-11.8726
▁सिहोन	-11.8726
▁रैली	-11.8726
▁गर्भपात	-11.8726
▁पहियों	-11.8726
▁खाएँगे	-11.8726
▁अदरक	-11.8727
▁बुलेट	-11.8727
▁यहूदिया	-11.8727
▁सक्सेना	-11.8727
▁गोपनीयता	-11.8727
वर्धक	-11.8727
▁चादर	-11.8727
▁उरिय्याह	-11.8729
▁हटाया	-11.8729
▁पतली	-11.873
▁ट्राइफेड	-11.8731
▁नाजुक	-11.8731
▁पुकारते	-11.8731
▁सैनिटाइजर	-11.8731
▁अगरतला	-11.8733
▁इमारतें	-11.8733
▁प्रदाताओं	-11.8734
▁बिल्डरों	-11.8735
▁निपट	-11.8735
हेल	-11.8739
▁व्य	-11.874
▁बारियां	-11.8743
▁निकालना	-11.8749
रन्त	-11.875
▁राष्ट्रपिता	-11.875
▁इनोवेट	-11.8754
▁मॉल	-11.8756
▁पो	-11.8757
▁सुधारक	-11.8758
▁MHA	-11.8759
ही	-11.8759
▁फिश	-11.8759
▁आँवल	-11.8759
st	-11.8762
▁भेजें	-11.8762
पू	-11.8764
उधर	-11.8766
▁बनाएँ	-11.8769
▁बंदर	-11.877
▁लाएं	-11.8771
▁पिलाया	-11.8775
05	-11.8779
▁प्रतिमान	-11.8789
▁छा	-11.8791
▁98	-11.8794
▁बेना	-11.8794
▁उठाएं	-11.8798
▁पावन	-11.8801
77	-11.8804
▁कस	-11.8805
बहन	-11.8809
▁औषध	-11.881
▁डीजी	-11.8813
▁अस्थि	-11.8823
▁हेरि	-11.8823
▁डिब्ब	-11.8826
▁बर्बादी	-11.8828
MoU	-11.8833
▁इंडस्ट्रीज	-11.8835
भोग	-11.8836
एसओपी	-11.8841
प्रथम	-11.8844
आओ	-11.8845
केंद्रित	-11.8848
▁पुत्री	-11.8857
पीसीआर	-11.8862
नायक	-11.8862
▁रवि	-11.8868
▁कारीगर	-11.8876
▁सावधानिय	-11.8887
ैया	-11.8894
▁यजमान	-11.8904
▁4.5	-11.8907
मय	-11.8909
▁वेद	-11.8909
किन	-11.8911
बाद	-11.8915
-3	-11.8922
▁उज	-11.8922
▁750	-11.8933
▁पलिश्ती	-11.8935
▁संवाददाता	-11.8935
ोत्सव	-11.8936
▁छेड़	-11.8936
▁पारिस्थितिक	-11.8936
▁डिस्ट्रिक्ट	-11.8936
▁फ़िल्म	-11.8937
▁कतार	-11.8937
▁बिठा	-11.8938
▁एहतियात	-11.8939
▁गधों	-11.8939
▁तेलुगु	-11.8939
▁कार्मेल	-11.8939
▁शिकागो	-11.8939
▁शंख	-11.8939
▁कीजिए	-11.8939
▁गर्भाधान	-11.8939
▁लीजिए	-11.8939
▁बेंचमार्क	-11.8939
▁जामनगर	-11.8939
▁इधर	-11.8939
▁ताजमहल	-11.8939
▁ग्यारहवें	-11.8939
▁बांड	-11.8939
पीएमयूवाई	-11.8939
▁कूच	-11.8939
▁हॉकी	-11.8939
इंसुलिन	-11.8939
▁ब्रेस्ट	-11.894
ल्लम	-11.894
▁आइटम	-11.894
▁वंशज	-11.8941
▁पीले	-11.8941
▁Cr	-11.8942
स्टर	-11.8942
ापुर	-11.8944
▁पृष्ठ	-11.8944
▁टैरिफ	-11.8944
▁मिमी	-11.8944
▁रोओ	-11.8945
▁मरहम	-11.8945
▁सैटेलाइट	-11.8946
▁लड़ते	-11.8947
▁टायर	-11.8949
▁सीओपी	-11.895
▁पहुंचाना	-11.8951
▁डरना	-11.8953
▁माई	-11.8955
▁स्कोर	-11.8957
▁नासर	-11.896
▁दायरा	-11.896
▁तबाही	-11.8961
▁लज्जा	-11.8962
रिम	-11.8963
▁जोड़कर	-11.8964
▁नारा	-11.8969
▁पहुंचना	-11.8972
नाशक	-11.8973
▁ऑपरेटरों	-11.8973
▁ज़रूरत	-11.8973
▁ट्रकों	-11.8977
▁राउंड	-11.8981
▁सोता	-11.8983
▁कर्ण	-11.8988
ियम	-11.8997
▁RT	-11.8998
▁पढ़त	-11.8998
वर्किंग	-11.9005
▁गुल	-11.901
रि	-11.9017
▁सेल्स	-11.9023
▁माफी	-11.9031
▁एलाम	-11.9033
▁कोलेस्ट्र	-11.9034
सेट	-11.9035
रीन	-11.9039
▁शान	-11.9046
मार्ग	-11.9055
भारतीय	-11.9055
दृष्टि	-11.9056
कुण्ड	-11.906
प्रधानमंत्री	-11.906
▁शक	-11.9063
▁मिट	-11.9067
▁कैप	-11.9069
हमें	-11.907
▁कब्रों	-11.9071
▁ट्रून	-11.9072
▁महंग	-11.9073
▁97	-11.9081
▁94	-11.9093
ीवरेज	-11.91
▁विद्या	-11.9102
कालिक	-11.9108
▁सीआर	-11.9116
▁मदर	-11.9117
▁ऑपरेटर	-11.9118
▁ऊँट	-11.912
फ़ेस	-11.9123
रूस	-11.9126
▁किराये	-11.913
▁खुशहाल	-11.9132
▁निकास	-11.9132
▁महासागरों	-11.9133
दंड	-11.9133
▁अर्थशास्त्र	-11.9134
मतल	-11.9136
▁टाट	-11.9143
बाई	-11.9147
▁अन्ना	-11.9147
▁अवरोध	-11.915
▁उंगल	-11.9152
▁सलामी	-11.9154
योग	-11.9154
▁लम्बा	-11.9155
पनिवेश	-11.9155
▁भला	-11.9156
▁अम्नोन	-11.9156
▁आइसोलेशन	-11.9156
▁खंभों	-11.9156
▁गड़गड़ाहट	-11.9156
▁गाँधी	-11.9156
▁तर्शीश	-11.9156
▁धोत्रे	-11.9156
▁भविष्यवक्ता	-11.9156
▁फांसी	-11.9156
▁अबीशै	-11.9156
▁कुर्सियां	-11.9156
▁त्रिशूल	-11.9156
▁अछूत	-11.9156
▁फेसलेस	-11.9156
▁मनरेगा	-11.9156
▁आशीष	-11.9156
र्पण	-11.9156
▁हॉट	-11.9156
▁नाड़ी	-11.9157
▁गुजरेगा	-11.9157
▁प्रोटोटाइप	-11.9157
▁मज़बूत	-11.9157
▁मवाद	-11.9157
▁बाईपास	-11.9157
▁शेखावत	-11.9158
▁रेलमार्ग	-11.9158
▁चालाक	-11.9158
गाने	-11.9159
▁कुवैत	-11.9159
ुद्दीन	-11.9159
▁2004	-11.916
▁चढ़ावे	-11.916
▁ब्रीफ	-11.9161
▁गर्जना	-11.9162
▁क्रॉसिंग	-11.9163
21	-11.9164
▁धुन	-11.9164
▁जड़ें	-11.9165
▁व्रत	-11.9166
▁इंट्रा	-11.9166
▁प्रण	-11.9166
▁मिश्री	-11.9166
▁फ्रेम	-11.9166
▁अम्मी	-11.9167
▁NFAI	-11.917
▁विधवाओं	-11.917
▁पुरात	-11.9171
AAT	-11.9172
▁गणित	-11.9173
चीवमेंट	-11.9175
▁(3	-11.9176
▁होऊंगा	-11.9179
▁फॉल	-11.918
▁सीने	-11.918
▁मेहमानों	-11.9182
▁US	-11.9183
▁पीएमओ	-11.9184
▁निकाली	-11.9187
▁कठोरता	-11.9187
हल	-11.9188
रूम	-11.9191
▁प्लेन	-11.9194
▁झटक	-11.9194
▁सुखा	-11.9195
▁बिगड़	-11.9195
▁कांटे	-11.9198
▁विश्वासघाती	-11.92
▁ग्लूको	-11.92
बे	-11.9205
▁निर्देशन	-11.9205
▁पारस	-11.9208
▁!	-11.9215
▁फेंकने	-11.9218
शा	-11.9225
वासी	-11.9227
▁वाक	-11.9228
▁गोला	-11.9228
▁लेजर	-11.9233
▁बेचे	-11.9233
प्त	-11.9238
▁युगों	-11.9244
▁भुना	-11.9247
2-3	-11.9248
सीमा	-11.9253
▁पट्टे	-11.9256
▁सको	-11.9265
▁निर	-11.9267
ेबेल	-11.9269
उल	-11.9273
▁समाधि	-11.9274
▁ट्रांसफॉर्म	-11.9278
भूमि	-11.9278
दराज	-11.9279
▁वनस्पतिय	-11.928
ve	-11.9281
बेल	-11.9282
▁पाट	-11.9282
नहीं	-11.9284
▁आद	-11.9295
▁इलाक	-11.9296
सुरक्षित	-11.9303
▁गैंड	-11.9307
▁कैदी	-11.9311
▁1.3	-11.9317
ोली	-11.9317
▁डिजी	-11.9318
▁विद्य	-11.933
मस्ती	-11.9333
▁93	-11.9335
ियर	-11.9339
▁बेहतरी	-11.9344
▁बुनकर	-11.9344
ावधान	-11.9346
राह	-11.9348
▁कोंकण	-11.9349
मठ	-11.9353
▁अनुभूति	-11.9355
▁मिस	-11.9356
▁टैंक	-11.9358
हन्ना	-11.9366
▁समेट	-11.9366
पीने	-11.937
▁एक्सपोर्ट	-11.9375
▁परिस्थिति	-11.9378
▁खिड़किय	-11.9378
▁थिंक	-11.9378
▁दानिय्येल	-11.9378
▁बटालियन	-11.9378
▁बरौनी	-11.9378
▁भागीरथ	-11.9378
▁रजिस्टर	-11.9378
▁संसाधित	-11.9378
▁शिमशोन	-11.9378
▁बदबू	-11.9378
▁संकलन	-11.9378
▁एलीआज़र	-11.9378
▁स्नातकोत्तर	-11.9378
▁बलगम	-11.9378
▁सलाख	-11.9379
▁लूत	-11.9379
▁सौहार्दपूर्ण	-11.9379
▁उदारीकरण	-11.9379
▁विघटन	-11.9379
▁बढ़ाएगी	-11.9379
▁फेलो	-11.9379
▁उठाएंगे	-11.9379
▁साराभाई	-11.9379
▁ब्रोंकाइटिस	-11.9379
▁रेलगाड़ियों	-11.938
▁समानांतर	-11.938
▁रखोगे	-11.938
▁खुश्क	-11.938
▁वंशावली	-11.938
▁चांसलर	-11.9382
▁शंकराचार्य	-11.9382
▁बहरा	-11.9382
▁सीमेंट	-11.9382
▁विराज	-11.9383
ख्याल	-11.9383
▁रखवाले	-11.9384
डिंग	-11.9385
▁लिटा	-11.9385
▁NH	-11.9386
▁गवर्नमेंट	-11.9387
अन	-11.9387
▁कांफ्रेंस	-11.9387
▁सम्मानजनक	-11.9387
▁भूलना	-11.9388
▁द्रव	-11.9389
मिट	-11.939
▁उज्जवला	-11.939
▁स्टेंट	-11.939
▁वीर्य	-11.9391
▁एनबीएफसी	-11.9392
▁पिछड़ा	-11.9393
▁अनुयायी	-11.9398
▁मढ़ा	-11.9409
rime	-11.9415
▁गायकों	-11.9418
▁अनुच	-11.9418
परि	-11.9419
ंतिक	-11.9424
ादत	-11.9426
▁एलोपैथ	-11.9427
▁कोढ़	-11.9429
▁तप	-11.9431
▁पाये	-11.9433
▁हाकिमों	-11.9436
▁डेरे	-11.9441
कर्मियों	-11.9442
▁ज़ेबुलुन	-11.9451
▁कच्चा	-11.9451
▁उड़ा	-11.9461
▁विजयी	-11.9468
▁पाठक	-11.9479
▁-2019	-11.9481
:00	-11.9494
स्टर्न	-11.9496
रेब	-11.9497
▁आईपी	-11.9499
10	-11.9506
ंडा	-11.9507
दक्षिण	-11.9511
सबसे	-11.9514
दोनों	-11.9524
▁माने	-11.9534
धारा	-11.9536
▁महंगा	-11.9536
▁पट्ट	-11.9539
▁बु	-11.9545
जीएसटी	-11.9552
▁आहुति	-11.9564
▁प्लेस	-11.9565
▁पिघला	-11.9568
वल	-11.9568
▁संप्रदाय	-11.957
ध	-11.957
▁अफवाह	-11.957
चल	-11.9571
▁आविष्कार	-11.9577
▁जाली	-11.9583
▁ग्रंथिय	-11.9585
▁चन्द्र	-11.9591
▁बाह्य	-11.9591
▁महोदय	-11.9593
▁महज	-11.9599
▁चंद्रशेखर	-11.9603
▁रिवर	-11.9603
▁अनिश्चित	-11.9603
▁लचीले	-11.9605
▁जन्माष्टमी	-11.9606
▁जोधपुर	-11.9606
▁हॉस्टल	-11.9606
▁एम्बुलेंस	-11.9606
▁जूनागढ़	-11.9606
▁बछड़े	-11.9606
▁शॉर्ट	-11.9606
▁टाइप	-11.9606
▁रमजान	-11.9606
▁CBN	-11.9606
▁अब्दुल्ला	-11.9606
▁जलापूर्ति	-11.9606
▁रविदास	-11.9606
▁पहिए	-11.9606
▁मिनरल	-11.9606
▁लम्बे	-11.9606
▁पाओगे	-11.9606
▁नोबेल	-11.9606
▁भूगोल	-11.9606
▁छुड़ाएगा	-11.9606
▁लिंकेज	-11.9606
▁शिलांग	-11.9606
▁नेचुर	-11.9607
▁झुकाया	-11.9607
▁फ्यूचर	-11.9607
▁ब्रसेल्स	-11.9607
▁एनआईटीआईयोग	-11.9607
▁फिजी	-11.9607
▁हाईवे	-11.9607
▁शेल	-11.9608
▁कोशिकाएँ	-11.9608
▁कुर्सी	-11.9608
▁1948	-11.9609
▁सेशेल्स	-11.9609
बुल	-11.9609
▁बॉर्डर	-11.961
▁एनजीओ	-11.9611
▁कोल्हापुर	-11.9611
▁चेयरमैन	-11.9611
▁बैठो	-11.9611
▁तालक	-11.9614
▁रची	-11.9614
▁ईएसआईसी	-11.9614
▁बैठना	-11.9614
▁नाथन	-11.9616
52	-11.9616
▁कैम्प	-11.9618
▁वर्मा	-11.9618
▁प्रसिद्धि	-11.9621
▁निर्वाच	-11.9621
▁देशमुख	-11.9622
▁बीआरओ	-11.9622
▁असमानता	-11.9623
▁आण	-11.9625
▁4000	-11.9628
▁ग्लिस	-11.963
▁आर्मी	-11.963
▁नवी	-11.963
▁जादूगरों	-11.9631
▁घात	-11.9633
▁आईएमएफ	-11.9633
▁संपर्कों	-11.9635
▁पक	-11.964
▁अफवाहों	-11.9641
▁ज़ेब	-11.9651
▁असुविधा	-11.9658
▁कमाई	-11.9661
▁2,000	-11.9663
▁सुरम	-11.9667
शाम	-11.9674
▁पिया	-11.9677
▁कार्बोहाइड्रेट	-11.9678
▁काटकर	-11.9679
▁दवाई	-11.9685
एफ	-11.9685
▁त्रुटि	-11.9686
34	-11.9686
▁लामा	-11.9688
▁MoHF	-11.9691
6,000	-11.9692
-1	-11.9696
▁लोन	-11.9698
▁चलाए	-11.97
▁सिस	-11.9701
▁एला	-11.9715
▁सनी	-11.9716
▁बनाईं	-11.972
▁अकबर	-11.9722
▁टैग	-11.9726
देवी	-11.9729
मार्क	-11.973
यान	-11.9731
▁अल्प	-11.974
▁फिसल	-11.9741
इज़राइल	-11.9744
कृषि	-11.9744
▁जूत	-11.9745
डाउन	-11.9753
▁अदालतों	-11.9754
▁नीती	-11.9756
▁पेरिया	-11.976
पुरम	-11.9764
▁नशा	-11.9765
उसे	-11.9768
पाई	-11.9798
हमने	-11.9799
▁ऊन	-11.9799
वि	-11.9802
▁प्रबंधक	-11.9804
▁यूनियन	-11.9806
▁पड़ाव	-11.9808
▁पत्रकार	-11.9809
▁142	-11.9809
लन	-11.9814
▁नागर	-11.9818
रंगा	-11.9823
▁सै	-11.9828
▁गवर्न	-11.983
▁ग्रामो	-11.9831
▁डायरेक्ट	-11.9833
▁राजनेता	-11.9835
धिकृत	-11.9835
द्योग	-11.9837
▁अभिनेत्री	-11.9838
▁अमेठी	-11.9838
▁आशय	-11.9838
▁कोरोनवायरस	-11.9838
▁बेतलेहेम	-11.9838
▁टर्नओवर	-11.9838
▁गीगावाट	-11.9838
▁पसीने	-11.9838
▁सम्मिलित	-11.9838
▁जीर्णोद्	-11.9838
▁बिज़नेस	-11.9838
ँ	-11.9838
▁सूअर	-11.9838
▁हथेलिय	-11.9838
▁नेत्रहीन	-11.9838
▁शाहजहाँ	-11.9838
▁सुनूंगा	-11.9839
▁हलचल	-11.9839
▁स्वच्छ्ता	-11.9839
▁दस्तावेज़	-11.9839
▁कगार	-11.9839
▁इन्फेक्शन	-11.9839
▁लगाएगा	-11.984
▁घूमना	-11.984
▁त्रासद	-11.984
▁धागे	-11.984
फोलिय	-11.9841
▁ऊष्मायन	-11.9842
▁सिल्क	-11.9842
▁परम्परा	-11.9843
▁आचार	-11.9843
▁सीसीटीवी	-11.9844
▁भत्ता	-11.9844
▁पार्टनर	-11.9845
▁प्रोडक्ट	-11.9846
▁भत्ते	-11.9847
nic	-11.9848
▁कड़वा	-11.9851
▁हँसी	-11.9851
▁भगोड़े	-11.9851
▁चढ़ाते	-11.9852
▁सीएनजी	-11.9853
▁EPFO	-11.9853
▁पीवी	-11.9855
▁चमड़े	-11.9855
▁निकालो	-11.9855
▁बरतने	-11.9855
▁निष्ठा	-11.9856
▁छत्र	-11.9857
▁पहना	-11.9858
▁कान्हा	-11.9858
▁प्रोजेक्ट्स	-11.986
▁CO	-11.9861
टा	-11.9865
▁सिलो	-11.9867
▁फर्मों	-11.9869
ेत	-11.9869
भरे	-11.9871
▁18,000	-11.9873
▁(2)	-11.9873
▁स्टडी	-11.9877
मार	-11.9877
▁m	-11.9879
▁यूटी	-11.9881
▁प्राधिकरणों	-11.9884
सिस	-11.9891
31	-11.9895
26	-11.9901
▁यो	-11.9906
हे	-11.9922
▁जीना	-11.9922
11	-11.9925
▁बाह	-11.9926
▁सेनानी	-11.9938
▁आईडी	-11.9951
▁अर्	-11.9958
61	-11.996
▁अन्त	-11.9969
भुगतान	-11.9982
▁360	-11.9987
इयों	-11.9992
▁सीर	-12.0001
▁कक्षों	-12.0002
मल	-12.003
▁अनूठ	-12.0035
▁पुस्तकालय	-12.0039
▁आर्टिफ	-12.004
▁2020)	-12.0045
स्ट्रीम	-12.0065
▁न्यूज	-12.0067
▁किश्त	-12.0067
▁नम्र	-12.0071
▁2017)	-12.0071
▁आयुर्	-12.0072
▁सम्पूर्ण	-12.0074
▁एग्रीकल्चर	-12.0076
▁पौलुस	-12.0076
▁बोधगया	-12.0076
▁सर्वसम्मति	-12.0076
▁स्क्वाड्रन	-12.0076
▁अल्मोड़ा	-12.0076
▁प्रत्यर्पण	-12.0076
▁रेस्तराँ	-12.0076
▁बरूच	-12.0076
▁बेशक	-12.0076
▁मकाऊ	-12.0076
▁व्यथित	-12.0076
▁धाबी	-12.0076
▁क्वांटम	-12.0076
▁अफेयर्स	-12.0076
▁चाबहार	-12.0076
▁रिज़र्व	-12.0076
▁साइरस	-12.0076
▁गधा	-12.0076
▁अदृश्य	-12.0077
▁संगति	-12.0077
▁प्रिंसिपल	-12.0077
▁संरेख	-12.0077
▁सहभाग	-12.0077
▁झाड़ियों	-12.0077
▁निभाएंगे	-12.0077
▁चाचा	-12.0078
▁प्रतिभागी	-12.0078
▁लगाऊंगा	-12.0078
▁शापान	-12.0078
▁पाएगा	-12.0078
▁सावधानीपूर्वक	-12.0079
▁सीढ़ी	-12.0079
▁छिपाया	-12.0079
▁प्रविष्टियों	-12.0079
▁किस्में	-12.0079
▁बिलासपुर	-12.008
▁ईसाई	-12.008
▁घटनाएं	-12.008
▁मनाओ	-12.008
▁साईं	-12.008
▁नरेंद्रमोदी	-12.0081
▁दिखाना	-12.0082
▁गाजियाबाद	-12.0082
▁डिमांड	-12.0082
▁सीआईआई	-12.0082
▁चौड़े	-12.0082
▁बलवान	-12.0082
▁टेक्नोलॉजीज	-12.0082
▁सीज़र	-12.0082
▁सिखाते	-12.0083
▁छठा	-12.0086
▁मीकायाह	-12.0089
▁शोधन	-12.0091
वाह	-12.0092
▁एआईआईबी	-12.0094
▁पहुँचना	-12.0095
▁लाइनें	-12.0095
मो	-12.0095
▁आत्माएं	-12.0097
बाय	-12.0097
▁पीर	-12.0097
▁मिटाने	-12.0099
▁लिफ्ट	-12.0099
बाएं	-12.0099
ब्रेकिंग	-12.0101
▁प्याल	-12.0108
▁चे	-12.0117
▁बज	-12.0119
▁नेटवर्किंग	-12.0119
▁स्टैच	-12.0124
▁तारे	-12.0127
▁पूजन	-12.0129
▁चलाना	-12.013
▁दावे	-12.0133
▁दायित्वों	-12.0135
AI	-12.0137
▁मुंडा	-12.0141
▁वीके	-12.0156
▁वीसी	-12.0156
फ़	-12.0158
▁पाक	-12.0159
▁चश्मे	-12.0163
▁गा	-12.0171
it	-12.0173
▁चीत	-12.0174
जय	-12.0175
वाली	-12.0177
▁नहा	-12.0181
▁मनमोह	-12.0181
बाल	-12.0182
1997	-12.0187
कुंड	-12.0191
▁बिछा	-12.0196
ातृत्व	-12.0202
ya	-12.0207
ुम	-12.021
▁मणि	-12.0212
▁चुनी	-12.0217
▁बंगाली	-12.0217
पोषण	-12.0222
▁फंस	-12.0223
लर्निंग	-12.0225
कुछ	-12.0226
DBT	-12.0232
उन	-12.0236
CM	-12.0242
▁112	-12.0243
▁मीरा	-12.0249
▁गाथ	-12.0249
नि	-12.0253
▁जलाए	-12.0258
▁जोखिमों	-12.0259
▁गिरि	-12.0261
▁भरकर	-12.0266
▁कण	-12.0267
साल	-12.028
-2019	-12.0287
▁बदनाम	-12.0292
ाती	-12.0293
▁यहु	-12.0294
▁IIM	-12.0299
▁दिव्यांगजन	-12.0303
▁लिखो	-12.031
्ण	-12.0311
▁टि	-12.0312
▁सां	-12.0314
▁इनिशिएटिव	-12.0316
▁कस्टम	-12.0317
▁फोटोग्राफ	-12.0317
▁नवीकरण	-12.0318
KISAN	-12.032
▁Google	-12.032
▁झारसुगुड़ा	-12.032
▁बिड़ला	-12.032
▁मिठाई	-12.032
▁मोजाम्बिक	-12.032
▁राँची	-12.032
▁एज्रा	-12.032
▁इंटर्नशिप	-12.032
▁फिनलैंड	-12.032
▁वेश्यावृत्ति	-12.032
अभिनय	-12.032
▁तात्कालिक	-12.032
▁पेचिश	-12.032
▁सामर्थ्य	-12.032
▁डेंगू	-12.032
▁प्रोस्टेट	-12.032
▁लंगड़ा	-12.032
▁रोपवे	-12.032
▁चढ़ाएगा	-12.032
▁पशुपतिनाथ	-12.0321
▁हिन्दू	-12.0321
▁लकवा	-12.0321
▁नातान	-12.0321
▁कार्यप्रणाली	-12.0321
▁चढ़ाओ	-12.0321
▁वायुमार्ग	-12.0321
▁प्लाजा	-12.0321
▁आवेदक	-12.0321
▁जाँघ	-12.0321
▁जेनेरिक	-12.0321
▁रोजमर्र	-12.0321
▁सलमान	-12.0321
▁आखिरकार	-12.0322
▁आओगे	-12.0322
▁लोकपाल	-12.0322
▁फॉरेस्ट	-12.0322
▁लाएगी	-12.0322
▁निकलेगा	-12.0322
▁पढ़ाया	-12.0322
▁विनाशकारी	-12.0323
▁गील	-12.0324
▁स्वप्न	-12.0324
▁FASTag	-12.0324
▁पर्दा	-12.0324
▁लहरें	-12.0324
▁वरना	-12.0324
▁दुल्हन	-12.0324
▁सामंजस्यपूर्ण	-12.0324
▁ग्रीवा	-12.0324
▁राज्यवर्धन	-12.0325
▁चारा	-12.0326
▁चूमा	-12.0326
▁ड्राफ्ट	-12.0326
▁सुल्तानपुर	-12.0326
▁जबलपुर	-12.0326
▁एक्जिम	-12.0328
▁डोरियों	-12.0329
▁कटरा	-12.0329
रणीय	-12.033
▁थिंग्स	-12.0331
▁मादा	-12.0331
▁एलियाह	-12.0332
▁श्यामा	-12.0334
▁इन्वेस्टर	-12.0334
▁स्विस	-12.0334
▁लाएँ	-12.0335
▁अपेक्षाओं	-12.0336
▁तृतीय	-12.0338
▁सीबीडीटी	-12.034
▁प्रोडक्शन	-12.034
▁पड़ना	-12.0341
.80	-12.0343
▁गिरी	-12.0346
36	-12.0346
▁एनआईसी	-12.0348
▁ऑनर	-12.0349
▁मूँग	-12.035
▁बर्फील	-12.0352
▁पीएमएवाई	-12.0353
ट्स	-12.0354
▁कूट	-12.0356
-13	-12.0356
▁6.	-12.0361
मोहन	-12.0368
▁फेयर	-12.0371
▁डाकघरों	-12.0372
▁सरलता	-12.0372
ढ़ा	-12.0376
▁हा	-12.0383
56	-12.0383
l	-12.0391
▁राजी	-12.0391
▁श्रीमान	-12.0394
▁पेशे	-12.0396
मुख	-12.0397
▁आईआईएम	-12.0398
▁नलिका	-12.0401
▁थाई	-12.0425
on	-12.0428
▁स्थली	-12.043
▁दशा	-12.0435
▁(14	-12.0436
.26	-12.0437
पुरुष	-12.044
▁रिक्त	-12.0444
▁रेस	-12.0448
▁जोन	-12.0458
▁प्रेरणादाय	-12.046
▁अन्न	-12.0466
▁(2	-12.0468
▁हरसि	-12.0469
▁थक	-12.047
IFFI	-12.0476
इस्राएल	-12.0476
तुम्हारे	-12.0476
मिशन	-12.0477
सुरक्षा	-12.0479
तब	-12.0483
▁निकाले	-12.0483
▁रिमो	-12.0485
▁पालक	-12.049
▁7000	-12.0496
▁चिपक	-12.0497
▁अनुशंस	-12.05
इंग	-12.05
▁कृष्णा	-12.0501
ऊ	-12.0507
▁प्रभा	-12.051
स्	-12.0511
▁सेंक	-12.0517
ानंद	-12.0518
▁श्रवण	-12.0528
डान	-12.0529
▁डाइ	-12.0532
ah	-12.0534
▁अधूर	-12.0539
▁अभिमान	-12.0543
▁हाशिय	-12.0545
बाबा	-12.055
▁घिस	-12.0551
▁मोतियाबि	-12.0563
▁पेट्रोकेमिकल	-12.0567
▁टैप	-12.0569
▁ट्रैवल	-12.057
▁फ्लैग	-12.057
▁आरम्भ	-12.057
▁थॉमस	-12.057
▁धोखाधड़ी	-12.057
▁नालंदा	-12.057
▁प्रांगण	-12.057
▁रहस्योद्घाटन	-12.057
▁राठौड़	-12.057
▁सामग्रियों	-12.057
▁खजूर	-12.057
▁पुनर्चक्रण	-12.057
▁फर्नीचर	-12.057
▁वाष्प	-12.057
▁संपार्श्विक	-12.057
▁सघन	-12.057
▁अजगर	-12.057
▁ट्रिब्यूनल	-12.057
▁जेशुआ	-12.057
▁चित्रकूट	-12.057
▁राजभवन	-12.057
▁पैरामेडिक्स	-12.057
▁अपव्यय	-12.057
▁सुव्यवस्थित	-12.057
▁बंधुआ	-12.057
▁युवती	-12.057
▁बहुमुखी	-12.057
▁विचित्र	-12.057
▁पांडव	-12.057
▁स्वार्थ	-12.0571
▁कुटीर	-12.0571
▁बताएगा	-12.0571
▁बॉलीवुड	-12.0571
▁अनुपस्थिति	-12.0571
▁पंथ	-12.0571
▁Im	-12.0571
▁मनाएंगे	-12.0571
▁बेघर	-12.0571
▁सराहा	-12.0571
▁तंजानिया	-12.0571
▁घोघा	-12.0571
▁डायलिसिस	-12.0571
▁सब्जियां	-12.0571
▁इब्राहिम	-12.0571
▁तीर्थंकर	-12.0571
▁स्टूडियो	-12.0571
▁गिरफ्तार	-12.0571
▁आवृत्ति	-12.0572
▁1982	-12.0572
▁सिद्धि	-12.0572
▁जाएँगी	-12.0572
▁नौकरानी	-12.0572
▁अंकुर	-12.0572
▁मुखौटे	-12.0572
▁चित्रण	-12.0573
▁पक्षपात	-12.0573
▁क्षितिज	-12.0574
▁मारेंगे	-12.0574
एनएल	-12.0576
▁सॉफ्ट	-12.0576
▁समायोजन	-12.0577
▁लोशन	-12.0578
▁उन्नति	-12.0578
▁सौराष्ट्र	-12.0579
▁फोड़े	-12.0581
▁सैद्धा	-12.0581
▁पूछता	-12.0582
▁वाइन	-12.0582
▁इंच	-12.0583
▁जेएनपीटी	-12.0586
▁कोचीन	-12.059
▁USD	-12.0592
▁पहनें	-12.0593
▁फेज	-12.0597
ौ	-12.0599
▁प्रतियोगिताओं	-12.0601
नादाब	-12.0604
लाक	-12.0608
14	-12.061
▁मुल	-12.061
▁उम्मीदें	-12.0614
▁तंग	-12.0617
▁84	-12.0618
▁शीलो	-12.0626
▁पहुँचाता	-12.0628
▁दरें	-12.0628
▁कुण्ड	-12.0629
▁लॉग	-12.063
र्क	-12.0633
बाएँ	-12.0633
▁चीर	-12.0636
-10	-12.064
▁हीथ	-12.0643
डो	-12.065
1999	-12.0661
.77	-12.0663
झिल्ली	-12.0664
60	-12.0666
▁श्याम	-12.0668
▁घेरे	-12.0672
▁दा	-12.0687
▁ओग	-12.0689
▁संघर्षों	-12.0692
वास	-12.0693
ly	-12.0703
55	-12.0705
▁टु	-12.0717
कसद	-12.0718
▁जमाने	-12.0728
थित	-12.0728
▁समझे	-12.0728
MoHF	-12.0731
एदोम	-12.0732
सीओवीआईडी	-12.0732
शुल्क	-12.0732
सामाजिक	-12.0732
अभी	-12.0732
उत्पादन	-12.0732
▁मैसे	-12.0736
27	-12.0738
िधि	-12.0739
पात	-12.0747
▁पिछड़	-12.0754
▁पीक	-12.0755
ेरा	-12.0755
गिरी	-12.0757
▁हक	-12.0764
▁ट्री	-12.0766
▁108	-12.0767
▁टॉप	-12.0767
▁नं	-12.0769
▁गनी	-12.0771
िराज	-12.0773
▁लव	-12.078
▁बूँदे	-12.0786
84	-12.0787
▁Na	-12.0795
600	-12.0795
टिक	-12.0796
▁एफएम	-12.0804
▁जलीय	-12.0808
▁बिगाड़ने	-12.081
निद्रा	-12.0813
▁तैल	-12.0826
▁ब्रॉड	-12.0826
▁रीयल	-12.0826
▁धुआं	-12.0826
▁विकिरण	-12.0826
▁सांत्वना	-12.0826
▁साइप्रस	-12.0826
▁उज्बेकिस्तान	-12.0826
▁कोणार्क	-12.0826
▁धकेल	-12.0826
▁बुग्याल	-12.0826
अमरकंट	-12.0826
▁नैरोबी	-12.0826
▁ज़्यादा	-12.0827
▁निलंबित	-12.0827
▁अहज्याह	-12.0827
▁तारिणी	-12.0827
▁छत्रपति	-12.0827
▁नौकायन	-12.0827
▁ट्रैक्टर	-12.0827
नाओमी	-12.0827
▁दिवालियापन	-12.0827
▁सोमनाथ	-12.0827
▁अनुवर्ती	-12.0827
▁मानचित्रण	-12.0827
▁उत्तेजना	-12.0827
▁अधीनस्थ	-12.0827
एलडब्ल्यूई	-12.0827
▁निडर	-12.0827
▁जोड़ेगा	-12.0828
▁1988	-12.0828
▁तीर्थस्थल	-12.0828
▁अयस्क	-12.0828
▁शल्लूम	-12.0828
▁गगनयान	-12.0828
▁पदोन्नति	-12.0828
▁एनिमेशन	-12.0828
▁माल्टा	-12.0828
▁प्रमाणीकरण	-12.0828
▁सरस्वती	-12.0828
▁पीपुल्स	-12.0828
▁रखेगी	-12.0829
▁अभिव्यक्तियों	-12.0829
▁रबर	-12.0829
▁मूर्खतापूर्ण	-12.083
▁नहर	-12.083
▁पूछना	-12.083
▁अनुरेखण	-12.083
▁आईआरसीटीसी	-12.083
▁नाबार्ड	-12.083
▁कैप्टन	-12.0831
▁डार्ट	-12.0831
▁तबाह	-12.0831
▁गरज	-12.0832
▁रायगढ़	-12.0832
ड्रिप	-12.0833
▁कामयाब	-12.0833
मार्केटिंग	-12.0834
▁एनसीआर	-12.0834
▁हाइब्रिड	-12.0835
▁मुड़कर	-12.0835
▁जिज्ञासा	-12.0836
▁प्रदाह	-12.0836
▁सिक्का	-12.0836
▁ताँब	-12.0837
▁नाविकों	-12.0838
▁चमड़ा	-12.0839
▁NHAI	-12.084
▁ब्रश	-12.0841
▁पहिलौठे	-12.0841
▁यंग	-12.0841
▁गाजा	-12.085
▁जकड़	-12.0852
▁वान	-12.086
▁क्रियाओं	-12.086
▁घेरा	-12.0863
▁उपहारों	-12.0869
.40	-12.087
▁रुके	-12.0872
▁समर्थकों	-12.0873
▁फुंस	-12.0875
्वा	-12.0875
.94	-12.0882
ैट	-12.0882
सटे	-12.089
▁जेट	-12.0894
ेय	-12.0894
49	-12.0895
टल	-12.0896
▁अन्तर	-12.0896
▁फे	-12.0896
▁जानती	-12.09
▁79	-12.0901
▁तैर	-12.0902
▁गिरती	-12.0903
ौंग	-12.0903
▁ध	-12.0905
▁खानों	-12.0906
▁चूक	-12.0907
▁प्रक्षेपव	-12.0908
▁पल्स	-12.0909
ेआम	-12.0927
▁रीवा	-12.0932
ां	-12.0932
ery	-12.0933
82	-12.0935
राइट	-12.0938
र्न	-12.094
तों	-12.0943
▁जली	-12.0943
▁इम	-12.0946
फाई	-12.0949
बो	-12.095
▁डीसी	-12.0954
िस्ट	-12.0959
धारी	-12.0961
ूनी	-12.0962
um	-12.0963
▁डाय	-12.0972
▁डिस्	-12.0979
ेद	-12.0981
▁ज्ञापनों	-12.0983
▁ग्रंथ	-12.0993
तरीकों	-12.0995
आसियान	-12.0995
▁मैल	-12.0995
इ	-12.0997
मेरा	-12.1002
▁चार्ट	-12.1009
▁कुश	-12.1017
▁स्टाल	-12.1025
लोन	-12.103
▁सर्वो	-12.1034
ऑन	-12.1046
▁यान	-12.1051
.35	-12.1052
▁समकक्ष	-12.1054
▁एथलीट	-12.1056
आईएसए	-12.1059
गेट	-12.106
▁जंग	-12.1064
सु	-12.1066
▁190	-12.1067
▁ढूंढ	-12.1068
▁शल्य	-12.1075
.48	-12.1079
▁मधु	-12.1082
▁कैंडलस्टिक	-12.1086
▁डायग्नोस्टिक	-12.1088
▁डच	-12.1089
▁उष्णकटिबंध	-12.109
▁खज़ाने	-12.109
▁गूंज	-12.109
▁टाँग	-12.109
▁नैसर्गिक	-12.109
▁पूंछ	-12.109
▁बच्चन	-12.109
▁बहुपक्षवाद	-12.109
▁बीकानेर	-12.109
▁महानिदेशालय	-12.109
▁साप्ताहिक	-12.109
▁स्त्रियाँ	-12.109
▁हिब्रू	-12.109
▁ओबद्याह	-12.109
▁रवैय	-12.109
▁एकाउंटेंट	-12.109
▁ऑस्कर	-12.109
▁महँग	-12.109
▁एविएशन	-12.109
▁हाबिल	-12.109
▁ख्याति	-12.109
▁एयरलाइंस	-12.109
▁प्रमोशन	-12.109
▁रोचक	-12.109
▁वृद्धावस्था	-12.109
▁सोलीह	-12.109
▁सीआरपीएफ	-12.109
▁अनुक्रम	-12.109
▁अपर्याप्त	-12.109
▁कारखाना	-12.109
▁छावनी	-12.109
▁टापू	-12.109
▁सजावट	-12.109
▁विचरण	-12.109
▁नाबाल	-12.109
▁आवश्यकतानुसार	-12.109
▁डेवलपर्स	-12.109
▁विविधीकरण	-12.1091
▁दरगाह	-12.1091
▁अँगूठ	-12.1091
▁एवीएसएम	-12.1091
▁कुमाऊँ	-12.1091
▁मानकीकरण	-12.1092
▁शूट	-12.1092
▁रेस्तरां	-12.1092
▁गांधीवादी	-12.1093
▁विष	-12.1093
ताल	-12.1093
▁पेट्रोकेमिकल्स	-12.1093
w	-12.1095
संक्रांति	-12.1096
▁रोमानिया	-12.1096
▁IRCTC	-12.1096
▁अस्थिरता	-12.1096
▁ताज़ा	-12.1096
▁दशहरा	-12.1097
▁जनपद	-12.1099
▁पतले	-12.1099
▁जॉब	-12.11
▁IN	-12.11
▁अम	-12.11
▁will	-12.1101
िला	-12.1102
▁झाँकी	-12.1103
▁मेह	-12.1103
▁चिड़चिड़ा	-12.1104
▁बालिका	-12.1107
▁भगत	-12.1107
▁संचयन	-12.1107
▁दरार	-12.1109
▁पहुंचाई	-12.1109
▁वैल्यू	-12.111
▁बुलाने	-12.111
▁कड़व	-12.1114
▁ऊ	-12.1115
▁समुद्रतट	-12.1117
▁लेगी	-12.1123
▁डिज	-12.1126
▁खाकर	-12.113
▁एर	-12.113
नारायण	-12.1139
प्रसार	-12.1146
▁नॉर्	-12.1149
▁बीआर	-12.115
am	-12.1151
▁क्लाइम	-12.1151
▁विफलता	-12.1151
▁कूद	-12.1155
▁MoC	-12.1157
▁सुनीं	-12.1168
▁कैसर	-12.1179
स्थापित	-12.1179
मोन	-12.1183
▁गुनगुन	-12.1187
यन	-12.1188
डोनिय	-12.1193
▁लार	-12.1195
▁बागे	-12.1197
ांश	-12.1199
▁विद	-12.1204
शी	-12.1204
▁स्ट्राइक	-12.121
िद	-12.121
▁मिलें	-12.1211
लिटी	-12.1222
▁प्रोफाइल	-12.1223
शिक्षक	-12.1225
तरह	-12.1235
▁d	-12.1238
▁सतहों	-12.1244
▁तर	-12.1245
▁छोड़ता	-12.1252
▁छोट	-12.1254
▁फर्म	-12.1255
▁दाद	-12.1259
▁संदर्भित	-12.1262
वित्त	-12.1262
योजना	-12.1265
उन्मुख	-12.1265
अफ्रीका	-12.1266
चक्र	-12.1267
धर	-12.1268
MSME	-12.1271
▁साइ	-12.1277
पीडीएस	-12.1283
▁एरो	-12.129
▁लेटा	-12.1299
▁आयोजनों	-12.1303
निधियों	-12.1305
▁सेठ	-12.1312
▁सहनशील	-12.1316
▁अंगूठ	-12.1332
▁आबाद	-12.1338
बंद	-12.1347
▁उज्जवल	-12.135
ोनिया	-12.1351
▁प्रह	-12.1353
▁एग्री	-12.1359
▁धोखे	-12.136
▁Delhi	-12.136
▁अबीगैल	-12.136
▁उद्गम	-12.136
▁क्रिसमस	-12.136
▁तपेदिक	-12.136
▁पोरबंदर	-12.136
▁राजपक्षे	-12.136
▁हिरासत	-12.136
▁ह्यूस्टन	-12.136
▁अजूब	-12.136
▁थावरचंद	-12.136
▁सीबीएसई	-12.136
▁एंड्रयू	-12.136
▁ऊतक	-12.136
▁लैंप	-12.136
▁लिनेन	-12.136
▁शिलालेख	-12.136
▁बराक	-12.136
▁विडोडो	-12.136
▁पदचिह्न	-12.136
▁पलायन	-12.136
▁पर्यवेक्षण	-12.136
▁पुनर्विकास	-12.136
▁एनआईटीआई	-12.136
▁कट्टरता	-12.136
▁देवदूत	-12.136
▁सप्लाई	-12.136
▁आत्मानिभर	-12.136
▁दिखाएंगे	-12.136
डोनाल्ड	-12.136
▁कहानियाँ	-12.136
▁लोथल	-12.136
▁सहारे	-12.136
▁भुनाया	-12.1361
▁हाइपर	-12.1361
▁उठाऊंगा	-12.1361
▁वार्मिंग	-12.1361
▁कदेश	-12.1361
▁चुनेगा	-12.1361
▁सतीश	-12.1361
▁पाषाण	-12.1361
▁सिंदरी	-12.1361
▁बैलेंस	-12.1361
▁ऋषिकेश	-12.1361
▁भेजेगा	-12.1362
▁लगाएंगे	-12.1362
▁झांसी	-12.1362
▁रूपांतरण	-12.1362
▁निकालूंगा	-12.1362
▁लीडर्स	-12.1362
▁सुन्न	-12.1362
▁महाभारत	-12.1363
▁चेले	-12.1363
▁खबरें	-12.1364
▁फ्रेट	-12.1365
63	-12.1366
▁नंगा	-12.1367
▁कल्चर	-12.1367
▁रिज़	-12.1367
▁चलेगी	-12.1367
▁कैडेट्स	-12.1368
▁Central	-12.1369
▁विदाई	-12.1369
▁आरई	-12.137
िष्ठ	-12.1371
▁ट्यूब	-12.1371
▁was	-12.1372
▁पतन	-12.1372
▁कनानियों	-12.1374
▁रोमन	-12.1375
▁पर्यवेक्षकों	-12.1377
▁प्रशिक्षकों	-12.1377
▁देंगी	-12.1377
▁कैमरे	-12.1378
▁पंजे	-12.1378
लैटिन	-12.1378
▁एनसीडीसी	-12.138
▁विवाहित	-12.1382
▁हाम	-12.1382
▁वैष्णव	-12.1382
▁डीपीआर	-12.1382
▁हरि	-12.1383
▁विधायकों	-12.1383
▁उठाएँ	-12.1386
▁छुड़ाने	-12.139
▁s	-12.1396
▁दिव	-12.1398
.27	-12.1399
▁मान्यताओं	-12.1403
▁नीलम	-12.1411
▁प्रतिरोधी	-12.1417
राजा	-12.142
▁ii	-12.1421
फी	-12.1427
▁ग्रस	-12.1432
▁व्यू	-12.1439
▁डॉक	-12.1446
ऊंगा	-12.1447
र्ड	-12.1455
▁खींची	-12.1456
▁तालाबों	-12.1467
▁शी	-12.147
70	-12.1471
▁डुबो	-12.1478
▁खोलत	-12.148
▁मालिकों	-12.1488
▁आधुनिकता	-12.1489
▁होस्ट	-12.149
क्रय	-12.1503
किसान	-12.1504
देह	-12.151
▁सास	-12.1516
▁दाम	-12.1518
▁नाच	-12.154
निश्चित	-12.154
ग्रेड	-12.1542
पश्चात	-12.1543
पीछे	-12.1543
बिजली	-12.1544
47	-12.1548
क्षेत्रीय	-12.1552
जोड़	-12.1552
▁बर	-12.1556
har	-12.1566
एसआर	-12.1567
66	-12.157
pur	-12.1578
▁स्	-12.1579
▁संग्रहालयों	-12.1582
▁मेढ़	-12.1583
▁व्हील	-12.1588
as	-12.1591
▁सुने	-12.1593
▁फ़	-12.1603
▁गोदाम	-12.1603
मरत	-12.1604
▁लालच	-12.1604
दाश्त	-12.1608
छिपी	-12.1615
▁पखवाड़	-12.1623
▁तरस	-12.1628
▁एड	-12.1629
▁संप्रभु	-12.1632
▁बंकर	-12.1635
ात्मा	-12.1635
▁Kumar	-12.1638
▁निपुण	-12.1638
▁प्रसाधन	-12.1638
▁स्लॉट	-12.1638
▁फैमिली	-12.1638
▁युक्तिकरण	-12.1638
▁बूथ	-12.1638
▁हास्य	-12.1638
▁जमशेदपुर	-12.1638
▁by	-12.1638
▁फ्लैगशिप	-12.1638
▁मेरिट	-12.1638
▁डिस्टेंसिंग	-12.1638
▁हस्तकला	-12.1638
▁GSTR	-12.1638
▁बदतर	-12.1638
▁स्कर्ट	-12.1638
वाड़ा	-12.1638
▁पक्षाघात	-12.1638
▁भुलाया	-12.1638
▁एसएमएस	-12.1638
▁खतनारहित	-12.1638
▁पोशन	-12.1638
▁वारिस	-12.1638
▁एंटीजन	-12.1638
▁खुलेंगे	-12.1638
▁कृतज्ञता	-12.1639
वेंडर	-12.164
▁शक्तियां	-12.164
▁शरणार्थियों	-12.164
▁पूज्य	-12.1641
▁वाशिंगटन	-12.1642
▁शाखाएँ	-12.1642
▁सोर्सिंग	-12.1643
▁अर्थशास्त्रियों	-12.1643
▁श्रीपद	-12.1644
▁संतृप्त	-12.1644
▁आरपीएफ	-12.1645
▁सपोर्ट	-12.1646
▁कली	-12.1646
▁सूरी	-12.1646
▁आईटीबीपी	-12.1647
▁सुई	-12.1648
▁पैदावार	-12.1649
▁रामोथ	-12.1649
▁UPSC	-12.165
▁एसबीएम	-12.165
तामार	-12.165
▁बाँस	-12.1651
▁हँसने	-12.1652
▁उपनगरीय	-12.1655
▁महापुरुषों	-12.1656
▁विलंब	-12.1659
▁पीएमजीएसवाई	-12.1661
▁बाथ	-12.1662
▁नवरात्र	-12.1664
▁वसुधैव	-12.1669
▁दिग्गजों	-12.167
com	-12.1671
▁रोपण	-12.1672
▁गोदामों	-12.1673
▁ऊनी	-12.1673
▁मस्स	-12.1675
▁शीघ्रता	-12.1678
▁प्रदर	-12.1679
▁NDRF	-12.1682
▁दंत	-12.1684
▁पार्किंग	-12.1685
▁स्टीफ	-12.1685
ब्यू	-12.1686
▁अलं	-12.169
▁प्यासा	-12.1693
▁पारस्परिकता	-12.1696
▁चढ़ाए	-12.1697
▁कॉम	-12.1698
ोंग	-12.1701
ोज	-12.1703
▁आंत	-12.1705
▁तस्वीरों	-12.1707
उस	-12.1709
नो	-12.1711
▁सक	-12.1712
▁जाहिर	-12.1713
.46	-12.1714
▁बोरी	-12.1715
▁चमकने	-12.1718
DA	-12.172
ाइजेशन	-12.1721
▁उरी	-12.1725
▁बीड़	-12.1728
ियत	-12.1729
▁DST	-12.1729
▁ट्रेनर	-12.1733
▁धोएँ	-12.1735
▁प्रस्तुतियों	-12.1735
37	-12.1736
▁लगाती	-12.1737
▁11.	-12.1738
.62	-12.174
▁उभरे	-12.1745
▁नादाब	-12.1746
▁मिड	-12.1746
ail	-12.1748
▁विद्यालयों	-12.1751
▁बढ़ें	-12.1753
▁स्केल	-12.1756
लाई	-12.1758
▁सौंपे	-12.1774
▁कीड़ा	-12.1781
ांग	-12.1783
▁240	-12.179
ation	-12.179
▁अंडा	-12.1791
PCR	-12.1795
वासियों	-12.1797
▁बंगल	-12.1797
▁135	-12.1807
.04.20	-12.1808
▁उतरा	-12.1809
51	-12.1816
.45	-12.1817
स्वच्छ	-12.182
▁मुनि	-12.1821
▁पुत्रियों	-12.1822
काय	-12.1823
▁are	-12.1826
ॉल्ट	-12.1827
▁247	-12.184
ॉटन	-12.184
उसने	-12.1843
▁एसई	-12.1849
कांत	-12.1851
II	-12.1855
▁नम	-12.1858
▁CII	-12.186
ंज	-12.187
▁अटक	-12.1877
▁कैल	-12.1878
केश	-12.188
पर्य	-12.1884
लिस	-12.1885
खंड	-12.1885
▁170	-12.1888
▁चमड़	-12.1888
▁अप्र	-12.1889
▁कार्यस्थल	-12.1891
▁नागा	-12.1893
▁सूँघ	-12.1895
▁एडवांस	-12.1895
▁अस्थिर	-12.1896
दास	-12.1896
▁पंक्तिय	-12.191
CII	-12.1911
▁नस्ल	-12.1916
▁10.	-12.1921
▁तालिका	-12.1921
▁जागृत	-12.1923
▁नवोद	-12.1923
▁कैप्चर	-12.1923
▁ज़िम्मेदार	-12.1923
▁टोक्यो	-12.1923
▁डेजर्ट	-12.1923
▁फड़नवीस	-12.1923
▁शरद	-12.1923
▁हतोत्साहित	-12.1923
▁हेपेटाइटिस	-12.1923
▁क्राइस्ट	-12.1923
▁मिर्गी	-12.1923
▁यरीहो	-12.1923
गिर्द	-12.1923
▁पीकॉक	-12.1923
▁त्रस्त	-12.1923
▁बरबस	-12.1923
▁इंश्योरेंस	-12.1923
▁गरुड़	-12.1923
एसडीआरएफ	-12.1923
▁एमोरियों	-12.1923
▁भरोसेमंद	-12.1923
▁कबूल	-12.1924
▁लोबान	-12.1924
▁बछिया	-12.1924
▁राजधानियों	-12.1924
▁दिखाऊंगा	-12.1924
▁निर्जन	-12.1924
▁ग्रीक	-12.1924
▁राहुल	-12.1924
▁आईएमडी	-12.1924
▁माउंटेन	-12.1924
▁सिखाओ	-12.1924
▁रामकृष्ण	-12.1924
▁दलदल	-12.1924
▁दर्रे	-12.1924
▁साम्हने	-12.1924
▁मनाएगा	-12.1924
▁दसवां	-12.1925
▁जन्मभूमि	-12.1925
▁अहिकम	-12.1925
▁सस्टेनेब	-12.1925
▁डिस्चार्ज	-12.1925
▁ड्रिंक	-12.1925
▁उपनिवेशवाद	-12.1925
▁स्थिरीकरण	-12.1925
▁लम्बाई	-12.1925
▁मुर्ग	-12.1926
▁मेधाव	-12.1926
▁विचलन	-12.1926
▁तालिकाओं	-12.1927
▁सहिष्णुता	-12.1927
▁अयोग	-12.1928
▁दुबई	-12.1928
▁जोकि	-12.1928
▁पतला	-12.1928
▁लिवर	-12.1929
▁अचल	-12.193
एपीएमसी	-12.1931
▁1956	-12.1931
▁जुर्माना	-12.1931
▁संरच	-12.1931
▁लोडिंग	-12.1932
▁आमाशय	-12.1932
▁खोदा	-12.1932
▁थैली	-12.1934
▁सौदा	-12.1936
▁In	-12.1936
▁पीएफ	-12.1937
▁सीएससी	-12.1937
▁ठिकानों	-12.194
.73	-12.1941
▁तराई	-12.1942
▁उतरते	-12.1942
▁निष्पक्षता	-12.1943
यी	-12.1947
▁c	-12.1948
▁मुड़ता	-12.1949
▁नॉर्वे	-12.1953
▁खाद्यान्नों	-12.1954
▁साधु	-12.1955
▁किलों	-12.1955
.6	-12.1964
▁ताप	-12.1969
▁एजेंटों	-12.1975
▁PMA	-12.1981
▁किरदार	-12.1984
▁तात्	-12.1984
▁कारों	-12.1996
▁चना	-12.1998
पोर्ट	-12.2001
िपिन	-12.2001
▁अमल	-12.2002
▁लॉस	-12.2004
प्रीति	-12.2006
▁भोग	-12.2008
▁खिंचा	-12.2015
▁उकसा	-12.2024
▁सती	-12.2026
▁गुर	-12.2026
गाते	-12.2032
lso	-12.2038
बड़ी	-12.2038
▁किशोरों	-12.2039
पल	-12.2042
ab	-12.2042
▁खरा	-12.2047
▁1.2	-12.2047
41	-12.2048
▁138	-12.2053
▁उज़	-12.2055
▁फै	-12.2059
▁जै	-12.2059
▁परम	-12.2062
लातुस	-12.2067
▁(30	-12.2068
▁खोलो	-12.207
ti	-12.2074
▁पोर	-12.2077
▁कन्	-12.2078
ाबाद	-12.208
▁स्पेश	-12.208
दीप	-12.2084
▁संचारी	-12.2085
▁आईं	-12.2086
वजन	-12.2086
▁झा	-12.2087
▁रेन	-12.209
खेत	-12.2096
58	-12.2097
▁t	-12.2101
▁v	-12.2105
वाना	-12.211
मीर	-12.2115
म्	-12.2115
89	-12.2118
प्रधान	-12.2122
DST	-12.2122
लिखित	-12.2123
मीडिया	-12.2124
मार्केट	-12.2126
गान	-12.2126
गैर	-12.2126
▁फेल	-12.2129
▁खरीदी	-12.213
टीय	-12.2131
गट	-12.2132
आत्मानिर्भर	-12.2134
▁पुनर्स्थाप	-12.2136
▁यूएन	-12.2143
▁मसा	-12.215
▁किश	-12.2153
▁श्रीमन	-12.2156
पुरी	-12.2157
चंद	-12.2172
▁8.	-12.2173
रम	-12.2175
▁मेहमान	-12.2183
▁मेमन	-12.2184
▁जैकेट	-12.2185
▁अल्पसंख्यकों	-12.219
▁CPSE	-12.2194
▁एलियास	-12.2196
▁घाटों	-12.2201
▁शोषित	-12.2201
▁103	-12.2202
▁पेन	-12.2204
▁जगा	-12.2204
▁शोल	-12.2209
▁उतरे	-12.2211
▁वैष्णो	-12.2211
india	-12.2212
मंत्रालयी	-12.2213
▁8000	-12.2215
▁अमालेक	-12.2215
▁छींक	-12.2216
▁एंटरटेनमेंट	-12.2218
▁जताया	-12.2218
▁भूकम्प	-12.2218
▁सीज़न	-12.2218
▁भैरव	-12.2218
▁असाहेल	-12.2218
▁साँप	-12.2218
▁गोबिंद	-12.2218
▁पैरामीटर	-12.2218
▁एमएचआरडी	-12.2218
▁नाश्ता	-12.2218
▁हनन्याह	-12.2218
▁रोबोटिक्स	-12.2218
▁सीनियर	-12.2218
▁मार्जिन	-12.2218
▁ठण्ड	-12.2218
▁आदित्यनाथ	-12.2218
▁उपचुनाव	-12.2218
▁सुदृढ़ीकरण	-12.2218
▁रिश्वत	-12.2218
▁नरेश	-12.2218
▁कलाकृतियों	-12.2218
टॉनिक	-12.2218
▁सांप	-12.2218
▁खासियत	-12.2218
▁कैंटीन	-12.2218
▁चौकोर	-12.2218
▁बस्त	-12.2218
▁मैसूरु	-12.2218
▁बोलेगा	-12.2219
▁महिमामंड	-12.2219
▁सारनाथ	-12.2219
▁यूफ्रेट	-12.2219
▁मिर्जापुर	-12.2219
▁बढ़ाऊंगा	-12.222
▁बूस्ट	-12.222
▁शर्तें	-12.222
▁ओरछा	-12.2221
▁अमालेकियों	-12.2221
▁पाँचवें	-12.2222
▁सचमुच	-12.2222
▁ट्रेसिंग	-12.2222
▁मिथक	-12.2222
िलाई	-12.2223
▁प्रोसेसिंग	-12.2224
▁अनदेख	-12.2224
▁जलियांवाला	-12.2225
▁निभाया	-12.2225
▁समेकन	-12.2225
▁लॉन्ग	-12.2225
▁किताबें	-12.2225
▁बैनर	-12.2227
▁डब्ल्यूसीडी	-12.2228
▁क्रूड	-12.2228
▁उठाईं	-12.223
▁गोपाल	-12.2231
▁स्तम्भ	-12.2233
ल्दी	-12.2234
▁क्षरण	-12.2234
▁कामगारों	-12.2234
▁डाकिया	-12.2234
▁भेजना	-12.2235
▁लेनदार	-12.2235
▁प्रक्रियाएं	-12.2235
▁एटीएम	-12.2235
▁समझो	-12.2238
माही	-12.224
▁अतिवाद	-12.224
▁बांट	-12.2242
▁एमडी	-12.2243
भरा	-12.2243
▁APT	-12.2243
▁पहुंची	-12.2246
▁वाघ	-12.2247
▁सूज	-12.2247
▁(10	-12.2249
ास्टर	-12.2249
▁उल्लू	-12.2251
▁प्रविष्टि	-12.2251
▁IPPB	-12.2251
ण्ड	-12.2251
▁पाय	-12.2251
▁पोंछ	-12.2255
जीईएम	-12.2255
la	-12.2259
64	-12.2261
ID	-12.2263
▁मु	-12.2264
▁झंडा	-12.2268
▁डो	-12.2271
▁दिव्यांगजनों	-12.2273
वां	-12.2274
▁पोर्ट्स	-12.2276
ोरा	-12.2276
▁तेजस	-12.2276
▁विनय	-12.2277
एंगे	-12.2277
फेर	-12.2282
▁बोल्ड	-12.2282
▁जागरण	-12.2286
▁पोस्टर	-12.2289
खा	-12.2293
▁पर्सन	-12.2296
िक्स	-12.23
चू	-12.2301
▁अरबी	-12.2305
▁स्वा	-12.2307
▁हेम	-12.231
▁कन	-12.2312
▁-17	-12.2315
किक	-12.2316
रों	-12.2319
▁अस	-12.2322
▁धमन	-12.2326
▁प्रदर्शनियों	-12.2343
▁बरामदे	-12.2354
▁घ	-12.2359
लग	-12.2376
.95	-12.2376
▁App	-12.2376
▁650	-12.2383
,400	-12.2393
माता	-12.2393
चा	-12.2394
ंगत	-12.2401
▁प्रतिभूतिय	-12.2403
▁चील	-12.2404
▁111	-12.2407
पुट	-12.2407
▁ऑ	-12.2411
जिंग	-12.2413
covid	-12.2421
▁ब्रह्मपु	-12.2422
▁यार्ड	-12.2423
प्रभु	-12.2426
ICMR	-12.2426
वापसी	-12.2426
वैज्ञानिक	-12.2426
पीपीई	-12.2426
परिषद	-12.2426
अप्रैल	-12.2426
बूटियों	-12.2426
▁ki	-12.2426
वीजा	-12.2428
▁हुय	-12.2437
▁ब्रह्मा	-12.2441
नयान	-12.2447
ोपैथी	-12.2452
ानों	-12.2454
पो	-12.2454
▁iii	-12.2458
▁1400	-12.2461
▁116	-12.2465
24	-12.2465
▁लड़ा	-12.2467
▁चिल्लात	-12.2469
▁नेवी	-12.2481
यिक	-12.2484
▁दिग्गज	-12.2485
▁अखबार	-12.2485
टिंग	-12.2491
▁साम	-12.2492
▁बेर	-12.2493
▁बेईमान	-12.2493
नम	-12.2494
▁नहान	-12.2494
▁वाट	-12.2499
▁डिश	-12.2499
▁तख्त	-12.2504
▁एशिय	-12.2506
▁जॉर्ज	-12.2506
मंड	-12.2511
▁चेंज	-12.2514
83	-12.2515
▁साउंड	-12.2519
वर्धित	-12.252
▁अतिशय	-12.2521
▁अलार्म	-12.2521
▁क्लीयरेंस	-12.2521
▁चापलूसी	-12.2521
▁टंडन	-12.2521
▁तरबूज	-12.2521
▁दूरदर्शिता	-12.2521
▁बवंडर	-12.2521
▁विज्ञप्ति	-12.2521
▁स्पर्धा	-12.2521
▁दांव	-12.2521
▁नैपकिन	-12.2521
▁स्पाइसजेट	-12.2521
▁इंडिगो	-12.2521
▁जुलूस	-12.2521
▁डिपार्टमेंट	-12.2521
▁ओएनजीसी	-12.2521
▁एकेडमी	-12.2521
▁धुएँ	-12.2521
▁अलर्ट	-12.2521
▁अगुव	-12.2521
▁कालातीत	-12.2521
▁वाइल्ड	-12.2521
▁रिसॉर्ट	-12.2521
गुलमर्ग	-12.2521
▁दिखाएगा	-12.2521
▁बिठाया	-12.2521
▁रियलिटी	-12.2521
▁अप्रत्याशित	-12.2521
▁लहू	-12.2522
▁बचाऊंगा	-12.2522
▁बैंकॉक	-12.2522
▁दिखाओ	-12.2522
▁फुटेज	-12.2522
▁रेजिमेंट	-12.2522
▁स्वैप	-12.2522
▁1971	-12.2522
▁ट्रांसजेंडर	-12.2522
▁तलाक	-12.2522
▁शक्कर	-12.2522
▁मुखौटा	-12.2523
▁जूनियर	-12.2523
▁इनसॉल्वेंसी	-12.2523
▁मकबरा	-12.2523
▁सौदे	-12.2523
▁1961	-12.2523
▁डालूंगा	-12.2523
▁सुधर	-12.2523
FORM	-12.2523
▁स्कूटर	-12.2523
▁बनर्जी	-12.2524
▁दिवाल	-12.2525
▁पैड	-12.2525
▁चेकअप	-12.2525
▁वैद	-12.2525
▁एयरलाइन	-12.2525
▁प्रवीण	-12.2525
▁फरीदाबाद	-12.2525
▁हार्डवेयर	-12.2525
▁अनैतिकता	-12.2525
▁डेस्टिनेशन	-12.2526
▁कलाकृति	-12.2527
▁धब्बे	-12.2528
▁with	-12.2528
▁टैबलेट	-12.2528
▁मंत्रि	-12.2529
▁उतरना	-12.2529
▁दोहरी	-12.2529
▁हैंडलिंग	-12.253
▁वंदना	-12.2531
▁आर्ट्स	-12.2531
▁प्रविष्ट	-12.2532
▁अपत	-12.2534
▁बढ़ाएं	-12.2534
AP	-12.2534
▁भागते	-12.2534
▁ब्रेन	-12.2534
▁अमृत	-12.2535
▁एफटीआईआई	-12.2537
43	-12.2538
▁टेस्टिंग	-12.2538
नाह	-12.2539
▁सत्रह	-12.2539
▁फैलाना	-12.254
▁अदम	-12.254
38	-12.2543
▁अधूरा	-12.2544
▁कॉर्निय	-12.2544
▁कसरत	-12.2547
▁इंतजाम	-12.2548
▁प्रचलन	-12.2549
▁Ram	-12.2551
▁नग	-12.256
▁आवश्यकताएं	-12.2563
▁मॉडलिंग	-12.2565
▁बहू	-12.257
▁सुनामी	-12.2571
▁पहचानना	-12.2572
▁गुरुओं	-12.2576
▁अस्त	-12.2576
▁मिन	-12.2577
▁पहिया	-12.2578
जोर	-12.2582
.24	-12.2586
तिस्पर्धात्मकता	-12.26
▁बिताए	-12.2611
हराने	-12.2613
▁संदेशों	-12.2615
SAT	-12.2621
▁जुटा	-12.2622
▁रिज	-12.2623
फर्क	-12.2634
▁बरस	-12.2634
▁104	-12.2638
▁रिम	-12.2639
▁पिलान	-12.2642
▁कटे	-12.2646
▁पन	-12.2653
ac	-12.2653
▁कर्मी	-12.2655
▁नाय	-12.2656
▁मिल्क	-12.2656
▁आंग	-12.2671
सान	-12.2673
▁मानें	-12.2674
▁बादशाह	-12.2674
▁एनपीए	-12.2676
▁1600	-12.2677
▁जानें	-12.2681
▁लिआ	-12.2684
▁मिसा	-12.2686
▁280	-12.2686
▁क्यू	-12.2686
षण	-12.269
तंत्र	-12.2691
िट	-12.2693
▁मिलान	-12.2693
GS	-12.2699
पैर	-12.2703
▁शेम	-12.2705
1989	-12.2708
रोधी	-12.2713
किंग	-12.2716
▁iv	-12.2725
तिरंगा	-12.2729
▁DA	-12.273
▁मैच	-12.2732
बिरंग	-12.2737
रिक्शा	-12.2738
▁चंब	-12.2738
CSIR	-12.2738
याहवे	-12.2739
विकास	-12.2741
▁(15	-12.2743
el	-12.2743
मानना	-12.2745
▁रतन	-12.2746
▁सम्बन्ध	-12.2746
कानूनी	-12.2749
रानी	-12.2753
▁सैनिट	-12.2755
▁हिमा	-12.2756
▁बैठी	-12.2761
.64	-12.2762
▁लॉन	-12.2763
80	-12.2768
▁पकड़े	-12.2773
▁रॉय	-12.2779
▁कांत	-12.2781
▁चर्चों	-12.2782
▁पीट	-12.2784
.92	-12.2789
▁राजपूत	-12.2793
▁तहसील	-12.2793
▁ओटी	-12.2796
▁बुलेटिन	-12.2796
▁शोभा	-12.2798
▁जादूगर	-12.2798
▁परिजन	-12.2799
▁मानवाधिकार	-12.2799
▁बंध	-12.28
▁अनुयाय	-12.2806
▁यूनान	-12.2806
▁स्वदेश	-12.2807
▁चेहर	-12.2807
▁चित्रकार	-12.2817
▁बैठें	-12.2819
मोद	-12.282
ेंट्स	-12.2826
लोक	-12.2826
▁बि	-12.2829
▁जहर	-12.2831
ॉल्यूशन	-12.2832
कोरिया	-12.2833
▁व्लादि	-12.2833
CBDT	-12.2833
▁कवायद	-12.2833
▁जमैका	-12.2833
▁पठार	-12.2833
▁यूनिसेफ	-12.2833
▁बदमाश	-12.2833
▁सिंड्रोम	-12.2833
▁चौहान	-12.2833
▁ओबामा	-12.2833
▁प्रायद्वीप	-12.2833
▁दुर्गंध	-12.2833
चमोली	-12.2833
▁चाइल्ड	-12.2833
▁खाताधारक	-12.2833
▁खिड़कियां	-12.2833
▁एचआईवी	-12.2833
▁मिस्पा	-12.2833
▁स्ट्रेटेज	-12.2833
चुअल	-12.2833
▁मशाल	-12.2833
▁शनि	-12.2833
सीएपीएफ	-12.2833
▁स्थानांतरण	-12.2834
▁मालवाहक	-12.2834
▁लड़ेंगे	-12.2834
▁अपरिहार्य	-12.2834
▁नीनवे	-12.2834
▁पागलपन	-12.2834
▁स्वदेशीकरण	-12.2835
▁संज्ञान	-12.2835
▁विदर्भ	-12.2835
▁संकीर्ण	-12.2835
▁नुक्कड़	-12.2835
▁कैंट	-12.2835
▁1951	-12.2835
▁बहरे	-12.2835
गाजीपुर	-12.2837
▁एंटरप्रेन्योर	-12.2838
▁नॉलेज	-12.2838
▁सम्पदा	-12.2838
▁असेंबली	-12.2838
▁हिल्कियाह	-12.2838
डिनर	-12.2838
▁जाइए	-12.2838
▁अक्षर	-12.2839
▁1990	-12.2839
पोटाश	-12.284
▁शाकाहार	-12.284
▁भुला	-12.2841
▁हत्यारे	-12.2842
▁उल्टा	-12.2842
▁मुड़ें	-12.2843
टेड	-12.2843
▁चौंका	-12.2843
▁चूल्ह	-12.2844
▁आरसीएफ	-12.2844
▁सैन	-12.2844
▁विलेज	-12.2844
▁व्यस्तता	-12.2846
▁ख़ुशी	-12.2847
▁यूजीसी	-12.2848
▁लेबर	-12.2848
▁रूबेनियों	-12.2848
▁सँकर	-12.2848
▁मास्को	-12.2848
▁जौंग	-12.2849
▁बत्तीस	-12.2849
▁समयसीमा	-12.2849
▁बंगला	-12.285
▁पकड़ना	-12.285
▁सिक्के	-12.2851
▁ICU	-12.2851
▁ओसीआ	-12.2852
▁मानती	-12.2853
▁गोर	-12.2854
▁आईटीआई	-12.2855
▁शिल्पकारों	-12.2856
▁वाकिफ	-12.2856
▁बची	-12.2856
▁12,000	-12.2856
▁हीरा	-12.2857
▁माइन	-12.2858
हाई	-12.2859
.13	-12.286
▁देयता	-12.286
▁सितारा	-12.2864
▁राष्ट्रपतियों	-12.2864
▁एनडीएमए	-12.2865
▁मौसमी	-12.2866
▁1.1	-12.2866
▁महेश	-12.2869
▁रास	-12.2872
▁डिक्र	-12.2874
▁वंशानु	-12.2877
▁रामपुर	-12.2878
▁वॉक	-12.288
पहले	-12.2883
▁यानि	-12.2883
▁बेसिक	-12.2883
▁झेल	-12.2884
▁चूसन	-12.2885
▁परंपरागत	-12.2886
▁9.	-12.2888
▁जाम	-12.289
कोर	-12.2892
▁घुमा	-12.2892
▁आज्ञाएँ	-12.2893
ियो	-12.2903
▁पत्तन	-12.2908
▁मुड़ा	-12.291
▁107	-12.2914
▁गाया	-12.2914
▁सीमाएँ	-12.2916
फाइनल	-12.2917
▁चु	-12.2918
▁समझाने	-12.2923
75	-12.2931
▁4-	-12.2943
▁पस	-12.2944
▁मोर्चों	-12.2944
▁खबरों	-12.2944
्रा	-12.2954
वात	-12.2955
▁भरना	-12.2957
▁मस्त	-12.2957
▁भली	-12.2958
यां	-12.296
▁वृत्तचित्रों	-12.2965
▁निगमों	-12.2967
▁सुजा	-12.2972
शान	-12.2973
गिरि	-12.2975
▁यूरो	-12.2977
▁डायर	-12.2983
िचाई	-12.2984
▁नावों	-12.2984
▁मेनक	-12.2984
▁सरसा	-12.2985
▁बेकर	-12.2987
▁मरते	-12.2988
लगाव	-12.2988
▁जानकार	-12.2988
स्व	-12.2994
▁106	-12.2995
Cs	-12.2996
▁हॉस्पिटल	-12.2996
▁चो	-12.2998
▁रोहता	-12.3009
िज्म	-12.301
▁तार्	-12.302
▁भीम	-12.3022
प्ले	-12.3025
रेड	-12.3025
▁समर	-12.3027
.22	-12.3028
▁प्राप्तकर्ता	-12.3031
▁पहुंचता	-12.3033
23	-12.304
▁1.6	-12.3046
▁अकाउंट	-12.305
▁लोगे	-12.3051
चढ़ाव	-12.3052
1965	-12.3057
कुमार	-12.306
वर्गीकरण	-12.3061
बांग्लादेश	-12.3061
विशेष	-12.3061
चीफ	-12.3062
उपयोग	-12.3062
आपके	-12.307
▁117	-12.307
▁बीर	-12.3073
▁कोढ़ी	-12.3078
▁Ma	-12.3086
▁नाप	-12.3093
▁रिश्तेदार	-12.3094
▁3,000	-12.3095
ियलिटी	-12.3099
▁कलर	-12.3101
▁ट्रै	-12.3103
र्थ	-12.3103
▁कैमर	-12.3105
IL	-12.3106
▁अमेरिक	-12.3114
बहनों	-12.3115
▁गाव	-12.3122
▁असमान	-12.3126
▁लपेट	-12.3126
▁सड़	-12.3127
▁बेरोजगार	-12.3128
▁होम्योपैथ	-12.3129
▁बनावट	-12.313
▁दीवान	-12.3139
▁b	-12.314
विषयक	-12.3142
▁बजाए	-12.315
▁उल्	-12.315
▁आमने	-12.3153
▁कूटनीति	-12.3153
▁अमासा	-12.3154
ोल	-12.3154
▁पीएचडी	-12.3154
▁नाकाम	-12.3155
▁तेईस	-12.3155
चैंपियंस	-12.3156
▁अनुष्ठान	-12.3156
▁एक्सीलेंस	-12.3156
▁एडवाइजर	-12.3156
▁एन्टीऑक्सीडेन्ट	-12.3156
▁कछुए	-12.3156
▁चुपचाप	-12.3156
▁तिरस्कृत	-12.3156
▁नियंत्रक	-12.3156
▁पांडिचेरी	-12.3156
▁भर्त्सना	-12.3156
▁व्यावसायीकरण	-12.3156
▁झांझ	-12.3156
▁थियेटर	-12.3156
▁बछड़ा	-12.3156
▁उद्धरण	-12.3156
▁दशमांश	-12.3156
▁शॉर्टलिस्ट	-12.3156
▁CEO	-12.3156
▁एयरक्राफ्ट	-12.3156
▁केवडिया	-12.3156
▁तरोताज	-12.3156
▁जर्नल	-12.3156
▁फुटवियर	-12.3156
▁दस्ताने	-12.3156
▁नजला	-12.3156
▁उषा	-12.3156
▁फहराया	-12.3156
▁एलायंस	-12.3156
▁आउटलेट	-12.3156
▁इतामार	-12.3156
▁नीबू	-12.3156
▁चर्म	-12.3156
▁हेलमेट	-12.3156
▁वर्दी	-12.3156
▁पीएंगे	-12.3156
▁भावनगर	-12.3156
▁जरुर	-12.3156
▁क्लेश	-12.3157
▁अवज्ञाकारी	-12.3157
▁चिल्लाया	-12.3157
▁आदित्य	-12.3157
▁युग्म	-12.3157
▁ताजगी	-12.3157
▁इनोवेटर्स	-12.3157
▁गुजरेंगे	-12.3157
▁आएँगे	-12.3157
▁लौटेगा	-12.3157
▁जलाएगा	-12.3157
▁नाश्ते	-12.3157
▁निर्भय	-12.3157
▁इफिसुस	-12.3157
▁मुजफ्फरपुर	-12.3157
▁आईएएस	-12.3158
▁कंडीशनर	-12.3158
▁मेघ	-12.3159
▁चाहेगा	-12.3159
▁अपरिवर्त	-12.316
▁दत्त	-12.316
▁अमावस	-12.316
▁मिलावट	-12.316
▁लाइब्रेरी	-12.316
▁परंपराएं	-12.3161
▁सरोगे	-12.3162
▁लिली	-12.3162
▁लीवर	-12.3162
बर्ग	-12.3163
EE	-12.3163
▁डंडे	-12.3163
▁इंजीनियर्स	-12.3163
▁कॉपी	-12.3164
▁AatmaNirbhar	-12.3164
▁नमस्ते	-12.3164
▁रियाद	-12.3164
▁हुसैन	-12.3165
▁क्रीड़ा	-12.3166
▁कुल्हाड़ी	-12.3167
▁शील्ड	-12.3167
▁स्ट्रोक	-12.3167
rom	-12.3168
▁ब्रेड	-12.317
▁सारणी	-12.3171
▁ईज़	-12.3174
▁जातिवाद	-12.3175
▁यादों	-12.3177
▁NCERT	-12.3179
▁पीजी	-12.318
▁सिरका	-12.3182
▁छिलके	-12.3183
▁नोड	-12.3183
ईज	-12.3183
▁छिड़का	-12.3183
▁अश्शूरियों	-12.3183
▁मन्ना	-12.3185
▁वीपी	-12.3188
मिया	-12.3188
▁बीड़ी	-12.3189
▁Su	-12.319
▁मुँहास	-12.3194
▁बम	-12.3195
▁दलित	-12.3198
▁ग्रीष्म	-12.3199
कदार	-12.3201
▁ट	-12.3202
▁पकाय	-12.3202
▁विश्वस्तरीय	-12.3202
▁निकालें	-12.3205
▁झगड़	-12.3207
▁टिं	-12.3208
▁ISRO	-12.3208
▁व्यावसायिकता	-12.3216
-9	-12.3219
वादियों	-12.3221
▁बानी	-12.3222
▁खाती	-12.3226
▁फाल	-12.3227
93	-12.3229
▁काजी	-12.323
▁पलट	-12.3231
▁प्रचारक	-12.3234
▁शस्त्र	-12.3236
▁गाढ़	-12.3241
71	-12.3243
▁दीर्घा	-12.3245
भाप	-12.3246
टो	-12.3246
जन्य	-12.3256
▁उपास	-12.3258
पार	-12.3263
▁साधना	-12.3264
घ	-12.3264
जेन	-12.3264
▁मात	-12.3264
▁निवेशों	-12.3264
▁बेला	-12.3265
▁CCEA	-12.3266
▁techn	-12.3266
लिक	-12.3267
सिल	-12.327
▁सेंटी	-12.3275
,700	-12.328
▁सूट	-12.3283
मीटर	-12.329
▁राजनयिकों	-12.3295
बन	-12.3302
रक्षण	-12.3311
जातीय	-12.3312
गोल	-12.3315
▁ब्लॉग	-12.3316
▁शबा	-12.3337
▁सुआ	-12.3338
हाँ	-12.3341
रोन	-12.3344
▁सान	-12.3345
▁उकसात	-12.3349
सूली	-12.3351
▁7.	-12.3358
90	-12.3374
वेज	-12.3375
▁Sh	-12.3377
परा	-12.338
लेवा	-12.3384
▁धमक	-12.3389
▁टर्मिनलों	-12.339
शॉप	-12.339
68	-12.3391
विषय	-12.3392
सांस्कृतिक	-12.3395
विशिष्ट	-12.3395
08	-12.3415
▁अपच	-12.3417
▁जायेग	-12.3418
▁नजारे	-12.3418
▁ट्रेक	-12.3424
हाल	-12.3425
िज	-12.343
▁हाज़े	-12.3431
▁टनल	-12.3433
▁बाप	-12.3435
▁पत्ती	-12.3446
▁वेव	-12.3447
वाड़	-12.3447
▁बै	-12.3448
फिन	-12.3449
▁छात्रावास	-12.3453
▁प्रेषित	-12.3453
▁वास्तुकार	-12.3455
▁लुभा	-12.3455
▁शिक्षाविद	-12.3455
▁अपनाकर	-12.3456
te	-12.3459
रक्षा	-12.3461
▁खाँस	-12.3461
▁चरमपंथ	-12.3461
▁महानगर	-12.3463
▁परोस	-12.3463
ेन्द्र	-12.3464
▁चबा	-12.3464
बाड़ी	-12.3474
▁नज़ार	-12.3475
.86	-12.3482
▁शिथिल	-12.3483
▁मनोरंज	-12.3485
▁धोए	-12.3485
▁घूमा	-12.3485
म्प	-12.3487
se	-12.3487
▁डिपो	-12.3489
▁कहूं	-12.3489
▁ज्वाला	-12.3489
▁under	-12.3489
▁अन्नपूर्णा	-12.3489
▁अमरेली	-12.3489
▁गम्भीर	-12.3489
▁चबूतर	-12.3489
▁चैम्पियनशिप	-12.3489
▁जगदलपुर	-12.3489
▁नरसंहार	-12.3489
▁फव्वारा	-12.3489
▁बड़ौदा	-12.3489
▁भामरे	-12.3489
▁मुसलमान	-12.3489
▁विशाखापट्टनम	-12.3489
▁शद्रक	-12.3489
▁सफदरजंग	-12.3489
▁सादगी	-12.3489
▁सिंथेटिक	-12.3489
▁सुशोभित	-12.3489
asthan	-12.3489
▁इर्द	-12.3489
▁दुर्भावना	-12.3489
▁फ्रैक्चर	-12.3489
▁मथुरा	-12.3489
▁अभिलेख	-12.3489
▁महर्षि	-12.3489
▁जानबूझकर	-12.3489
▁तिल्ली	-12.3489
▁धीरज	-12.3489
▁मौलाना	-12.3489
▁सहकर्मी	-12.3489
▁बीपीओ	-12.3489
▁कॉटेज	-12.3489
▁पैरामेडिकल	-12.3489
▁तेरहवें	-12.3489
▁प्रणाम	-12.3489
▁फिनाल	-12.3489
▁मांसाहार	-12.3489
▁पर्वतमाला	-12.349
▁ओलों	-12.349
▁परिपत्र	-12.349
▁दातुन	-12.349
▁अंसारी	-12.349
▁जलाएंगे	-12.349
▁बेड़े	-12.349
▁टिड्डियों	-12.3491
▁रमणी	-12.3491
▁सिवन	-12.3491
▁शुक्राणु	-12.3491
▁पटकथा	-12.3491
▁बर्थ	-12.3491
▁मैक्सिको	-12.3491
▁आइलैंड	-12.3491
▁फ़िल्में	-12.3491
▁आच्छादित	-12.3492
▁गेटवे	-12.3492
▁फिरौती	-12.3492
▁नवाब	-12.3493
▁नियति	-12.3493
▁has	-12.3493
आईसीएआई	-12.3494
▁स्पीकर	-12.3495
▁1950	-12.3495
▁फ्लाइट	-12.3495
▁जंक	-12.3495
गन	-12.3496
▁हनी	-12.3497
▁इतालवी	-12.3497
▁खिलाते	-12.35
.31	-12.35
▁रिन्यूएबल	-12.35
▁आंका	-12.3502
▁स्नैक	-12.3503
▁Uttar	-12.3504
▁वज्र	-12.3504
▁मालगाड़	-12.3504
▁गादियों	-12.3507
▁UPI	-12.3507
▁निषेध	-12.3507
▁गवर्नर्स	-12.3509
▁श्रोता	-12.3509
▁फुल	-12.351
79	-12.3511
▁भरत	-12.3514
▁अंतरण	-12.3514
▁पूर्ववर्ती	-12.3515
▁व्यवसायी	-12.3517
,00,000	-12.352
▁ऊर्जावान	-12.3521
▁जबेश	-12.3524
▁स्टॉप	-12.3527
भोर	-12.3529
▁मुर्गी	-12.3529
▁शोषितों	-12.3529
▁शील	-12.353
स्टिक	-12.353
▁अतर	-12.353
▁मूर्त	-12.3533
IC	-12.3533
▁जलाते	-12.3535
▁गंजा	-12.3535
▁समझें	-12.3537
▁मेरठ	-12.354
▁सेक्स	-12.354
▁ईयर	-12.3542
▁कोऑपरेशन	-12.3542
न्द	-12.3545
▁कोचिंग	-12.3545
म्बा	-12.355
दे	-12.3555
▁वर्धन	-12.3556
ावस्था	-12.3557
AS	-12.3564
▁पेरि	-12.3569
▁डिस्क	-12.3579
.39	-12.3583
▁सीवर	-12.3583
▁(4	-12.3584
मत	-12.3586
▁तंब	-12.3605
महल	-12.3605
39	-12.3606
बिन	-12.3608
▁as	-12.3609
▁अतिचारों	-12.3611
▁आपात	-12.3616
▁रहस्यों	-12.3619
▁स्ट्रीम	-12.3622
▁सत्याप	-12.3626
सोल	-12.3626
▁नाइट	-12.3629
▁6.5	-12.3632
▁डैन	-12.3634
▁सुला	-12.3636
▁स्टोरी	-12.3639
32	-12.364
▁स्टेम	-12.3643
फू	-12.3645
▁5.5	-12.3647
▁अबे	-12.3651
1998	-12.3651
शांति	-12.3652
ाइकल	-12.3654
-2017	-12.3663
▁NE	-12.3665
गृह	-12.3672
▁कोरोन	-12.3673
तल	-12.368
▁बरतन	-12.368
▁(5	-12.3683
81	-12.3686
िता	-12.3686
विदेश	-12.3692
▁भाड़	-12.3693
▁हीट	-12.3696
▁सिल	-12.3697
▁1.8	-12.3697
▁IIS	-12.3697
▁89	-12.3699
▁पं	-12.3699
5-6	-12.3708
उत्तर	-12.371
ंडोम	-12.3711
▁वॉर	-12.3712
▁अधिनियमों	-12.3714
▁वीक	-12.3732
▁स्टे	-12.3736
मॉडल	-12.3736
बोर्ड	-12.3736
फ्री	-12.3737
अर्च	-12.3737
स्पेस	-12.3739
निरीक्षण	-12.3739
ऑफिस	-12.3739
रहाट	-12.3739
जगह	-12.374
मध्य	-12.374
दानंद	-12.3741
नेशनल	-12.3745
इसके	-12.3747
त्याग	-12.375
46	-12.3751
▁संतर	-12.3752
लोगों	-12.3752
▁जागो	-12.3754
▁रिवाज	-12.3756
छाता	-12.3765
बहार	-12.3775
▁फेर	-12.3775
▁उमर	-12.3776
▁Gu	-12.3779
.23	-12.3781
▁स्टडीज	-12.3781
हरी	-12.3782
नेपाल	-12.3782
▁सीडी	-12.3786
जिस	-12.3786
▁बोध	-12.3791
▁बर्स	-12.3791
एसटी	-12.3791
▁निबंध	-12.3796
▁संपादक	-12.3797
▁चैत	-12.3797
▁अग्रदूत	-12.3797
▁आगंतुक	-12.3799
07	-12.38
ेक	-12.38
▁पायर	-12.3801
▁1800	-12.3806
▁स्वच्छाग्रह	-12.3806
▁डिस्ट्रीब्यू	-12.3807
▁अल्ट्रा	-12.3808
▁वेट	-12.3811
द्र	-12.3811
▁पहनाए	-12.3815
षिका	-12.3827
▁अनैतिक	-12.383
▁धारक	-12.3833
▁इशार	-12.3833
▁ललित	-12.3833
▁प्रामाणिक	-12.3833
▁जवाहर	-12.3834
▁Secretary	-12.3834
▁अवहेलना	-12.3834
▁घूंघट	-12.3834
▁झिड़क	-12.3834
▁पत्नियां	-12.3834
▁प्रौद्योगिकियां	-12.3834
▁मुबारक	-12.3834
▁लड़खड़ा	-12.3834
▁व्हीकल	-12.3834
▁शेकेम	-12.3834
▁स्थूल	-12.3834
▁डिप्टी	-12.3834
▁बछड़ों	-12.3834
▁माणिक	-12.3834
▁वज़न	-12.3834
▁वाद्ययंत्र	-12.3834
▁रिम्मोन	-12.3834
NPT	-12.3834
▁एकरूपता	-12.3834
▁मिशेल	-12.3834
▁आत्महत्या	-12.3834
▁लाजिम	-12.3834
▁स्वामीनाथन	-12.3834
▁दवाइयां	-12.3834
▁प्रबुद्ध	-12.3834
▁सूफी	-12.3834
संकोच	-12.3834
▁रेहोबाम	-12.3834
▁संश्लेषण	-12.3834
▁सुप्रियो	-12.3834
▁सिखाएगा	-12.3834
▁रिटेल	-12.3834
▁अहिजा	-12.3834
▁जनभागीदारी	-12.3834
▁उष्ण	-12.3834
▁खसरा	-12.3834
▁ऑर्गेनिक	-12.3834
▁प्रतिपूर्ति	-12.3834
▁वाद्य	-12.3834
▁भरतपुर	-12.3834
▁पसली	-12.3834
▁मार्टिन	-12.3835
▁जस्टिस	-12.3835
▁न्यूक्लियर	-12.3835
▁ICT	-12.3835
▁दूँगा	-12.3835
▁मूल्यवर्धन	-12.3835
▁खोलेगा	-12.3835
▁एकाग्रता	-12.3835
▁सीएमडी	-12.3835
▁उन्नीस	-12.3836
▁डिप्लोमा	-12.3836
▁मॉनिटरिंग	-12.3836
▁Union	-12.3836
▁रिएक्टर	-12.3836
▁अलंकरण	-12.3836
▁जनकपुर	-12.3836
▁Sa	-12.3836
▁गॉल	-12.3836
▁माल्या	-12.3836
▁दबाया	-12.3836
▁खट्टा	-12.3836
▁निकलेंगे	-12.3837
▁रहन	-12.3837
▁पिलाएँ	-12.3837
▁लुभावन	-12.3837
▁अज्ञानता	-12.3837
▁मेम्ने	-12.3838
▁Mata	-12.3838
▁गैलील	-12.3838
▁मरेंगे	-12.3839
▁उजाला	-12.3839
▁हैंडबुक	-12.3839
▁घना	-12.3839
▁दुकानदार	-12.3839
▁डिस्ट्रिक्ट्स	-12.3839
▁शशि	-12.3839
▁दालें	-12.384
▁भूखंड	-12.384
▁कन्या	-12.384
▁कार्यक्षमता	-12.384
▁एनआईटी	-12.384
▁चित्रकला	-12.384
▁मनाए	-12.3841
▁सीजीएसटी	-12.3841
▁आमेर	-12.3841
▁हूर	-12.3841
▁आएंगी	-12.3841
▁सोया	-12.3841
▁अल्ट्रासाउंड	-12.3842
▁क्षीण	-12.3842
▁गांठ	-12.3842
▁क्रमिक	-12.3842
▁राजगीर	-12.3843
्न	-12.3843
▁लालसा	-12.3843
▁गड्ढा	-12.3845
▁स्वीड	-12.3845
.54	-12.3845
▁रामगढ़	-12.3846
▁खुलेपन	-12.3846
▁रंजन	-12.3846
▁माधव	-12.3847
▁तरंग	-12.3848
▁दीवाली	-12.3851
▁उठती	-12.3851
▁संतरा	-12.3852
▁टर्न	-12.3856
▁उदारता	-12.3856
▁अबीथ	-12.3858
▁अर्च	-12.3859
▁निर्वा	-12.3859
9,000	-12.386
▁डायबिटिज	-12.3864
▁गल	-12.3865
▁ति	-12.3865
▁पाटने	-12.3866
▁एमएस	-12.3866
▁सुलझा	-12.3868
▁टो	-12.3869
▁हावड़ा	-12.3869
ग्रा	-12.3871
▁पकड़कर	-12.3872
▁-21	-12.3872
▁क्लीनिक	-12.3875
▁मुखर	-12.3876
▁थ्रेसिंग	-12.3876
▁आवाजें	-12.3879
▁खींचता	-12.3882
▁रीजन	-12.3883
▁चमकती	-12.3884
▁गोह	-12.3884
▁गश्त	-12.3885
ीर्ण	-12.3886
▁स्पाइक	-12.389
.63	-12.3892
एक्सपो	-12.3893
▁(3)	-12.3901
▁लगवा	-12.3903
लि	-12.3912
▁धर्मियों	-12.3914
रेखा	-12.3915
इट	-12.3916
▁VI	-12.3923
बाग	-12.3924
डॉ	-12.3928
▁1.0	-12.3929
▁मेथ	-12.3932
▁बालू	-12.3935
01	-12.3936
▁प्यारी	-12.3943
▁माँगी	-12.3943
▁p	-12.3952
वाट	-12.3953
रूप	-12.3956
▁नेपाली	-12.3958
.67	-12.396
▁मक	-12.3962
▁निर्	-12.397
िय्याह	-12.3974
.38	-12.3978
▁संभाली	-12.3978
लेट	-12.3982
.33	-12.3982
▁विजया	-12.3984
▁चित्रा	-12.3984
▁गंवा	-12.3985
बीजापुर	-12.3988
ज़ान	-12.3992
र्नोन	-12.3994
▁साख	-12.3995
ेटिव	-12.3996
▁Ha	-12.3996
ाग्नि	-12.4002
AL	-12.4005
वै	-12.4006
ड़ियों	-12.402
▁(20	-12.4028
▁मिग	-12.4029
vi	-12.4041
समूह	-12.4059
▁ताली	-12.4061
▁खमीर	-12.4065
▁डरने	-12.407
मेड	-12.4081
▁डिफ	-12.4081
▁2023	-12.4084
साइट	-12.4088
अनंतिम	-12.4094
अंदाज	-12.4096
मंदिर	-12.4096
लगभग	-12.4097
सम्मान	-12.4097
डीएसटी	-12.4097
``	-12.4097
उनके	-12.4098
यहुवे	-12.4099
5,000	-12.4099
ES	-12.4103
सामने	-12.4105
मंडल	-12.4105
78	-12.4105
▁निर्देशकों	-12.4105
▁1,00,000	-12.4125
चाँदनी	-12.4128
▁छठ	-12.4129
▁वरुण	-12.4138
▁दुर्बल	-12.4149
▁(18	-12.415
तू	-12.4154
74	-12.4159
ावली	-12.4163
▁आखिर	-12.4164
▁पटर	-12.4166
मिल	-12.4169
73	-12.4177
▁अश्	-12.4184
▁राइफल	-12.4186
▁IV	-12.4187
डीह	-12.4189
▁हरिवंश	-12.419
▁फैसिलिटी	-12.419
िथ	-12.419
Madhya	-12.4191
▁अस्थमा	-12.4191
▁इज़रायल	-12.4191
▁इस्कॉन	-12.4191
▁टूर्नामेंट	-12.4191
▁धुआँ	-12.4191
▁पवेलियन	-12.4191
▁पिरामिड	-12.4191
▁पोशाक	-12.4191
▁प्राधिकारी	-12.4191
▁प्रेषण	-12.4191
▁म्यूनिख	-12.4191
▁सृष्टि	-12.4191
▁कारावास	-12.4191
▁तिरज़ा	-12.4191
▁दीमापुर	-12.4191
▁पठानकोट	-12.4191
▁पूर्वाग्रह	-12.4191
▁फ्लाईओवर	-12.4191
▁मोमबत्ती	-12.4191
▁रूपांतरित	-12.4191
▁संवितरण	-12.4191
▁सम्मिश्रण	-12.4191
▁स्पर्शोन्मुख	-12.4191
▁कुशीनगर	-12.4191
▁टाँक	-12.4191
▁समूच	-12.4191
▁राजमिस्त्री	-12.4191
▁इफोड	-12.4191
▁गंगवार	-12.4191
▁लोफवेन	-12.4191
▁उपपत्नी	-12.4191
▁नबूकद	-12.4191
▁स्मार्टफोन	-12.4191
▁जहाँगीर	-12.4191
▁उठूंगा	-12.4192
▁भीड़भाड़	-12.4192
▁रोटियाँ	-12.4192
▁सुअर	-12.4192
▁राधाकृष्णन	-12.4192
▁जिनपिंग	-12.4192
▁रेणुका	-12.4192
▁विवश	-12.4192
▁हेथेन	-12.4192
▁प्रतिध्वनि	-12.4192
▁कलेक्शन	-12.4192
▁अनुशासित	-12.4193
▁किरीथ	-12.4193
▁नाराज़	-12.4193
▁टेक्सटाइल	-12.4193
▁बबूल	-12.4193
▁गोताखोर	-12.4193
▁भीलवाड़ा	-12.4193
▁अल्कोहल	-12.4193
▁जनधन	-12.4194
▁विक्टोरिया	-12.4194
▁हटाओ	-12.4194
▁1986	-12.4194
▁रोबोट	-12.4195
▁पहुंचेगा	-12.4195
▁बहाव	-12.4195
▁डकैती	-12.4195
▁तनावग्रस्त	-12.4196
▁गिराया	-12.4196
▁बसवेश्वरा	-12.4196
▁रिस	-12.4196
▁Maharashtra	-12.4196
▁एनएफएसए	-12.4196
▁सैमसन	-12.4196
▁2021-22	-12.4196
▁पर्याय	-12.4197
▁पांचवां	-12.4197
.70	-12.4197
▁क्लिनिकल	-12.4198
▁टाल	-12.4198
▁आदतें	-12.4199
▁पढ़ें	-12.4199
▁मौखिक	-12.42
▁डकार	-12.42
▁घाटियाँ	-12.4201
▁अंतः	-12.4201
▁कस्बे	-12.4202
▁कराएगा	-12.4202
▁चेयर	-12.4204
▁पकड़ो	-12.4204
आयोडीन	-12.4205
▁निहारते	-12.4205
▁लोकमान्य	-12.4206
▁कैस	-12.4207
▁कोस्ट	-12.4207
▁पच	-12.4208
▁प्रशंसकों	-12.4208
▁रै	-12.4209
▁केसरी	-12.4209
▁टेप	-12.421
▁प्रैक्टिस	-12.421
▁सटीकता	-12.4212
▁लौटो	-12.4212
▁अलसी	-12.4214
▁पूर्वव्यापी	-12.4214
▁भाषाएँ	-12.4215
▁नामकरण	-12.4218
INSV	-12.422
▁लुभात	-12.4221
▁MoHUA	-12.4221
▁जोहान्सबर्ग	-12.4221
▁वेंचर	-12.4221
▁उकेर	-12.4222
▁साग	-12.4222
▁थक्क	-12.4222
▁आईपीआर	-12.4223
ोआश	-12.4224
▁एएनएम	-12.4226
▁ग्रेन	-12.4226
▁दहेज	-12.4228
स्टोन	-12.4231
ईस्ट	-12.4231
▁मानवाधिकारों	-12.4232
▁औपचारिकता	-12.4237
▁ग्रंथों	-12.4239
जर	-12.424
▁डॉक्टर्स	-12.4241
तुमने	-12.4242
▁उगत	-12.4247
.42	-12.4247
▁जूए	-12.425
आईएएफ	-12.4251
▁....	-12.4253
▁सूत	-12.4254
बस	-12.4257
नाल	-12.4262
▁पेज	-12.4264
▁प्रदीप	-12.4264
▁प्यारा	-12.427
▁नियमन	-12.4278
▁इंटीग्रेट	-12.4283
▁अल्पा	-12.4285
रिज	-12.4286
लिंडा	-12.4291
▁माले	-12.4293
▁रोधी	-12.4302
09	-12.4303
▁होशे	-12.4304
▁यादें	-12.4304
▁उलझन	-12.4308
▁बूटियों	-12.4309
▁व्यभिचारी	-12.431
▁बाँधी	-12.4312
क्रीम	-12.4312
▁मरा	-12.4317
हो	-12.4318
▁तले	-12.4319
▁बोन	-12.432
डू	-12.4329
▁पचा	-12.433
लिये	-12.4332
▁HC	-12.4333
.81	-12.4335
.52	-12.4335
57	-12.4342
▁1,3	-12.4351
बारी	-12.4357
▁ढके	-12.4358
दीघा	-12.436
▁ताना	-12.4362
▁बदली	-12.4363
ोबा	-12.4365
▁टोपे	-12.4376
-16	-12.4376
▁फँस	-12.4379
-40	-12.4386
तक	-12.439
जाने	-12.4393
िष्ट	-12.4396
▁तबके	-12.4407
▁हस्ताक्षरकर्ता	-12.4409
जान	-12.441
▁किताबों	-12.4416
ल्लार	-12.4428
हेरी	-12.4429
▁मैदानी	-12.4439
ाएँ	-12.4444
▁बलराम	-12.4444
▁गेर्शोन	-12.4447
2020	-12.445
्राप	-12.4451
व्यू	-12.4454
खाने	-12.4455
शास्त्र	-12.4458
▁कुक	-12.4461
▁उम	-12.4462
गांव	-12.4462
वेल्थ	-12.4463
▁गड़बड़	-12.4463
MoC	-12.4465
निशंक	-12.4466
डीबीटी	-12.4467
GeM	-12.4467
अनुकूल	-12.4467
लिफ्ट	-12.4467
सुबह	-12.4467
दिल्ली	-12.4467
जल्दी	-12.4468
परिवार	-12.4468
खाली	-12.4469
संबंधी	-12.447
▁तली	-12.447
विहार	-12.447
धा	-12.4482
ेंशियल	-12.4486
नई	-12.4487
.76	-12.4488
लिन	-12.4488
ादि	-12.4491
▁कहला	-12.4493
▁139	-12.45
▁साओ	-12.4506
▁1700	-12.4513
पुरा	-12.4513
▁कं	-12.4517
▁220	-12.4518
▁शत	-12.4521
मांद	-12.4521
▁एचएम	-12.4523
▁रिब	-12.4523
▁कांस	-12.4523
रदार	-12.4523
▁रुद्र	-12.4525
▁पहिलौठ	-12.4526
ायड	-12.4526
भाव	-12.4526
▁सतात	-12.4527
▁बूढ़	-12.4527
▁रेप	-12.4531
▁यमन	-12.4533
▁मुस्कुरा	-12.4535
▁हेमन	-12.4537
▁बल्क	-12.4541
वालों	-12.4542
▁असह	-12.4542
▁लुटेर	-12.4543
▁अंगार	-12.4544
,200	-12.455
▁उभार	-12.4551
ion	-12.4555
▁निर्मल	-12.456
▁परामर्शदाता	-12.456
▁अनुपस्थित	-12.456
▁अभिभाषण	-12.4561
▁उद्धृत	-12.4561
▁दुर्व्यवहार	-12.4561
▁निर्भीक	-12.4561
▁पचहत्तर	-12.4561
▁पिथौरागढ़	-12.4561
▁फुटपाथ	-12.4561
▁बंगबंधु	-12.4561
▁बंटवारे	-12.4561
▁मेशुल्लम	-12.4561
▁सिरिसेना	-12.4561
▁सुक्कोत	-12.4561
▁इन्जैक्शन	-12.4561
▁ऐश्वर्य	-12.4561
▁ट्विन	-12.4561
▁लोहबान	-12.4561
▁उत्पीड़क	-12.4561
▁डिसऑर्डर	-12.4561
▁स्विच	-12.4561
▁ट्रूडो	-12.4561
▁रिस्पांस	-12.4561
▁ग्लैंड	-12.4561
▁घण्ट	-12.4561
▁सर्टिफिकेट	-12.4561
▁डेरियस	-12.4561
▁महापरिनिर्वाण	-12.4561
▁बेनिफि	-12.4561
▁मुद्रीकरण	-12.4561
▁भावुक	-12.4562
▁असंबद्ध	-12.4562
▁पोलैंड	-12.4562
▁वीज़ा	-12.4562
▁चढ़ाओगे	-12.4562
▁रंगमंच	-12.4562
▁चढ़ाएंगे	-12.4562
▁लोधी	-12.4562
▁कॉयर	-12.4562
▁व्हेल	-12.4562
▁सावंत	-12.4562
ेरुस	-12.4562
▁अलायंस	-12.4562
▁ईसवी	-12.4562
▁गंजापन	-12.4562
▁पहनाया	-12.4562
▁अणु	-12.4562
▁भुगतना	-12.4562
▁निपटाया	-12.4563
▁उपराज्यपाल	-12.4563
▁जिंदा	-12.4563
▁अविश्वसनीय	-12.4563
▁फाइटर	-12.4563
▁कुश्ती	-12.4563
▁गंवाई	-12.4563
▁1981	-12.4563
▁मोचन	-12.4563
▁एनएफएआई	-12.4563
▁नक्शे	-12.4563
▁मजिस्ट्रेट	-12.4563
▁गुरुग्राम	-12.4563
▁1983	-12.4564
▁सल्फर	-12.4564
▁रिबका	-12.4564
▁अमूल	-12.4564
▁डालोगे	-12.4564
▁सांप्रदायिकता	-12.4564
▁विध्वंसक	-12.4564
▁रब्बा	-12.4564
▁कक्षाएं	-12.4564
▁कम्युनिकेशन	-12.4564
▁डीवी	-12.4565
▁मकबरे	-12.4565
▁घड़े	-12.4566
▁डायग्नोस्टिक्स	-12.4566
▁नथुन	-12.4567
▁COP	-12.4567
▁पृथक	-12.4567
▁बीएचयू	-12.4567
▁जंक्शन	-12.4567
खरोट	-12.4568
दोक	-12.4568
▁श्रीवास्तव	-12.4568
शिया	-12.4569
▁एचपी	-12.457
▁टिड्डे	-12.4571
▁एमओएस	-12.4571
▁कथाओं	-12.4572
▁जुड़ना	-12.4573
▁खोलना	-12.4573
▁इस्राइल	-12.4574
▁कांडला	-12.4574
▁म्यू	-12.4575
FDI	-12.4577
▁मिद्यानियों	-12.4578
▁PSLV	-12.4581
▁कैंपस	-12.4582
लांग	-12.4583
लाती	-12.4584
▁घोषणाएं	-12.4585
▁ट्राइब	-12.4587
▁सँभाल	-12.4587
▁हस्त	-12.459
▁दूल्हा	-12.4593
ेगी	-12.4593
▁शिरा	-12.4594
ाद	-12.4594
एडवांस्ड	-12.4601
▁क्लीनर	-12.4603
माइग्रेन	-12.4603
▁न्यायपूर्ण	-12.4605
▁हाइड्रोज	-12.4605
▁नाला	-12.4606
▁जमावड़	-12.4606
▁उड़ने	-12.4608
AN	-12.4608
▁लौंग	-12.4608
▁लेटे	-12.4612
▁दिखाय	-12.4616
ies	-12.4617
िड	-12.4618
▁फाइलिंग	-12.4619
▁यापन	-12.4619
▁झुर्र	-12.4623
▁लिपट	-12.4624
न्य	-12.4625
▁वक्ता	-12.4627
▁ड्राइवरों	-12.4628
▁खींचा	-12.4631
ॉन्ग	-12.4634
▁खरीदें	-12.4636
.60	-12.4637
▁विजुअल	-12.464
▁ईंटों	-12.4642
▁क्रियाशील	-12.4643
सम	-12.4643
▁गौरी	-12.4644
नाइट	-12.4646
▁340	-12.4646
▁कलाओं	-12.4648
▁प्रतिकूलता	-12.465
ेथ	-12.4651
▁खोजते	-12.4651
▁चौकी	-12.4655
DI	-12.4656
डिया	-12.4657
्टा	-12.4657
ल्ड	-12.4661
वासीर	-12.4662
.29	-12.4666
▁गुर्द	-12.4667
▁मसल	-12.4668
टते	-12.467
-2020	-12.4671
ाला	-12.4673
▁सत	-12.4674
.66	-12.4674
▁माण्ड	-12.4675
▁रहीं	-12.4676
▁पसलिय	-12.4682
ur	-12.4685
▁चक्क	-12.4688
12	-12.4688
▁मस्जिदों	-12.469
ीम	-12.4692
िस्टिक	-12.4693
▁दीना	-12.4695
यार	-12.4697
▁राजस	-12.47
▁2.3	-12.471
▁दर्शा	-12.4718
▁एसेट	-12.4721
भा	-12.4723
तीस	-12.4724
▁लत	-12.4725
ाली	-12.4727
▁सीखत	-12.4729
▁महक	-12.4729
ोर्न	-12.4741
लीन	-12.4747
▁साइको	-12.4749
▁पु	-12.475
शिय	-12.4751
▁अहि	-12.4751
र्थराइटिस	-12.4754
▁काबुल	-12.4755
व्यवस्थाओं	-12.4762
-17	-12.4764
▁उठाओ	-12.4768
▁पहुँची	-12.4769
▁भूमिकाओं	-12.4769
.4	-12.477
▁एसएस	-12.4776
ैन	-12.4777
▁121	-12.4777
ुद	-12.4782
ध्रुवीय	-12.4783
▁एमवी	-12.4784
▁पाली	-12.4789
किया	-12.4789
▁2.8	-12.4791
▁एलो	-12.4797
आधार	-12.4804
.17	-12.4804
▁चिल	-12.4805
बड़	-12.4805
.32	-12.4809
ant	-12.481
▁मचा	-12.4812
▁पीप	-12.4813
वादों	-12.4816
▁क्र	-12.4817
▁बालिकाओ	-12.4821
.47	-12.4823
72	-12.4825
▁अंड	-12.4826
▁बिक	-12.4829
▁चा	-12.483
बोट	-12.4831
दर्द	-12.4838
▁ओज	-12.4838
-20	-12.4839
▁जोरम	-12.4839
▁एप्रो	-12.484
शिक्षा	-12.4848
मलाई	-12.485
मेडिसिन	-12.4851
टूरिज्म	-12.4851
▁गोग	-12.4853
कौन	-12.4853
उसके	-12.4854
लेस	-12.4854
ाहट	-12.4866
मेडिकल	-12.4867
झा	-12.4872
▁आमद	-12.4878
कोई	-12.4878
▁राखी	-12.4893
▁बांधी	-12.4899
▁2.6	-12.4902
▁पहलें	-12.4905
▁पाव	-12.4905
▁12.	-12.4906
फ़िक	-12.4906
.65	-12.4909
▁कुत्त	-12.491
कुलम	-12.4911
▁सरपंच	-12.4911
▁दूल्ह	-12.4913
दायी	-12.4914
▁बेची	-12.4917
▁परिषदों	-12.4918
▁उदास	-12.4919
▁13.	-12.4919
▁अंध	-12.4921
तीश	-12.4924
▁लेडी	-12.4925
▁भगोड़	-12.4926
▁साई	-12.4927
▁नॉट	-12.4929
▁सीएजी	-12.4932
▁1300	-12.4932
▁रम	-12.4932
▁बर्ग	-12.4933
▁प्रोसेस	-12.4938
▁विधाय	-12.4941
▁उज्जीएल	-12.4942
▁एमोराइट	-12.4942
▁सेल्फ	-12.4944
▁यिशै	-12.4945
माइक्रोबियल	-12.4946
हिस्टीरिया	-12.4946
▁अधीक्षक	-12.4946
▁अवरुद्ध	-12.4946
▁आँगन	-12.4946
▁आश्रित	-12.4946
▁कमिश्नर	-12.4946
▁ज़िकलाग	-12.4946
▁ज़िमरी	-12.4946
▁ठूंठ	-12.4946
▁तिवारी	-12.4946
▁दाखमधु	-12.4946
▁बेथलहम	-12.4946
▁मृग	-12.4946
▁शांताराम	-12.4946
▁संकलित	-12.4946
▁संकुच	-12.4946
▁कांचीपुरम	-12.4946
▁भिक्षा	-12.4946
▁मेशक	-12.4946
▁हज़ोर	-12.4946
▁अहंकार	-12.4946
▁एग्लोन	-12.4946
▁तब्दील	-12.4946
▁नितम्ब	-12.4946
बेकिस्तान	-12.4946
▁वानिकी	-12.4946
▁अरबिंदो	-12.4946
▁उच्चायुक्त	-12.4946
▁फैलोशिप	-12.4946
▁एंटरप्राइजेज	-12.4946
▁सोयाबीन	-12.4946
▁डेबिट	-12.4946
▁परमप्रधान	-12.4946
▁टेनिस	-12.4946
▁चिल्लाओ	-12.4946
▁करधनी	-12.4946
▁बाँह	-12.4946
▁लांबा	-12.4946
▁कंचनजं	-12.4946
▁हारमोन	-12.4946
▁हीमोग्लोब	-12.4946
▁सेंसिंग	-12.4946
▁विषाणु	-12.4946
▁ड्राई	-12.4946
▁योएल	-12.4946
▁अवतार	-12.4946
बीपीसीएल	-12.4946
▁ससुर	-12.4946
▁2011-12	-12.4947
▁तारीफ	-12.4947
▁निगाह	-12.4947
▁खारि	-12.4947
▁परिस्थितियाँ	-12.4947
▁अस्वस्थ	-12.4947
▁खाऊंगा	-12.4947
▁घोष	-12.4947
▁चहल	-12.4947
▁टाइटस	-12.4947
▁जरुरत	-12.4948
▁महाजन	-12.4948
▁बहुरूपियों	-12.4948
▁देवघर	-12.4948
▁अतिथियों	-12.4948
▁क्राफ्ट	-12.4948
▁Smt	-12.4948
▁सीआईएसएफ	-12.4948
▁अरुं	-12.4949
▁ओवन	-12.4949
▁ब्यूटी	-12.4949
▁अँधेर	-12.4949
▁1955	-12.4949
▁1960	-12.4949
▁पवित्रशास्त्र	-12.4949
▁पहुंचेगी	-12.4949
▁एवरेस्ट	-12.4949
▁उद्योगपतियों	-12.495
▁साँच	-12.495
▁सजाया	-12.495
▁वस्तुएं	-12.495
▁आलोक	-12.495
▁कैमरन	-12.4951
▁कन्नड़	-12.4952
▁फाइव	-12.4952
▁रिवर्स	-12.4952
▁लड़ना	-12.4952
▁बुर्ज	-12.4953
▁बहुउद्देश	-12.4953
▁खोपड़ी	-12.4953
▁प्रिंटिंग	-12.4956
▁दण्ड	-12.4956
सीडब्ल्यूसी	-12.4956
▁आलस	-12.4957
▁पेस्ट	-12.4957
पितु	-12.4958
▁तीर्थयात्री	-12.4959
जयगढ़	-12.496
▁मुआवजा	-12.496
▁बरती	-12.4961
▁सूदन	-12.4961
▁ताजिक	-12.4961
▁नौकरशाही	-12.4962
भरी	-12.4963
▁बाड़मेर	-12.4963
▁खींचते	-12.4963
▁MoCA	-12.4964
▁शिफ्ट	-12.4965
▁कलम	-12.4965
▁चुरा	-12.4966
▁पॉवर	-12.4967
▁एडीबी	-12.4967
▁बताईं	-12.4968
▁नामान	-12.4968
▁मिलन	-12.4969
▁स्थाई	-12.4971
▁ITBP	-12.4971
एआई	-12.4971
▁वीरानी	-12.4972
▁मॉक	-12.4972
▁1995	-12.4973
▁सीरो	-12.4976
▁देशवासी	-12.4977
वित्तपोषित	-12.4978
▁एट	-12.4978
▁आरती	-12.4979
▁रगड़	-12.498
▁बचाई	-12.4982
▁खोजना	-12.4983
▁स्टाइल	-12.4984
विस्मरण	-12.4984
▁गीला	-12.4986
▁केवाईसी	-12.4987
▁अहास	-12.4989
ुकाम	-12.4991
▁अखबारों	-12.4991
▁एकोन	-12.4991
▁मोआबियों	-12.4995
▁राजपत्र	-12.4995
▁वेंडर	-12.4996
▁नम्बर	-12.4996
▁लौटकर	-12.4997
▁CARES	-12.4997
.16	-12.4998
▁ट्रेल	-12.5002
खाना	-12.5008
▁छोड़ें	-12.5018
22	-12.502
▁145	-12.502
ंटिफिक	-12.5024
▁चाट	-12.5026
न्तर	-12.5033
एएआई	-12.5034
िट्री	-12.5034
ासूर	-12.5035
▁भैंस	-12.5036
▁कास्ट	-12.5047
पानी	-12.5053
98	-12.5054
कलकत्ता	-12.5054
साध्य	-12.5054
▁जानकी	-12.506
वती	-12.5064
▁बढ़ई	-12.5067
▁बुझा	-12.5068
ेरे	-12.5071
ष	-12.5072
▁मट	-12.5073
▁आएँ	-12.5073
लेख	-12.5074
▁114	-12.5076
▁सफ़	-12.5081
▁118	-12.5083
▁3.6	-12.5086
ंक	-12.5088
कारक	-12.5088
सेन	-12.5097
▁प्रतिभूति	-12.5101
▁यहो	-12.5102
ील	-12.5104
ri	-12.5105
IA	-12.5105
▁नाबो	-12.5111
▁लगायें	-12.5111
▁लेंस	-12.5113
62	-12.512
ुक	-12.5126
-11	-12.5126
वेट	-12.5136
▁असहाय	-12.5137
▁पीके	-12.5137
▁टार	-12.5141
बुक	-12.5142
▁कर्ता	-12.5147
▁पंज	-12.5151
▁मांगता	-12.5151
िशिय	-12.5154
▁मानवतावाद	-12.5161
▁सता	-12.5165
▁खगोल	-12.5167
ज़ा	-12.5169
▁गान	-12.5171
रात्रि	-12.5172
ायीं	-12.5177
97	-12.518
▁बिर	-12.5184
,800	-12.519
ED	-12.5195
संस्कृत	-12.5201
▁रुका	-12.5209
▁गेर	-12.5211
साइड	-12.5224
▁पिंड	-12.5232
सू	-12.5233
जीएम	-12.5234
▁डुब	-12.5237
डरो	-12.5237
िएल	-12.5238
▁क्लीन	-12.524
▁व्यापकता	-12.5247
प्रभा	-12.5249
▁खिलाएँ	-12.5249
शूल	-12.5251
क्लास	-12.5251
आईटी	-12.5251
फ्रांस	-12.5252
हमेशा	-12.5252
यूके	-12.5259
फिया	-12.5259
▁ठे	-12.5262
▁अजीत	-12.5267
▁आइज	-12.5288
ब्रिज	-12.5289
▁आयोगों	-12.5292
▁चिल्ला	-12.5293
विन	-12.5296
▁Do	-12.5298
▁बेट	-12.53
संस्कृति	-12.5301
▁उमा	-12.5303
▁वेबसाइटों	-12.5305
▁राक्षस	-12.5311
पोरा	-12.5312
ोव	-12.5312
▁सोए	-12.5314
▁राइट	-12.5316
▁इंडस्ट्र	-12.5319
▁ध्व	-12.532
तली	-12.5323
▁9000	-12.5324
▁मौज	-12.5327
राज्यीय	-12.533
▁यश	-12.5331
विका	-12.5332
▁De	-12.5335
मोथ	-12.5341
▁बन्धु	-12.5343
▁स्काउट	-12.5343
▁एंटोनिय	-12.5345
▁आर्सेनिक	-12.5346
▁चुनौतियाँ	-12.5346
▁टोरंटो	-12.5346
▁पन्द्रह	-12.5346
▁फूंकी	-12.5346
▁मुहम्मद	-12.5346
▁वास्तुशिल्प	-12.5346
▁हड़ताल	-12.5346
▁एलीएजेर	-12.5346
▁डिब्रूगढ़	-12.5346
▁बलांगीर	-12.5346
▁अभिलेखागार	-12.5346
▁तिरुपति	-12.5346
▁कमज़ोर	-12.5346
▁पारादीप	-12.5346
▁जेनेटिक	-12.5346
▁अशदोद	-12.5346
▁चरचा	-12.5346
▁अतुल	-12.5346
▁वसीयत	-12.5346
▁अतिप्रवाह	-12.5346
▁पौड़ी	-12.5346
▁एनसीईआरटी	-12.5346
▁सेगमेंट	-12.5346
▁छ्ह	-12.5346
▁जैकब	-12.5346
▁हेज़्रोन	-12.5346
▁कोलंबो	-12.5346
▁जेईई	-12.5346
▁शान्त	-12.5346
▁फर	-12.5346
▁निखार	-12.5346
▁हस्तिन	-12.5346
▁उथल	-12.5347
कोने	-12.5347
▁बेतेल	-12.5347
▁जगाया	-12.5347
▁2023-24	-12.5347
▁विघटनकारी	-12.5347
▁पहुंचाएगा	-12.5347
▁महाशक्ति	-12.5347
▁सोडा	-12.5347
▁फेस्टस	-12.5347
▁ईगल	-12.5347
▁तुरहियों	-12.5347
▁काउंसल	-12.5347
▁हालात	-12.5347
▁भट्ठी	-12.5348
ॉलीवुड	-12.5348
▁देनदारियों	-12.5348
▁इन्फ्रा	-12.5348
▁प्रभावकारिता	-12.5348
▁सौंदर्यीकरण	-12.5348
▁दामोदर	-12.5348
▁दालचीनी	-12.5348
▁परशुराम	-12.5348
▁ख़बर	-12.5348
▁अमरावती	-12.5348
▁क्लाउड	-12.5348
▁बीन्स	-12.5348
▁लवण	-12.5348
▁छिपाओ	-12.5348
NCMC	-12.5348
▁झुकाव	-12.5349
▁बन्धुओं	-12.5349
▁महेंद्र	-12.5349
▁चक्रवर्ती	-12.535
▁मिलूंगा	-12.535
▁बुलाई	-12.535
▁सर्जन	-12.535
▁मुड़ो	-12.535
▁ईटिंग	-12.535
▁नीरा	-12.5351
▁जुब्ब	-12.5351
▁नारे	-12.5351
▁छोड़ेंगे	-12.5352
▁रामनगर	-12.5352
▁मलेशियाई	-12.5352
▁गणपति	-12.5352
▁गोमुख	-12.5352
▁have	-12.5353
▁1994	-12.5353
▁क्रेन	-12.5353
▁खबरदार	-12.5354
ेक्शन	-12.5354
▁विचारधाराओं	-12.5354
परिक्षा	-12.5355
▁जीआईएस	-12.5356
नल	-12.5357
▁124	-12.5357
▁आईबीएम	-12.5357
▁रेशे	-12.5357
▁नौकाओं	-12.5358
▁SDG	-12.5359
▁विज़न	-12.5359
▁जनक	-12.5359
▁रस्सी	-12.536
▁वातानुकूल	-12.536
▁सुलझाने	-12.5362
डीटीएच	-12.5362
▁13,000	-12.5363
▁70,000	-12.5364
▁टोपी	-12.5364
▁Vi	-12.5365
▁मतभेदों	-12.5366
▁दरवाज़	-12.5366
▁मुद्र	-12.5367
▁AMRUT	-12.5368
▁साइक्लोन	-12.537
▁चट्टानें	-12.5371
▁फुले	-12.5372
▁कौस	-12.5373
▁चेंजर	-12.5374
▁डेली	-12.5374
▁सिग्नल	-12.5375
▁80,000	-12.5375
▁इफेक्ट	-12.5376
▁छुपा	-12.5376
▁मिलाप	-12.5377
▁भाषाई	-12.5378
▁चढ़ते	-12.5379
हरा	-12.538
▁सीबीआईसी	-12.538
▁रेपो	-12.5381
▁दिलाना	-12.5381
▁बेईमानी	-12.5382
प्लेसमेंट	-12.5382
▁चढ़ाता	-12.5384
▁अंगूठी	-12.5387
▁तरंगों	-12.5387
ोडियम	-12.539
▁करतब	-12.5393
▁सित	-12.5393
33	-12.5394
▁जरूरतें	-12.5397
▁कारीगरी	-12.5398
▁जोरहाट	-12.5399
▁निरोध	-12.54
जु	-12.5401
.72	-12.5401
▁योजनाबद्ध	-12.5406
▁रेस्ट	-12.5408
▁कनेक्ट	-12.5408
▁कणों	-12.5415
13	-12.5415
शों	-12.5415
▁संजीव	-12.5416
▁वॉल	-12.5417
▁लगाएं	-12.5426
.74	-12.5429
▁चट्टी	-12.5429
ताओं	-12.5431
ेस्सर	-12.5433
कि	-12.5437
▁फा	-12.5441
▁जागत	-12.5441
▁गेल	-12.5444
ंजा	-12.5448
▁मिर	-12.5452
▁केमिकल	-12.5457
▁पाएँगे	-12.5459
जाना	-12.546
us	-12.5465
▁फिलिस्तीनी	-12.5467
le	-12.5469
▁कोण	-12.5473
▁4,000	-12.5474
न्ना	-12.5476
नेट	-12.5478
रिवाजों	-12.5478
▁दब	-12.548
▁102	-12.5484
▁सद	-12.5486
▁यु	-12.5487
▁गन	-12.5487
▁नीलगिर	-12.5489
▁बिरंग	-12.5491
▁महारान	-12.55
श्य	-12.551
▁बहना	-12.5519
▁एपीज	-12.5521
PP	-12.5529
पते	-12.5534
▁1.4	-12.5535
▁शैल	-12.5544
▁तैरत	-12.5548
अल	-12.5552
SA	-12.5553
▁आदानों	-12.5553
▁पुदीन	-12.5559
▁थल	-12.556
बरा	-12.556
▁चिकन	-12.5565
▁चाब	-12.5567
▁पहर	-12.5568
ूँगा	-12.5568
▁शिलो	-12.5568
▁2.25	-12.557
RERA	-12.5571
▁बीसी	-12.5578
▁बोने	-12.5582
मस्तक	-12.5587
endra	-12.5588
ेश्वरी	-12.5589
▁अचार	-12.5596
▁सिस्ट	-12.5597
ूस	-12.5599
▁पिंज	-12.5599
▁00	-12.5601
गाह	-12.5601
ेट्स	-12.5603
ॉ	-12.5607
▁आला	-12.5608
ne	-12.5609
▁-4	-12.5613
▁भून	-12.5616
▁डेट	-12.5625
76	-12.5626
रमन	-12.5629
▁जमी	-12.5629
▁सहायकों	-12.5631
नूर	-12.5638
▁खेला	-12.5638
ोअज़	-12.5639
ोश	-12.5643
गाय	-12.5647
▁एपी	-12.565
AD	-12.5651
▁पद्धतिय	-12.5652
सहन	-12.5658
▁मसलन	-12.5661
कुशल	-12.5661
▁एनएम	-12.5664
महिला	-12.5665
शंकर	-12.5667
▁मणिकर्ण	-12.5667
प्रेशर	-12.5668
तिहाई	-12.5668
कहीं	-12.5668
संचालित	-12.5668
जम्मू	-12.5668
सक्रिय	-12.5668
व्यापार	-12.5668
धन्य	-12.5669
तकनीकी	-12.567
जागरण	-12.567
मेन	-12.5671
69	-12.5671
तिम	-12.5676
▁धुंध	-12.5676
.59	-12.5678
लेज	-12.5681
▁ईश	-12.5689
पुत्र	-12.5692
▁State	-12.5693
चरण	-12.5698
▁दीर्घ	-12.5704
तें	-12.5708
▁इमल	-12.5712
▁तन	-12.5713
▁ईस्टर	-12.572
.43	-12.5722
▁रियासत	-12.5727
.01	-12.5728
▁151	-12.573
▁इराद	-12.5733
▁राक	-12.5733
त्ता	-12.5734
बत	-12.5741
ारियों	-12.5746
▁मोड़ो	-12.5748
▁उड़ात	-12.5748
फारा	-12.5753
सेतु	-12.5754
▁दानव	-12.5755
िमा	-12.5757
ेदी	-12.5758
िसंगत	-12.5758
▁शरणार्थ	-12.5759
▁दर्शनार्थ	-12.5759
▁घुसपैठ	-12.5761
श्शे	-12.5761
▁टेढ़े	-12.5762
▁वसुंधरा	-12.5762
मपंथी	-12.5763
▁पीढ़िया	-12.5763
पाउंड	-12.5763
▁इडुक्क	-12.5763
▁उत्पीड़ित	-12.5763
▁कालिमप	-12.5763
▁जलपाईगुड़ी	-12.5763
▁पुनरावृत्ति	-12.5763
▁प्रफुल्ल	-12.5763
▁मूर्छ	-12.5763
▁रूहानी	-12.5763
▁षड्यंत्र	-12.5763
▁स्टांप	-12.5763
▁हथेली	-12.5763
▁दीजिए	-12.5763
▁माकीर	-12.5763
▁यत्न	-12.5763
▁रिजॉर्ट	-12.5763
▁स्कार्लेट	-12.5763
▁अजीर्ण	-12.5763
▁ऑस्टियोपोर	-12.5763
▁हैपेटाइटिस	-12.5763
▁अबिजा	-12.5763
▁उज्जैन	-12.5763
▁सैयद	-12.5763
▁स्क्रिप्ट	-12.5763
▁कम्पास	-12.5763
▁सुमित्रा	-12.5763
▁अमोरा	-12.5763
▁मेंढक	-12.5763
▁फाल्के	-12.5763
▁एंटीवायरल	-12.5763
▁ओणम	-12.5763
▁मपीबोशेत	-12.5763
▁बंडल	-12.5763
▁मरुस्थल	-12.5763
▁स्टॉल	-12.5763
▁कुर्सियाँ	-12.5763
▁जितेन्द्र	-12.5763
▁परिणत	-12.5763
▁बताइए	-12.5763
▁बेलगाम	-12.5763
▁हैंडलूम	-12.5763
▁एनआरआई	-12.5763
▁कॉलोनियों	-12.5763
▁रोएंगे	-12.5763
▁सिक्योरिटी	-12.5763
▁जायेंगे	-12.5763
▁लाठी	-12.5763
▁सेक्रेटरी	-12.5763
▁चैंपियनशिप	-12.5763
▁सीखेंगे	-12.5763
▁धर्मेन्द्र	-12.5764
▁राइस	-12.5764
▁भगाया	-12.5764
▁आवक	-12.5764
▁मुरब्ब	-12.5764
▁ईएसआई	-12.5764
▁अलीपुर	-12.5764
▁पोर्टेबल	-12.5764
▁गंगाधर	-12.5764
▁निजात	-12.5764
▁चाइना	-12.5765
▁ऋषियों	-12.5765
▁निस्संदेह	-12.5765
▁अदोनिय्याह	-12.5765
▁किशमिश	-12.5765
▁जोड़ेंगे	-12.5765
▁ब्राउन	-12.5765
▁डायलॉग	-12.5765
▁बद्रीनाथ	-12.5765
▁तटस्थ	-12.5765
▁1987	-12.5765
▁एअर	-12.5766
▁काटेंगे	-12.5766
▁खट्टी	-12.5766
▁उड़द	-12.5766
▁अस्वच्छता	-12.5766
▁संस्थाएं	-12.5766
▁पड़ेगी	-12.5766
▁मरोड़	-12.5766
▁अल्फा	-12.5766
▁नर्सरी	-12.5766
▁घोड़ा	-12.5767
▁चुटकी	-12.5767
ँदी	-12.5767
▁ओनल	-12.5767
पता	-12.5768
▁अटकल	-12.5768
ड्रोन	-12.5768
▁राजनेताओं	-12.5768
ुत	-12.5769
▁चप्पल	-12.5769
▁व्हाइट	-12.5769
▁आईआरसीएस	-12.5769
▁एप्लीकेशन	-12.5769
▁जिनेवा	-12.5769
▁आंत्र	-12.5769
▁भुजाओं	-12.5771
▁लाजर	-12.5771
▁मेहता	-12.5772
▁अलवर	-12.5772
▁घनत्व	-12.5773
▁विराट	-12.5773
▁ओपीडी	-12.5773
ईवीएम	-12.5773
▁भड़काने	-12.5774
▁फोड़ा	-12.5775
▁श्रीकृष्ण	-12.5776
▁पपीता	-12.5776
▁बाईस	-12.5778
▁चांग	-12.5781
▁कंस्ट्रक्शन	-12.5781
▁तुलनात्मक	-12.5787
▁एकोनाइट	-12.5788
▁सभ्यताओं	-12.5789
▁चीरा	-12.5789
▁खोलकर	-12.579
यूपीएससी	-12.5791
▁एमके	-12.5791
क्चर	-12.5794
▁प्रशिक्षु	-12.5795
▁उलझा	-12.5796
ेक्स	-12.5796
▁डरें	-12.5797
▁गियर	-12.5797
▁अमन	-12.5799
▁इज़्रेल	-12.5803
▁ज्ञानी	-12.5803
▁क्षमताएं	-12.5808
▁सम्मोह	-12.5809
▁समीर	-12.5811
▁सेईर	-12.5813
▁वाय	-12.5814
▁छोटों	-12.5818
▁हिप	-12.582
वही	-12.5821
यड	-12.5823
▁इरा	-12.5824
जून	-12.5825
▁चमकत	-12.583
ौला	-12.583
ोई	-12.5834
▁आंक	-12.5835
▁बर्तनों	-12.5835
▁डूबा	-12.5835
▁कपिल	-12.5835
53	-12.5838
.88	-12.584
▁पढ़ी	-12.5842
ज़ेल	-12.5843
▁आरईसी	-12.5843
▁प्रशासकों	-12.5845
आरटीआई	-12.5848
▁आर्म	-12.5848
▁मर्जी	-12.5853
मौर	-12.5854
स्फी	-12.5857
▁ची	-12.586
▁गढ़ा	-12.5862
वीर	-12.5866
▁फ्रूट	-12.5866
▁रमन	-12.5868
फना	-12.587
▁जागा	-12.5873
▁पार्श्व	-12.5874
मर	-12.5874
▁नर्व	-12.5875
▁कलिंग	-12.588
जबान	-12.588
.85	-12.588
र्जी	-12.5882
ers	-12.5884
▁जुट	-12.5891
▁मंडलों	-12.5891
▁काटा	-12.5892
▁आरओ	-12.5893
▁दिव्यांगों	-12.5894
▁गौ	-12.5905
शबा	-12.591
ून	-12.5911
▁बहार	-12.5919
शोथ	-12.592
▁खलिहान	-12.592
il	-12.5921
▁एनडीबी	-12.5923
▁अलगाववाद	-12.5927
रिन	-12.5932
▁बाड़	-12.5933
▁नवीनता	-12.5937
▁यात्राएँ	-12.5938
▁मद	-12.5941
लियों	-12.5943
AT	-12.5947
विषयगत	-12.5951
III	-12.5952
▁फोर	-12.5956
eit	-12.5961
▁पू	-12.597
▁पीडीआर	-12.5976
▁(12	-12.5978
▁फीस	-12.5978
▁आदी	-12.5979
▁असीरिय	-12.598
रकु	-12.598
र्ट	-12.5991
28	-12.5992
▁भु	-12.5997
▁चौ	-12.5998
▁लु	-12.6001
पियन	-12.6001
▁गढ़ों	-12.6007
1972	-12.6011
्क	-12.6017
ृत	-12.6018
▁खेले	-12.6018
▁वीरान	-12.6022
▁कलह	-12.6023
▁मरीन	-12.6024
शुमार	-12.603
प्	-12.6033
ेला	-12.6039
▁स्टॉकहो	-12.6042
▁चालकों	-12.6049
▁पतंग	-12.6053
ALA	-12.6058
अध्यक्ष	-12.6064
▁वास्तु	-12.6064
▁8.5	-12.6069
ाइजिंग	-12.607
▁-11	-12.6078
▁लटक	-12.6081
हास	-12.6084
▁झपक	-12.6087
समझदारी	-12.609
▁PSU	-12.6092
ब्रिक्स	-12.6094
▁हेत	-12.6095
▁मेद	-12.6095
▁ट्रिप	-12.6097
▁स्थानिक	-12.6097
कटोरा	-12.6101
रोजगार	-12.6102
स्क्रीन	-12.6102
नमस्कार	-12.6103
टुकड़े	-12.6103
लद्दाख	-12.6103
म्यांमार	-12.6103
परामर्श	-12.6103
आयात	-12.6103
यहोवा	-12.6103
देवताओं	-12.6104
गाड़ियाँ	-12.6105
केंद्रीय	-12.6107
PPE	-12.6107
वित्तीय	-12.6109
▁डील	-12.6109
यहाँ	-12.611
▁जीस	-12.6111
हाट	-12.6112
▁पौ	-12.6124
▁माध्यमों	-12.6132
▁रज	-12.6141
▁वेग	-12.6143
▁ऑक्स	-12.6143
?&#39;	-12.6143
मिन	-12.6144
▁प्रूफ	-12.6145
खेलो	-12.6154
्यूल	-12.6155
▁उत्त	-12.616
हरे	-12.6161
सहयोग	-12.6162
▁नौजवान	-12.6162
ंगर	-12.6163
फुल	-12.6167
▁स्ट्रेस	-12.617
ल्कर	-12.617
सं	-12.6175
वीएस	-12.6176
▁श्रद्ध	-12.6177
▁तौल	-12.6184
▁हराम	-12.6184
▁सुप	-12.6185
▁सिक्क	-12.6187
पति	-12.6188
▁रत	-12.6188
▁सीडीएस	-12.619
▁इन्वेस्ट	-12.619
▁डेफ	-12.6191
▁जीआई	-12.6193
▁पहेल	-12.6193
यानी	-12.6194
्व	-12.6194
▁विचल	-12.6194
▁मॉनिटर	-12.6195
▁सौहार्द	-12.6196
छाड़	-12.6197
org	-12.6197
NRLM	-12.6197
UMANG	-12.6197
▁अग्रिप्पा	-12.6197
▁एलीआब	-12.6197
▁औचित्य	-12.6197
▁कृषक	-12.6197
▁खर्राट	-12.6197
▁चिल्ड्रन	-12.6197
▁जकार्ता	-12.6197
▁त्रिकोण	-12.6197
▁त्रिपाठी	-12.6197
▁द्वेष	-12.6197
▁पुरूष	-12.6197
▁पैमाना	-12.6197
▁प्रज्वल	-12.6197
▁फतेह	-12.6197
▁सावरकर	-12.6197
▁कूल्ह	-12.6197
▁पीवीएसएम	-12.6197
▁वुहान	-12.6197
▁Abhiyan	-12.6197
▁चौतरफा	-12.6197
▁तत्पश्चात	-12.6197
▁पिगमेंट	-12.6197
▁नाहयान	-12.6197
▁भोले	-12.6197
▁मिनिस्टर	-12.6197
▁एडमिनिस्ट्रेशन	-12.6197
▁एलकाना	-12.6197
▁सिद्धार्थ	-12.6197
▁आकाओं	-12.6197
▁परमात्मा	-12.6197
▁गजेन्द्र	-12.6198
▁बायोमास	-12.6198
▁तवांग	-12.6198
▁ट्रांजिट	-12.6198
▁मिशाल	-12.6198
▁सरणी	-12.6198
▁हनोक	-12.6198
▁गन्दगी	-12.6198
▁चौखट	-12.6198
▁फौर	-12.6198
▁हवेल	-12.6198
▁देशपांडे	-12.6198
▁सईद	-12.6198
▁कार्टो	-12.6198
▁मेंहदी	-12.6198
▁बरतें	-12.6198
▁पार्लर	-12.6198
▁पियो	-12.6198
▁सीहोन	-12.6198
▁असिस्टेंट	-12.6198
▁खुराना	-12.6198
▁अमर्याह	-12.6198
▁ट्रांसपोर्टेशन	-12.6199
▁चिन	-12.6199
▁सेल्युल	-12.6199
▁थिम्	-12.6199
▁बोलोगे	-12.6199
▁जोड़ेगी	-12.6199
▁चाकू	-12.6199
▁शांतिप्रिय	-12.6199
▁बनायी	-12.6199
कारिता	-12.6199
▁वर्गमीटर	-12.6199
▁पाठ्य	-12.6199
▁ओमरी	-12.62
याचिन	-12.62
▁आहिस्ता	-12.62
▁प्रोफ़ाइल	-12.62
▁टेलीविज़न	-12.62
▁अफोर्डेब	-12.62
▁माहवार	-12.62
▁1949	-12.62
▁बैठेगा	-12.62
▁1957	-12.62
▁बिछाई	-12.6201
▁उधारकर्ताओं	-12.6201
▁1992	-12.6201
▁बनाओगे	-12.6201
▁छड़ें	-12.6201
▁भिक्षु	-12.6201
▁यहोराम	-12.6201
▁कॉस्मेटिक	-12.6201
▁मरोगे	-12.6202
▁व्यस्तताओं	-12.6202
▁अहीर	-12.6202
▁जुल्	-12.6202
▁सिकल	-12.6202
च्छादित	-12.6202
▁मारूंगा	-12.6203
▁मुकदमा	-12.6203
▁चलूंगा	-12.6203
▁विशुद्ध	-12.6203
▁श्रीनिवास	-12.6203
▁मिक्स	-12.6204
▁सिखाना	-12.6204
▁चीतल	-12.6204
▁नांदेड़	-12.6204
▁स्तोत्र	-12.6204
▁सिंध	-12.6204
ity	-12.6204
▁शिथिलता	-12.6205
▁रिफॉर्म	-12.6205
▁इम्यून	-12.6205
▁छल्ले	-12.6205
▁अनिश्चितताओं	-12.6205
फीफा	-12.6206
▁न्यूज़	-12.6207
▁बख्शा	-12.6207
▁नेचर	-12.6208
▁शैलियों	-12.6208
▁गॉड	-12.6208
▁सुशील	-12.6208
▁बेबी	-12.6208
▁रहमान	-12.621
▁लड़का	-12.621
▁जंघा	-12.621
▁विस्फोटक	-12.6211
ाप	-12.6211
.83	-12.6211
CSR	-12.6211
▁MSP	-12.6212
▁युद्धपोत	-12.6214
▁भाभा	-12.6214
▁बेगम	-12.6214
▁नोव	-12.6216
▁कुआँ	-12.6217
▁चौकस	-12.6217
▁मेवाड़	-12.6218
▁मदन	-12.6218
▁चमकीले	-12.6219
▁शुद्धि	-12.622
▁ड्रामा	-12.622
▁क्यूरेट	-12.622
▁टूल	-12.6222
▁धोता	-12.6224
92	-12.6225
▁CBSE	-12.6225
▁गुच्छे	-12.6226
▁भारतमाला	-12.6226
▁Mr	-12.6227
▁परिपूर्णता	-12.6228
▁चिकनी	-12.6229
▁पुस्तकें	-12.6229
▁शीट	-12.6231
▁एसपीवी	-12.6234
▁रियासतों	-12.6235
▁अधूरे	-12.6235
▁काजू	-12.6235
▁दाता	-12.6236
▁चिली	-12.6244
केयर	-12.6244
▁न्यूजीलै	-12.6249
▁ढो	-12.6251
▁इंफेक्श	-12.6251
ंतर	-12.6252
▁No	-12.6253
▁पेट्रो	-12.6254
▁रोप	-12.6255
▁अपवाद	-12.6256
▁पुकारे	-12.6258
ाओ	-12.6259
▁करवट	-12.6259
▁घूमता	-12.6261
▁मनोहा	-12.6261
88	-12.6263
▁धरा	-12.6264
▁शम	-12.6264
▁चमकील	-12.6266
▁अराम	-12.6267
▁CBIC	-12.6272
CF	-12.6272
▁सड़न	-12.6275
माने	-12.6282
▁फारसी	-12.6283
वाने	-12.6284
प्रतिस्पर्धात्मक	-12.6285
▁तिरु	-12.6289
▁मयूर	-12.6289
▁शेमेश	-12.6291
▁समझकर	-12.6291
निर्भर	-12.6293
फली	-12.6296
ायी	-12.6305
ME	-12.6311
▁सिखों	-12.6312
ंदर	-12.6312
▁सिन	-12.6316
▁बेली	-12.6316
ाड़ियों	-12.6316
▁101	-12.6322
▁ढ	-12.6326
थम	-12.6328
▁लेखकों	-12.6334
▁लीज	-12.6335
सहायता	-12.6336
▁डेल	-12.6339
▁यहहू	-12.6344
एनईपी	-12.6345
▁अदन	-12.6346
▁क्रिकेटर	-12.6349
▁Ki	-12.635
PMU	-12.6352
▁सुर	-12.6356
▁भित्ति	-12.6365
▁ठहरे	-12.6369
ात	-12.6372
ेज़	-12.6376
▁अभ्य	-12.6377
ाज	-12.6382
लॉजिकल	-12.6384
बाजी	-12.6384
AR	-12.6384
▁खर	-12.6395
▁फेट	-12.6396
▁वेदों	-12.6399
पतियों	-12.64
▁दैव	-12.6405
▁हन्ना	-12.6406
▁बांधा	-12.6406
▁ड्रेस	-12.6411
▁रामसे	-12.6412
.44	-12.6413
▁109	-12.6415
▁बड़	-12.6422
ुन	-12.6423
▁105	-12.6428
hi	-12.6432
▁आयुक्तों	-12.6441
▁गुम	-12.6442
ाकर	-12.6446
किरेन	-12.645
▁अकस	-12.6455
ंपा	-12.6458
▁अहा	-12.6459
▁छप	-12.6459
▁उपेक्ष	-12.6464
सांग	-12.647
▁केंद्रीयता	-12.647
▁सदूकिय	-12.6472
▁दंग	-12.6473
पहल	-12.6474
ाइविंग	-12.6475
▁ON	-12.6476
IP	-12.6476
▁ग्रे	-12.6478
▁चिट	-12.6488
▁अरि	-12.6501
▁बदलता	-12.6505
65	-12.6506
▁14.	-12.6508
भेदभावपूर्ण	-12.651
▁तादा	-12.6515
मूर्ति	-12.6517
▁270	-12.6521
.53	-12.6522
मोग्राफी	-12.6522
ंविध	-12.6525
ीस	-12.6526
फ़ी	-12.6529
चित्र	-12.653
ाकू	-12.6534
▁आँकड़	-12.6537
▁स्टीम	-12.6537
▁बाम	-12.654
वर्क	-12.6543
▁मॉ	-12.6546
▁चढ़े	-12.6547
▁अनुप्र	-12.6547
.28	-12.6551
फेयर	-12.6552
ोला	-12.6552
िर	-12.6552
54	-12.6554
कॉन्फ्रेंस	-12.6555
शेमेश	-12.6556
पत्ता	-12.6556
विजुअल	-12.6556
राष्ट्रपति	-12.6556
मूत्र	-12.6557
सीएसआईआर	-12.6557
वाराणसी	-12.6558
प्रौद्योगिकी	-12.6558
कोर्ट	-12.6561
बॉक्स	-12.6562
शेबा	-12.6564
ेज़र	-12.6569
यो	-12.6569
नार	-12.657
ाओं	-12.6572
पीन	-12.658
न्द्र	-12.658
▁850	-12.6581
्पन	-12.6589
▁सेनापति	-12.6589
नै	-12.6589
▁आदर	-12.6592
▁गोप	-12.6597
ंगला	-12.6597
,300	-12.6598
▁परफॉर्म	-12.66
▁सोम	-12.6602
▁चंग	-12.6606
▁लिटि	-12.6607
IR	-12.6607
▁जहरील	-12.6608
▁वाद	-12.6609
एमएस	-12.6609
▁सज्जन	-12.6616
देय	-12.6616
▁तकनीशियन	-12.6616
▁गड्ढ	-12.6617
▁घुल	-12.6617
टेल	-12.6619
▁खे	-12.6619
▁मलयाल	-12.662
भी	-12.6621
.87	-12.6622
अम	-12.6624
ee	-12.6624
हु	-12.6625
न्ट	-12.663
91	-12.6631
▁सहकार	-12.6632
▁पछाड़	-12.6635
▁खिसक	-12.6637
▁करुण	-12.6638
▁बर्बर	-12.6643
▁किर्ग	-12.6649
▁भ्राम	-12.6651
▁अभिषिक्	-12.6651
▁उमिया	-12.6651
ouTube	-12.6652
पीएमजेडीवाई	-12.6652
▁Limited	-12.6652
▁अक्तूबर	-12.6652
▁अबिनादाब	-12.6652
▁इंस्टाग्राम	-12.6652
▁एआईसीटीई	-12.6652
▁कंप्यूटिंग	-12.6652
▁कफरनहूम	-12.6652
▁कीरजथ	-12.6652
▁चुंबन	-12.6652
▁जबूलून	-12.6652
▁टेक्सास	-12.6652
▁ठाकरे	-12.6652
▁दफ्तर	-12.6652
▁न्यूनीकरण	-12.6652
▁महापौर	-12.6652
▁रिसोर्ट	-12.6652
▁लिथुआनिया	-12.6652
▁वेंटीलेटर	-12.6652
▁सम्पर्क	-12.6652
▁सेन्क्चुएरी	-12.6652
▁अधिवक्ता	-12.6652
▁उत्तराखण्ड	-12.6652
▁कैप्सूल	-12.6652
▁गलियारा	-12.6652
▁परवरिश	-12.6652
▁प्रोटेक्शन	-12.6652
▁राठौर	-12.6652
▁शिपयार्ड	-12.6652
▁उज़्बेकिस्तान	-12.6652
▁Ltd	-12.6652
▁ब्रॉडकास्ट	-12.6652
▁उधमपुर	-12.6652
▁ज्वालामुखी	-12.6652
▁कूड़ा	-12.6652
▁चारागाह	-12.6652
▁बांह	-12.6652
▁सेरीब्र	-12.6652
▁योनातान	-12.6652
▁ग्लास	-12.6652
▁सेंचुरियन	-12.6652
्कर्ष	-12.6652
▁डेस्क	-12.6652
▁कंजूर	-12.6652
▁बायोगैस	-12.6652
▁रोटियां	-12.6652
▁मर्चें	-12.6652
▁ब्रह्मांड	-12.6652
▁रहूं	-12.6652
▁लपट	-12.6652
▁अप्रसन्न	-12.6652
▁देशभक्त	-12.6652
▁हजीरा	-12.6652
▁अरोड़ा	-12.6652
▁आशेर	-12.6652
्रिकर	-12.6653
▁प्रत्यावर्तन	-12.6653
▁सारांश	-12.6653
▁अभय	-12.6653
▁परीक्षक	-12.6653
▁मनीष	-12.6653
▁लीडर	-12.6653
▁चिल्लाए	-12.6653
▁इत्र	-12.6653
▁नक्काशीदार	-12.6653
▁ओफिर	-12.6653
▁रौंद	-12.6653
[...]
