<pad>	0
<unk>	0
<s>	0
</s>	0
[MASK]	0
.	-3.47696
▁.	-3.71392
,	-3.88132
▁आणि	-3.934
▁आहे	-4.09777
▁,	-4.59281
च्या	-4.80823
▁या	-4.91432
▁	-5.05028
▁ते	-5.36516
चे	-5.41899
▁आहेत	-5.44528
ला	-5.52724
▁मी	-5.54129
▁हे	-5.55182
ही	-5.62084
चा	-5.6733
▁नाही	-5.67426
▁व	-5.71021
▁केले	-5.71261
-	-5.7252
ी	-5.74351
ची	-5.77491
च	-5.78833
े	-5.79981
▁असे	-5.84747
ा	-5.85287
▁एक	-5.86781
ाच्या	-5.87104
▁की	-5.91187
▁तर	-5.9254
▁“	-5.94439
▁सर्व	-5.94861
▁होते	-5.96106
▁तो	-5.99699
ने	-6.00091
▁त्या	-6.0655
▁पंतप्रधान	-6.08543
▁केली	-6.10215
▁त्यांनी	-6.10856
▁आपल्या	-6.115
▁हा	-6.13733
▁(	-6.20776
त	-6.21602
▁ही	-6.23749
▁”	-6.24511
▁यांनी	-6.24909
ून	-6.26404
▁तुम्ही	-6.30474
▁करण्यात	-6.32721
मध्ये	-6.33419
▁मला	-6.33648
▁म्हणून	-6.35347
▁करण्यासाठी	-6.37283
▁लोक	-6.39521
ील	-6.39807
▁त्यांना	-6.40013
▁केला	-6.4009
▁भारत	-6.40146
ाचे	-6.41063
▁काही	-6.41467
▁तसेच	-6.41874
▁आज	-6.45109
ाची	-6.46595
▁नवी	-6.49183
ाचा	-6.50917
▁म्हणाले	-6.52566
)	-6.52798
▁तेव्हा	-6.55992
▁दिल्ली	-6.57244
▁‘	-6.58299
▁पण	-6.60921
▁होता	-6.6108
▁आम्ही	-6.61154
▁आले	-6.63256
▁तू	-6.65359
▁त्याला	-6.67848
▁काम	-6.6803
▁आपण	-6.69965
▁भारतीय	-6.7188
▁जे	-6.72983
▁सांगितले	-6.7513
▁:	-6.76554
ांच्या	-6.76604
▁त्यांच्या	-6.77255
्या	-6.77822
ाने	-6.77859
▁माझ्या	-6.78437
▁किंवा	-6.78734
▁आता	-6.78764
▁येथे	-6.7938
▁होईल	-6.79565
ाला	-6.80085
स	-6.80532
▁करत	-6.82647
साठी	-6.83367
▁त्याने	-6.83454
▁असेल	-6.83691
▁अनेक	-6.84338
▁लोकांना	-6.853
▁मोदी	-6.85428
▁विकास	-6.85657
▁माहिती	-6.85796
’	-6.86367
▁ती	-6.86491
▁अधिक	-6.87127
▁झाले	-6.87358
▁?	-6.87427
▁मंत्रालय	-6.87673
▁मग	-6.87919
▁यांच्या	-6.88483
▁केंद्रीय	-6.8988
▁होती	-6.90166
▁अशा	-6.9041
▁त्याच्या	-6.90589
▁आली	-6.90653
▁परमेश्वर	-6.93061
▁दिली	-6.93267
▁म्हणाला	-6.93866
▁कारण	-6.944
▁कोटी	-6.94787
▁असून	-6.95587
▁खूप	-6.96057
▁ह्या	-6.96785
▁ज्या	-6.96894
वर	-6.97764
▁कमी	-7.01043
▁नरेंद्र	-7.01058
▁दिले	-7.01058
▁कोविड	-7.01669
▁करतो	-7.02127
▁पंतप्रधानांनी	-7.02533
▁प्रत्येक	-7.03394
▁झाली	-7.03829
▁असलेल्या	-7.04043
▁आरोग्य	-7.04152
▁राष्ट्रीय	-7.0485
▁इतर	-7.05834
न	-7.08445
▁देखील	-7.08993
▁देव	-7.09189
▁जर	-7.10626
▁जास्त	-7.11405
▁आला	-7.13267
▁मदत	-7.13477
▁केंद्र	-7.13772
ल्या	-7.13802
▁म्हणजे	-7.13844
▁होत	-7.14237
▁करून	-7.14326
▁2020	-7.14844
▁पूर्ण	-7.1538
▁एका	-7.15666
▁मध्ये	-7.16678
▁गोष्टी	-7.17299
▁करणे	-7.17391
▁अशी	-7.17645
▁दोन	-7.18105
▁तुम्हाला	-7.18937
▁का	-7.19507
पासून	-7.19563
▁झाला	-7.201
▁निर्माण	-7.20149
शी	-7.20984
▁सेवा	-7.21159
▁-	-7.22216
▁तयार	-7.22939
▁न	-7.26604
▁राजा	-7.26848
▁विविध	-7.27865
▁राज्य	-7.28898
▁पाहिजे	-7.29139
▁तुमच्या	-7.29193
ांची	-7.29611
▁यासाठी	-7.30389
▁प्रयत्न	-7.3061
▁सरकार	-7.30846
ित	-7.31808
▁तंत्रज्ञान	-7.32637
ांचे	-7.32797
ले	-7.32813
▁लाख	-7.33064
▁आर्थिक	-7.33262
▁जागतिक	-7.33451
▁असते	-7.34851
▁इस्राएल	-7.35103
▁दोन्ही	-7.3532
▁परंतु	-7.35745
ातील	-7.35862
▁सुरु	-7.35966
▁जात	-7.36688
▁क्षेत्रात	-7.37208
ांना	-7.37437
▁काय	-7.3758
▁)	-7.3816
ात	-7.38509
▁करुन	-7.39009
▁जेव्हा	-7.39471
▁योजना	-7.39551
▁उपलब्ध	-7.39558
▁केलेल्या	-7.4005
▁2019	-7.40274
▁;	-7.4037
▁नवीन	-7.40582
▁वापर	-7.40586
▁2018	-7.41312
▁होणार	-7.41335
▁देण्यात	-7.41457
▁आहोत	-7.42327
▁व्यक्त	-7.43381
▁आपले	-7.43932
▁तुला	-7.4412
▁असल्याचे	-7.44592
▁त्याचे	-7.44606
▁कर	-7.44651
▁होतो	-7.45078
तील	-7.45163
:	-7.45239
▁येत	-7.45258
▁’	-7.45386
▁झालेल्या	-7.45456
-19	-7.45458
ासाठी	-7.45731
▁देश	-7.45961
▁घेऊन	-7.46018
▁तुझ्या	-7.46249
▁दिला	-7.47631
▁गेले	-7.47755
▁असा	-7.48281
▁येशू	-7.4835
▁देशात	-7.49262
▁जाईल	-7.49284
▁नाहीत	-7.49415
▁आमच्या	-7.4954
▁विश्वास	-7.50109
कडे	-7.50296
▁मंत्री	-7.51087
▁संपूर्ण	-7.51605
▁तीन	-7.51923
▁संरक्षण	-7.52406
▁येईल	-7.53461
▁जो	-7.53565
▁विचार	-7.53929
▁यावेळी	-7.54272
▁दिवस	-7.54409
▁विशेष	-7.55028
ली	-7.55328
▁मुलगा	-7.55779
▁सुविधा	-7.55925
▁भाग	-7.56428
▁पुन्हा	-7.57496
▁करा	-7.58268
ल	-7.58358
▁सहकार्य	-7.58698
▁जाते	-7.58712
ांनी	-7.58846
मधील	-7.58948
▁संधी	-7.59375
▁रेल्वे	-7.5976
▁लोकांनी	-7.61027
▁करण्याची	-7.61048
▁योग्य	-7.62346
▁केवळ	-7.62382
▁सुरू	-7.62418
▁कार्यालय	-7.62453
▁प्रदेश	-7.62629
▁सरकारने	-7.62649
▁करीत	-7.62663
▁गेल्या	-7.62724
▁त्यांचे	-7.62843
▁मोठ्या	-7.6304
▁माझे	-7.63573
▁!	-7.63754
▁पुढे	-7.6383
▁कोणी	-7.65116
ांचा	-7.65203
▁सर्वात	-7.6527
▁त्याचा	-7.66294
▁च्या	-7.66646
▁करु	-7.67682
▁पवित्र	-7.68325
▁मात्र	-7.68613
▁टक्के	-7.69077
▁जी	-7.69133
▁करतात	-7.69164
▁माध्यमातून	-7.6945
▁भर	-7.70054
▁पर्यंत	-7.70222
▁करू	-7.70841
▁आंतरराष्ट्रीय	-7.71719
▁आवश्यक	-7.71849
▁उत्तर	-7.72025
मुळे	-7.72156
ंना	-7.72399
▁चित्रपट	-7.72539
▁संबंधित	-7.72857
▁चर्चा	-7.73652
▁माझा	-7.73758
▁उद्योग	-7.74344
▁भारताच्या	-7.74449
▁देशातील	-7.74919
▁आनंद	-7.75021
▁प्रोत्साहन	-7.75091
▁भारतात	-7.75375
▁परमेश्वराने	-7.75415
ं	-7.76074
▁लाभ	-7.76099
▁होऊ	-7.76354
▁आपल्याला	-7.76513
▁दूर	-7.76758
▁कृषी	-7.76805
▁तेथे	-7.77546
▁नंतर	-7.78063
▁त्यांची	-7.78454
▁स्वत	-7.78682
▁देण्यासाठी	-7.78718
ना	-7.7894
▁यामुळे	-7.79205
▁अ	-7.79697
ामध्ये	-7.80141
▁आणखी	-7.80906
▁शकतो	-7.81148
▁नये	-7.81549
▁काळात	-7.81804
▁प्रमुख	-7.8196
▁भेट	-7.82513
▁प्रकल्प	-7.82694
▁बाहेर	-7.83368
▁गरज	-7.83459
▁पाणी	-7.83704
पर्यंत	-7.84342
▁रुग्ण	-7.84444
▁त्याची	-7.84577
▁वाढ	-7.8477
▁सध्या	-7.84932
▁गेला	-7.8495
▁रोजी	-7.84981
▁हजार	-7.8554
▁लक्ष	-7.85616
▁वर्षात	-7.85935
▁कार्यक्रम	-7.86432
▁करणार	-7.86865
▁शिक्षण	-7.86936
▁नाव	-7.87095
ावर	-7.87772
▁करायला	-7.87776
▁उत्पादन	-7.88001
▁करता	-7.88765
▁क्षेत्र	-7.88781
▁संशोधन	-7.88824
▁करण्याचे	-7.89138
▁देत	-7.89836
▁सहभागी	-7.90271
▁सुधारणा	-7.90497
देखील	-7.91154
▁येथील	-7.91365
▁संस्था	-7.91537
▁परत	-7.91963
ंच्या	-7.91999
▁डॉ	-7.92229
▁ऊर्जा	-7.92403
▁आपला	-7.92932
▁घेतला	-7.93056
▁करतील	-7.93415
▁समावेश	-7.93591
▁निर्णय	-7.9383
▁1	-7.9407
▁त्यांचा	-7.94414
▁करार	-7.94426
▁मार्ग	-7.94783
▁मिळेल	-7.94911
▁केल्या	-7.95148
▁मुख्य	-7.95649
▁विकसित	-7.95834
▁व्यापार	-7.96091
▁आपली	-7.96143
▁त्यामुळे	-7.9646
▁बदल	-7.96914
▁येणार	-7.96983
▁संबंध	-7.97016
▁रुपये	-7.97256
▁लक्षात	-7.97666
▁पायाभूत	-7.97853
▁वाईट	-7.97962
▁कल्याण	-7.98086
▁देशाच्या	-7.98087
”	-7.9858
▁मंजुरी	-7.98827
▁इंडिया	-7.991
▁मंदिर	-7.99369
▁म्हटले	-7.99451
▁मित्रांनो	-7.99597
▁नका	-7.99767
▁दुसऱ्या	-8.00058
▁चार	-8.00216
▁वर्ष	-8.00303
प्रमाणे	-8.0033
▁हात	-8.00679
▁जाऊ	-8.00699
▁आम्हाला	-8.00946
▁उपस्थित	-8.01048
▁देवाने	-8.01117
▁संवाद	-8.02052
क	-8.02644
▁पाच	-8.0274
▁सुरक्षा	-8.03248
र	-8.03501
▁करण्याच्या	-8.03781
▁चांगले	-8.03938
▁दरम्यान	-8.04023
▁विज्ञान	-8.04305
▁जीवन	-8.04391
▁मे	-8.04823
▁यांना	-8.04987
▁2017	-8.05161
▁करण्याचा	-8.05553
▁याजक	-8.05665
▁क्षमता	-8.05788
▁दावीद	-8.05855
▁निर्मिती	-8.05995
▁उत्तम	-8.06239
▁घेतली	-8.06576
▁घर	-8.06745
▁परिणाम	-8.06775
▁5	-8.06919
▁इथे	-8.06987
▁पाहिले	-8.07047
▁अंतर्गत	-8.07102
ांमध्ये	-8.07355
▁संदेश	-8.07486
▁सार्वजनिक	-8.08147
▁कार्य	-8.08289
▁सामाजिक	-8.08374
▁आवाहन	-8.08392
▁याचा	-8.08637
▁उद्	-8.08785
▁संयुक्त	-8.08898
▁अतिशय	-8.08904
▁वैद्यकीय	-8.08915
या	-8.09044
▁ठिकाणी	-8.09173
▁दिवशी	-8.09214
▁क्षेत्रातील	-8.09219
▁करीन	-8.09291
ंचे	-8.09479
▁असतो	-8.09973
▁तुम्हांला	-8.10159
▁असतात	-8.10172
▁वस्तू	-8.10363
▁10	-8.10463
▁राष्ट्रपती	-8.11296
▁मंत्रिमंडळ	-8.11329
ातून	-8.11889
▁एकूण	-8.12333
▁नाश	-8.12382
▁महिला	-8.12774
▁विभाग	-8.1311
ापासून	-8.13312
▁करणाऱ्या	-8.13327
▁व्यवहार	-8.13722
▁स्वच्छ	-8.13788
▁वेळ	-8.14111
▁मोठी	-8.14211
▁तरी	-8.14249
▁सुमारे	-8.1432
ू	-8.14475
▁नव्या	-8.14487
▁शकते	-8.14667
▁आहात	-8.14673
द्वारे	-8.14867
ामुळे	-8.14944
▁अधिकारी	-8.14985
▁माझी	-8.15611
▁आयोजित	-8.15725
▁आज्ञा	-8.16228
▁एप्रिल	-8.16545
▁मोठे	-8.16857
▁अन्न	-8.17601
▁वाहतूक	-8.18309
▁ग्रामीण	-8.18336
▁अर्थ	-8.18342
▁असतील	-8.18366
ाशी	-8.18511
▁जाणार	-8.18532
▁आजार	-8.18698
▁वेळी	-8.18768
▁मोठा	-8.18807
▁गरीब	-8.19031
▁"	-8.19136
▁करावे	-8.19277
▁सामंजस्य	-8.19343
▁प्रकारे	-8.19385
▁करताना	-8.19766
▁जगात	-8.19766
▁कधी	-8.1989
▁घाटन	-8.20039
▁यांचे	-8.20251
बद्दल	-8.20384
▁आलेल्या	-8.20475
▁शकत	-8.2094
▁फार	-8.21308
▁होतील	-8.21659
▁वर	-8.22132
▁जुलै	-8.23181
ंचा	-8.2346
▁कि	-8.23791
▁चांगल्या	-8.239
▁व्यवस्था	-8.23927
ीय	-8.23935
▁करील	-8.24124
▁औषध	-8.24253
ंची	-8.24305
▁प्रक्रिया	-8.24411
▁सरकारच्या	-8.24666
▁शकतात	-8.24853
▁असो	-8.24926
▁2	-8.25451
▁घेतले	-8.25533
▁माणूस	-8.25569
ंनी	-8.25706
▁सूचना	-8.2578
▁बरे	-8.26002
▁जून	-8.26031
▁3	-8.26335
▁दु	-8.26516
▁एकत्र	-8.27079
▁शक्य	-8.27119
▁जातो	-8.27319
▁शहर	-8.27452
▁नदी	-8.27711
▁व्या	-8.27744
ीन	-8.27852
▁परमेश्वरा	-8.27979
▁करेल	-8.27987
▁वाटते	-8.28097
▁यांचा	-8.28612
▁भागात	-8.28619
▁जवळ	-8.28807
ीत	-8.29324
▁मार्च	-8.29413
▁यहूदा	-8.2955
▁कोणत्याही	-8.29559
▁भूमिका	-8.29916
▁तुमचा	-8.30265
▁येते	-8.30374
▁एखाद्या	-8.30746
▁रोजगार	-8.30901
▁धोरण	-8.31316
▁संख्या	-8.31368
▁फक्त	-8.31852
▁करते	-8.31878
▁दर	-8.31951
ो	-8.32034
▁शुभेच्छा	-8.32264
▁उपयोग	-8.32626
▁गुंतवणूक	-8.32627
▁प्रशिक्षण	-8.32736
▁आहेस	-8.32979
▁निधी	-8.33085
▁तुझे	-8.33394
▁व्यवस्थापन	-8.34046
▁देतो	-8.34078
▁परमेश्वराच्या	-8.34206
▁कुटुंब	-8.3435
▁डिजिटल	-8.34449
▁शिक्षा	-8.34534
▁यावर	-8.34879
▁यांची	-8.35032
▁अध्यक्षतेखाली	-8.35181
▁देवाच्या	-8.35183
िक	-8.35798
▁अंमलबजावणी	-8.36265
▁ऑफ	-8.36463
▁पुरस्कार	-8.36596
▁माहीत	-8.36706
▁लोकांच्या	-8.36791
▁मजबूत	-8.37221
▁असलेले	-8.37391
▁किलोमीटर	-8.37442
▁15	-8.37475
▁म्हणतो	-8.37604
▁यात	-8.37616
▁ई	-8.37887
▁आमचे	-8.37942
▁गोष्ट	-8.3834
▁तुमचे	-8.38411
▁20	-8.3852
▁अर्पण	-8.38912
ता	-8.3901
▁खर्च	-8.3907
▁पहिल्या	-8.39106
▁योगदान	-8.39174
▁वर्षे	-8.39211
ाकडे	-8.39338
▁पर्यटन	-8.39347
▁प्रवास	-8.39502
▁उपक्रम	-8.39557
▁तेल	-8.39605
▁पाप	-8.39651
▁राष्ट्र	-8.39736
▁नियम	-8.39739
▁देवा	-8.4024
▁प्रमाणात	-8.40599
▁शरीर	-8.40846
पणे	-8.41088
▁प्राप्त	-8.41437
▁लागले	-8.41918
▁6	-8.4206
▁महत्व	-8.42211
▁आढावा	-8.42351
▁निश्चित	-8.42493
▁ऑगस्ट	-8.42651
▁गेली	-8.43135
सह	-8.43227
▁इत्यादी	-8.43435
ुन	-8.43451
▁दृष्टीने	-8.43582
▁दे	-8.43645
▁मनुष्य	-8.43692
▁``	-8.44256
▁याची	-8.44267
▁जग	-8.44644
▁होतात	-8.44912
▁होऊन	-8.44977
▁थेट	-8.45181
▁रस्ते	-8.45186
▁उपचार	-8.45223
▁12	-8.45236
▁प्रभू	-8.45338
म	-8.45408
▁दिशेने	-8.45425
▁इच्छा	-8.45445
▁आधारित	-8.45506
▁लहान	-8.45584
▁'	-8.45651
▁रक्त	-8.458
▁श्री	-8.45855
▁उच्च	-8.46084
▁सचिव	-8.4616
▁ला	-8.46247
▁नैसर्गिक	-8.46379
▁उद्दिष्ट	-8.46469
▁सिंह	-8.46561
▁ठेवले	-8.46562
▁कर्ज	-8.46677
▁प्रदान	-8.46716
▁पुरवठा	-8.46956
▁स्थान	-8.46956
▁यरुशलेम	-8.47071
▁राहील	-8.47703
▁अनुभव	-8.47807
कडून	-8.47909
▁अभिनंदन	-8.47993
▁4	-8.48193
▁त्यात	-8.48341
▁हस्ते	-8.48445
▁किती	-8.48546
▁मंत्रालयाने	-8.4882
पेक्षा	-8.48841
▁पुढील	-8.48841
▁भारतातील	-8.49199
▁होत्या	-8.49206
▁खरे	-8.49209
▁म्हणजेच	-8.49357
▁करावा	-8.49461
▁मोशे	-8.49505
▁चाचणी	-8.49557
▁प्रार्थना	-8.50134
▁जागा	-8.50334
▁–	-8.50429
▁स्वागत	-8.50648
▁असताना	-8.50758
▁चालना	-8.51006
▁सुरक्षित	-8.51343
▁आयोजन	-8.5137
▁सैन्य	-8.51552
▁जातील	-8.51565
▁भागीदारी	-8.5181
▁आल्या	-8.51817
▁30	-8.52518
▁आशा	-8.52617
▁शक्ती	-8.52648
▁सुंदर	-8.52666
▁बंधू	-8.52673
▁व्यक्ती	-8.52694
▁शोध	-8.52731
तून	-8.52791
▁24	-8.52887
▁देऊ	-8.5321
▁जाऊन	-8.53447
▁सामान्य	-8.53517
▁समस्या	-8.53593
▁कौशल्य	-8.53681
▁करण्यास	-8.53714
▁सांगतो	-8.53782
▁मुले	-8.53965
▁मुंबई	-8.54206
▁प्रमाण	-8.5434
▁बरोबर	-8.55063
▁आभार	-8.55137
▁जानेवारी	-8.55181
▁गुजरात	-8.55421
?	-8.55429
▁स्थापन	-8.555
▁वेगाने	-8.55627
▁जातात	-8.55739
▁उत्पन्न	-8.56333
नी	-8.56373
▁शेतकरी	-8.56472
'	-8.56475
सुद्धा	-8.56507
▁जा	-8.56548
▁सात	-8.56665
▁उल्लेख	-8.56826
▁बैठकीत	-8.56848
▁मिळाली	-8.56911
▁यांच्यात	-8.57222
▁देणे	-8.5737
्	-8.57549
▁तुमची	-8.57638
्स	-8.57865
▁पर्यावरण	-8.57901
▁पार	-8.58135
▁सरकारी	-8.58249
▁मान्यता	-8.58457
▁नगर	-8.58552
▁19	-8.58716
▁9	-8.58823
▁अगदी	-8.5909
▁पासून	-8.59108
▁हवे	-8.59234
▁तुझी	-8.59269
▁दिल्या	-8.5935
▁सप्टेंबर	-8.59418
▁दिलेल्या	-8.59556
▁तिथे	-8.59647
▁भारताचे	-8.59744
▁वर्षी	-8.59782
▁प्रेम	-8.60358
▁आधी	-8.60459
▁8	-8.60596
▁कोरोना	-8.60934
▁आवश्यकता	-8.60999
▁शकेल	-8.61026
▁न्याय	-8.61037
▁तिला	-8.61162
▁प्रधानमंत्री	-8.61349
▁नोव्हेंबर	-8.61523
▁काळ	-8.61988
▁येतील	-8.6215
▁एकदा	-8.62314
▁नेहमी	-8.62415
▁7	-8.62415
▁काळजी	-8.62453
▁तसे	-8.62757
हून	-8.62777
▁यशस्वी	-8.62841
▁सर्वांना	-8.62845
▁सदस्य	-8.62999
▁असेही	-8.63047
बरोबर	-8.63141
▁परस्पर	-8.63214
▁येणाऱ्या	-8.63489
▁घेण्यात	-8.63515
▁स्थानिक	-8.63755
▁घेत	-8.63772
▁फेब्रुवारी	-8.63875
▁द्या	-8.63925
▁25	-8.64067
▁महत्वपूर्ण	-8.64068
▁रोग	-8.6407
;	-8.64478
▁शकता	-8.64507
ांसाठी	-8.64664
▁परिषद	-8.64707
▁होणाऱ्या	-8.64838
▁परमेश्वराला	-8.6496
▁बैठक	-8.65229
▁त्रास	-8.65242
▁निवड	-8.65764
▁बंद	-8.6596
▁प्रसार	-8.65971
▁11	-8.66427
▁उपराष्ट्रपती	-8.66495
▁21	-8.66511
▁मान	-8.66579
▁भारताने	-8.66603
▁दिल्लीत	-8.66664
▁उभे	-8.66846
▁दक्षिण	-8.66911
▁अत्यंत	-8.67085
▁14	-8.67271
▁खरेदी	-8.67331
▁हवाई	-8.67515
▁जारी	-8.67697
ाद्वारे	-8.67894
▁माणसे	-8.679
य	-8.68263
▁अध्यक्ष	-8.68486
▁जम्मू	-8.68503
▁पालन	-8.68701
▁प्रसिद्ध	-8.69029
▁तुझा	-8.69087
▁करावी	-8.69147
▁सेवक	-8.69516
▁यामध्ये	-8.69588
▁प्रकाश	-8.69619
▁जमीन	-8.69628
▁आमचा	-8.69853
▁भारताला	-8.69897
▁स्वातंत्र्य	-8.69899
▁महाराष्ट्र	-8.70243
▁देशभरात	-8.70364
▁परमेश्वराचा	-8.70381
▁रक्षण	-8.70393
▁सोडून	-8.70446
▁म्हणूनच	-8.70564
▁राहिले	-8.70586
▁जसे	-8.70644
▁अधिकार	-8.7093
▁येऊन	-8.71003
▁ऑक्टोबर	-8.71017
▁महामार्ग	-8.71335
▁शब्द	-8.71394
▁लागू	-8.71774
▁आयुष्य	-8.71861
▁कायदा	-8.71889
शील	-8.72115
▁माणसा	-8.72182
▁शत्रू	-8.7225
▁संदर्भात	-8.72307
▁50	-8.7232
▁प्रभु	-8.72593
▁खाली	-8.72633
▁देईल	-8.72695
▁मंदिरात	-8.72724
▁ज्ञान	-8.7274
▁वचन	-8.72765
▁योग	-8.72861
▁आतापर्यंत	-8.72885
▁याच	-8.73118
▁विषाणू	-8.73123
▁देशाला	-8.7321
▁बोलत	-8.73214
▁गृह	-8.73258
▁उंच	-8.73296
▁घेण्यासाठी	-8.73548
▁डिसेंबर	-8.73572
▁प्रकारच्या	-8.73639
▁विस्तार	-8.73838
▁सहा	-8.73876
▁वाढत	-8.73932
▁सुरुवात	-8.74007
मी	-8.74154
▁स्पष्ट	-8.74314
▁शौल	-8.74417
▁तोंड	-8.7443
ाप्रमाणे	-8.74483
▁त्यानंतर	-8.74494
▁पर्वत	-8.74611
▁केलेले	-8.74645
▁तिच्या	-8.74696
▁अजून	-8.74712
ांवर	-8.7474
▁बँक	-8.74781
▁सामना	-8.74824
▁ऐकले	-8.74956
▁महान	-8.75176
▁अन्य	-8.75346
▁जाहीर	-8.75566
▁द्विपक्षीय	-8.75892
▁आणले	-8.76164
णाऱ्या	-8.76215
▁मध्यम	-8.76454
विषयी	-8.76467
▁अभियान	-8.76946
▁चांगली	-8.77092
▁प्रदेशात	-8.77625
▁भारताची	-8.77781
▁करणारे	-8.77873
▁आदिवासी	-8.77874
▁येतात	-8.77898
▁फायदा	-8.77975
▁व्यापक	-8.77975
▁प्रश्न	-8.78134
▁होणे	-8.78194
▁येऊ	-8.78328
ंमध्ये	-8.78412
▁हवामान	-8.7848
▁वेळा	-8.78485
▁प्रगती	-8.78521
▁वित्तीय	-8.78775
▁आत	-8.78837
▁मानले	-8.78987
▁स्वप्न	-8.7914
▁जल	-8.79406
▁साध्य	-8.79607
▁देशातल्या	-8.79968
बाबत	-8.80052
▁चालू	-8.80131
▁गांधी	-8.80157
▁स्वच्छता	-8.80388
ेल	-8.80442
▁परिवर्तन	-8.80515
▁त्याच	-8.80599
▁टन	-8.80709
▁दृढ	-8.80714
▁चे	-8.80793
▁उद्देश	-8.80806
▁व्यावसायिक	-8.80879
▁मिळणार	-8.80908
▁नियंत्रण	-8.80982
▁संबोधित	-8.81
▁लागेल	-8.81003
▁भावना	-8.81004
▁दहा	-8.81103
▁हाती	-8.81334
▁पूर्व	-8.81364
▁स्तरावर	-8.81855
▁सामर्थ्य	-8.81865
▁देणार	-8.81886
▁मार्गदर्शक	-8.8192
▁वातावरण	-8.82001
▁चांगला	-8.82048
▁दिसून	-8.82058
▁जबाबदारी	-8.82103
▁घरी	-8.82308
▁18	-8.82345
▁लोकांचा	-8.82373
▁विकासासाठी	-8.82558
▁मिसर	-8.82564
▁मन	-8.82694
▁कसे	-8.8299
▁अर्थव्यवस्था	-8.83075
▁उपाययोजना	-8.83116
▁बाबेल	-8.83252
▁शाश्वत	-8.83254
ायला	-8.83311
▁प्रभाव	-8.83407
▁इस्राएलच्या	-8.83521
▁देऊन	-8.83535
▁येतो	-8.83557
▁चा	-8.83654
▁उपाय	-8.83686
▁मृत्यू	-8.83697
▁अंतर	-8.83878
▁पश्चिम	-8.83886
▁दुष्ट	-8.84084
▁प्राचीन	-8.84122
▁प्रसारण	-8.84254
▁अर्थात	-8.84401
▁म्हणतात	-8.84433
▁प्रभावी	-8.84468
▁घोषणा	-8.84535
▁मंत्रिमंडळाने	-8.84833
▁शकणार	-8.84864
▁नव्हे	-8.85012
▁100	-8.85066
▁तुलनेत	-8.85196
मधल्या	-8.85242
▁कधीही	-8.85289
▁कायम	-8.85385
व्या	-8.85456
▁परिस्थिती	-8.85513
▁आधुनिक	-8.85669
▁ख	-8.85783
▁मुक्त	-8.86015
▁क्रीडा	-8.86052
▁स	-8.86056
▁स्थापना	-8.864
विषयक	-8.86425
▁सांस्कृतिक	-8.86883
▁स्त्री	-8.86978
▁पद्धतीने	-8.87079
▁सौर	-8.8712
▁तरुण	-8.87128
▁जण	-8.8713
▁प्रणाली	-8.87316
▁प्रवेश	-8.87367
▁नागरी	-8.87571
▁सादर	-8.87586
▁मागणी	-8.87709
▁अतिरिक्त	-8.8772
▁शैक्षणिक	-8.87854
▁सक्षम	-8.88074
▁नागरिक	-8.88096
मधून	-8.88192
▁मागे	-8.882
▁संपर्क	-8.88282
▁मिळाले	-8.88397
▁नव्हते	-8.88449
▁लागला	-8.88474
▁वन	-8.88512
▁जेथे	-8.88603
▁देवाची	-8.88783
▁घेऊ	-8.88826
▁16	-8.88908
▁कृती	-8.88978
▁यहूदी	-8.89121
▁प्राधान्य	-8.89326
▁घरात	-8.89342
▁मंत्रालयाच्या	-8.89356
▁रात्री	-8.89372
▁त्यावेळी	-8.89408
▁स्थिती	-8.89939
▁सांग	-8.90059
▁आमची	-8.90119
▁महिन्यात	-8.90174
▁महत्वाचे	-8.90324
▁मुलांना	-8.90345
▁ठार	-8.90558
▁गौरव	-8.90733
▁13	-8.90769
▁कार्यक्रमात	-8.90776
▁ज्यामुळे	-8.9087
▁मनुष्यबळ	-8.91035
▁वाणिज्य	-8.91055
▁देशांच्या	-8.91402
▁आयोग	-8.91471
▁लोकांचे	-8.9155
▁हवा	-8.91708
▁राज्यमंत्री	-8.91716
▁गट	-8.91753
▁ख्रिस्त	-8.91879
▁शेतकऱ्यांना	-8.9196
▁विद्यापीठ	-8.91989
▁वीज	-8.91998
▁योजनेअंतर्गत	-8.92077
▁कल्पना	-8.92095
▁शांतता	-8.9234
▁राहू	-8.92374
▁परमेश्वराची	-8.92401
▁परिषदेत	-8.92477
जी	-8.92839
▁मध्य	-8.92844
▁मरण	-8.92875
ांशी	-8.93171
▁महत्त्व	-8.93262
),	-8.93266
▁ऐतिहासिक	-8.93358
▁राहिला	-8.9338
▁शक्यता	-8.93532
▁लेवी	-8.93562
▁उद्यान	-8.93638
▁नागरिकांना	-8.93679
▁समर्पित	-8.93746
▁जगभरात	-8.93814
▁त्यावर	-8.93888
ाबद्दल	-8.94194
▁झाल्या	-8.94358
▁अपेक्षा	-8.94365
▁उद्या	-8.94416
ांपैकी	-8.94423
▁पेक्षा	-8.94636
▁एकमेकां	-8.94774
नंतर	-8.95005
▁सकाळी	-8.95012
▁समुद्र	-8.95129
▁देवाला	-8.95143
▁एकत्रित	-8.95157
▁समोर	-8.95205
▁वैज्ञानिक	-8.95263
ि	-8.95551
▁मूर्ती	-8.95728
▁असलेली	-8.9574
▁सुलभ	-8.95812
▁नष्ट	-8.95845
▁31	-8.95888
▁ठिकाण	-8.95941
▁कौतुक	-8.96087
▁साठी	-8.96369
▁असू	-8.96425
▁खाजगी	-8.96659
▁मिळते	-8.96663
▁देण्याची	-8.96669
▁भविष्यात	-8.96857
▁लवकर	-8.96944
▁पर्यटक	-8.9713
▁पाय	-8.97664
▁दिवसात	-8.97747
▁बांधकाम	-8.97898
▁आवाज	-8.97983
▁सन्मान	-8.97983
▁काढून	-8.98015
द	-8.98026
▁नेत्यांनी	-8.98117
▁लवकरच	-8.98148
▁वित्त	-8.98172
▁जनतेला	-8.98508
▁लोकांची	-8.98647
▁सांगत	-8.98862
▁पदार्थ	-8.98943
▁जावे	-8.98999
▁राज्यात	-8.99041
▁पराभव	-8.9906
▁युवा	-8.99161
▁विमानतळ	-8.9921
सारखे	-8.99242
▁कार्यरत	-8.99339
▁पूर्वी	-8.99396
▁व्यवसाय	-8.99396
▁यंत्रणा	-8.99481
▁प्रशंसा	-8.99506
▁मूल्य	-8.99597
▁लागते	-8.99654
▁दर्जा	-8.99694
▁प	-8.99754
▁जिवंत	-8.9995
▁सूर्य	-9.0008
▁मित्र	-9.00103
मूद	-9.0016
▁व्हावे	-9.00375
▁17	-9.00463
▁जिथे	-9.00591
▁दगड	-9.00782
▁रंग	-9.00881
▁ना	-9.00895
▁शिखर	-9.00969
▁कामगिरी	-9.00972
▁पुरुष	-9.01049
▁संकल्प	-9.01133
▁लाल	-9.01204
▁आशीर्वाद	-9.01262
▁विमान	-9.01334
▁बाजूला	-9.0147
▁झाल्यावर	-9.01511
▁आधार	-9.01532
▁मिळत	-9.01557
▁त्यासाठी	-9.01647
▁पुष्कळ	-9.01828
▁सतत	-9.01843
▁उभय	-9.02304
▁नेहमीच	-9.02413
▁28	-9.02508
▁22	-9.02751
▁सहभाग	-9.02766
▁कर्मचारी	-9.02829
▁संकट	-9.03194
▁लांब	-9.03258
▁पुत्र	-9.03272
▁सीमा	-9.03384
▁लघु	-9.03402
▁विषयक	-9.03459
▁वितरण	-9.03587
▁आपत्ती	-9.03674
▁ए	-9.03704
▁विचारले	-9.03721
▁तिने	-9.04145
▁इतिहास	-9.04186
▁अंतरावर	-9.04238
▁घ्या	-9.04265
▁सिंग	-9.04328
▁कंपनी	-9.04389
▁भूमी	-9.04411
ड	-9.04729
▁औद्योगिक	-9.0475
▁दशलक्ष	-9.04821
▁सुनिश्चित	-9.04964
▁धान्य	-9.0518
▁साधला	-9.05279
▁सहाय्य	-9.05369
▁इन	-9.05379
▁जवळपास	-9.05402
▁वायू	-9.05423
▁देवाचे	-9.05535
▁पद्धती	-9.05645
ास	-9.05661
▁इतके	-9.05815
▁करायचे	-9.05989
▁यासारख्या	-9.06085
▁भारताचा	-9.0622
▁नोंदणी	-9.06326
▁अवलंब	-9.06348
▁पत्र	-9.06385
▁पैसे	-9.06421
▁आय	-9.06754
▁वाटत	-9.06771
▁वेदना	-9.06791
▁विनंती	-9.06851
▁लक्ष्य	-9.06948
▁महोत्सव	-9.07108
▁मिळाला	-9.07167
▁यश	-9.07315
▁राहणार	-9.07469
▁संसर्ग	-9.07497
▁विद्यार्थी	-9.07632
▁आठवण	-9.07668
▁मनात	-9.07677
ज	-9.07682
▁शेती	-9.07837
▁वाट	-9.08209
▁नसेल	-9.08211
▁ठेवा	-9.08286
नुसार	-9.08289
ांकडून	-9.08352
▁एम	-9.08427
▁महात्मा	-9.08662
▁मित्रहो	-9.08808
ई	-9.08898
▁प्रयोगशाळा	-9.0908
▁पूर्णपणे	-9.09105
▁ब्रिक्स	-9.09116
▁*	-9.09128
▁पर्याय	-9.09183
▁प्रेरणा	-9.09257
▁प्रथम	-9.09296
▁पाहून	-9.09343
▁संस्कृती	-9.09347
▁अभ्यास	-9.09375
▁पाहा	-9.09458
ु	-9.09704
▁अभिमान	-9.09748
▁गती	-9.09854
▁ने	-9.09946
▁दर्शन	-9.10027
▁इथल्या	-9.10039
▁मत	-9.10117
▁जवळजवळ	-9.10347
िंग	-9.10348
▁लॉकडाऊन	-9.1035
▁गॅस	-9.10467
▁सागरी	-9.10579
▁पहिला	-9.10637
▁तुम्हा	-9.1064
▁खास	-9.10781
▁-19	-9.10783
▁समान	-9.10792
▁नकोस	-9.10879
▁साजरा	-9.10934
▁विशिष्ट	-9.10963
▁तपासणी	-9.10972
▁आई	-9.10998
व	-9.11112
▁प्रकारचे	-9.11184
▁शुद्ध	-9.11275
▁घटक	-9.11349
▁उभा	-9.11378
▁ओळख	-9.1141
▁भाषण	-9.11447
▁सत्य	-9.1152
▁असणाऱ्या	-9.11869
▁महत्त्वपूर्ण	-9.11869
▁गाव	-9.11938
▁समाज	-9.11962
▁उदाहरण	-9.1201
▁सातत्याने	-9.12035
वरील	-9.12077
▁याकोब	-9.12184
▁देईन	-9.12215
▁धोरणात्मक	-9.12339
▁26	-9.12554
▁पावले	-9.1257
▁त्याचबरोबर	-9.1258
▁तरतूद	-9.1268
▁स्टार्ट	-9.12834
▁व्हिडिओ	-9.12958
▁नेतृत्व	-9.12966
▁सरोवर	-9.13244
▁भविष्य	-9.1326
▁होण्याची	-9.13278
▁जन्म	-9.1331
▁वरिष्ठ	-9.13423
समोर	-9.13431
▁अहरोन	-9.13611
▁बळकट	-9.14029
▁के	-9.14158
▁मुलगे	-9.14213
▁मास्क	-9.14229
▁आदर	-9.14252
▁कोण	-9.14264
▁23	-9.14382
▁तास	-9.14413
▁27	-9.14418
▁सी	-9.14587
ण	-9.14653
▁परवानगी	-9.14692
▁जिल्हा	-9.14707
▁जमा	-9.14734
▁वा	-9.14751
▁आलो	-9.1484
▁दल	-9.14989
▁कपडे	-9.15011
▁पृथ्वीवर	-9.15016
▁विजय	-9.15033
▁जाणून	-9.15063
▁याचे	-9.15135
▁घडवून	-9.1519
▁बाबतीत	-9.15439
▁फूट	-9.15508
▁देशांमध्ये	-9.15528
▁होण्यासाठी	-9.15559
▁राम	-9.15583
▁नवे	-9.15597
▁कठीण	-9.15653
▁मधील	-9.15751
▁मारले	-9.15864
वा	-9.15884
▁विषय	-9.15887
▁पृथ्वी	-9.1613
▁कामगार	-9.16151
▁शहरात	-9.16259
▁अथवा	-9.163
ापर्यंत	-9.16615
▁सल्ला	-9.16999
▁उपयुक्त	-9.17071
▁प्रादेशिक	-9.17287
▁काहीही	-9.17429
ट	-9.1756
ाविषयी	-9.17851
▁यिर्मया	-9.17891
▁शकतील	-9.17896
▁अप	-9.17949
▁असलेला	-9.17951
▁सगळे	-9.17975
▁सकारात्मक	-9.18072
▁सैनिक	-9.1826
▁राजस्थान	-9.18404
▁धोका	-9.1843
ासह	-9.18499
▁जीव	-9.18575
जवळ	-9.18675
▁मुख्यमंत्री	-9.18755
▁कदाचित	-9.18766
▁किमान	-9.18789
▁करारावर	-9.18862
▁गंगा	-9.18967
▁अब्ज	-9.19105
▁गडकरी	-9.1911
▁दुसरा	-9.19117
▁मानवी	-9.19197
▁अंतराळ	-9.19273
▁प्रकार	-9.19568
▁ठरेल	-9.19599
▁महत्वाची	-9.19601
▁ठेवून	-9.19639
▁घेता	-9.19779
▁राहा	-9.19882
▁सुद्धा	-9.19965
▁जाणाऱ्या	-9.19967
▁बाब	-9.20047
▁परदेशी	-9.20102
▁असं	-9.20111
▁राजकीय	-9.20119
▁याबाबत	-9.20121
▁काश्मीर	-9.20196
▁माणसाला	-9.2025
▁प्र	-9.20516
▁नेले	-9.20524
▁सर्वोच्च	-9.20612
▁होय	-9.20802
▁ईशान्य	-9.20811
▁घेणे	-9.2096
▁कोणते	-9.2113
▁इतकी	-9.21323
▁आहार	-9.21445
▁29	-9.21932
▁औषधे	-9.2213
▁हल्ला	-9.22148
▁भगिनींनो	-9.22228
ख	-9.22232
ण्यात	-9.22455
▁तांत्रिक	-9.22504
▁प्रशासन	-9.22593
▁शिक्षक	-9.22768
▁आव्हान	-9.22799
▁बोलताना	-9.22858
▁भीती	-9.2296
▁अधोरेखित	-9.2301
▁उर्जा	-9.2312
▁राज्ये	-9.23272
▁ऑनलाईन	-9.23375
▁कर्करोग	-9.23406
▁असता	-9.23507
▁वजन	-9.23614
▁राहतील	-9.23821
▁तंत्रज्ञानाचा	-9.23844
▁घरे	-9.23882
▁कोणती	-9.23887
▁पौल	-9.23994
▁पार्श्वभूमीवर	-9.24082
▁करणारा	-9.24108
▁पाया	-9.2417
▁असल्यामुळे	-9.24244
▁कराराला	-9.24465
▁प्रस्ताव	-9.24489
▁मंदिराच्या	-9.24525
▁परमेश्वराचे	-9.24595
▁स्पर्धा	-9.24662
▁राजाला	-9.24709
▁समाधान	-9.2472
▁वार्षिक	-9.24818
▁कामे	-9.24847
▁डॉक्टर	-9.24884
▁प्रतिसाद	-9.24904
▁एखादा	-9.24949
▁त्यांच्यावर	-9.25076
▁आणण्यासाठी	-9.25165
▁गंभीर	-9.25275
▁टाकले	-9.25321
▁इ	-9.25355
शिवाय	-9.25369
▁सरकारचे	-9.25542
▁ज्यांना	-9.25556
▁नियमित	-9.25597
▁प्रत्यक्ष	-9.25609
▁शोक	-9.25623
▁कोणता	-9.25681
▁याला	-9.25801
▁खात्री	-9.25816
▁सूक्ष्म	-9.25824
▁दररोज	-9.26003
▁नायडू	-9.26005
▁एवढे	-9.26024
▁राजाने	-9.26106
▁बाल	-9.26138
ंसाठी	-9.26155
▁विमा	-9.26333
▁आयुष	-9.26335
▁स्मरण	-9.26725
▁देवदूत	-9.26742
▁जन	-9.26967
▁फळ	-9.27004
▁संचालक	-9.27128
▁हेच	-9.27165
▁संपत्ती	-9.27207
▁ग्राहक	-9.27275
ाना	-9.27415
▁रुपयांची	-9.27502
▁सरदार	-9.27593
▁कालावधीत	-9.27799
▁नाहीस	-9.27869
▁प्रतिनिधी	-9.27924
▁नसते	-9.28191
पैकी	-9.28208
णे	-9.28406
थील	-9.28455
▁राष्ट्राध्यक्ष	-9.28536
प	-9.2856
लेल्या	-9.28781
▁नको	-9.28797
▁प्रारंभ	-9.28898
▁क	-9.29087
ाहून	-9.29253
▁निरोगी	-9.29273
▁स्मार्ट	-9.29306
▁शांती	-9.29341
▁माता	-9.29367
▁देतात	-9.29461
▁जोडले	-9.29491
▁माझ्यावर	-9.2977
▁द्यावे	-9.29827
▁समिती	-9.29835
▁तरीही	-9.29897
▁जागी	-9.30086
▁मंच	-9.30168
▁आ	-9.30201
▁लोकशाही	-9.30213
▁आत्मा	-9.3022
▁द्वारे	-9.30243
▁याशिवाय	-9.30247
▁मीटर	-9.30278
▁पातळीवर	-9.30368
▁अंदाज	-9.30444
▁देण्याचे	-9.30452
ए	-9.30461
▁रक्कम	-9.30475
▁स्वतंत्र	-9.3049
▁देशभरातील	-9.30535
ंवर	-9.30567
▁ठेवला	-9.3057
▁स्थळ	-9.30579
▁आम्हांला	-9.30587
▁पाऊल	-9.30623
▁विशेषतः	-9.30633
▁पडले	-9.30779
▁सण	-9.30895
▁त्याच्यावर	-9.3103
▁निर्यात	-9.31251
▁द	-9.31301
ब	-9.3139
▁सांगितल्या	-9.31483
▁वंशज	-9.31515
▁सेवन	-9.31567
्य	-9.31793
▁सगळ्या	-9.31882
▁हृदय	-9.31882
▁स्वीकार	-9.31891
▁चांदी	-9.31951
▁क्षेत्राला	-9.31979
▁स्वाक्षऱ्या	-9.32085
▁असले	-9.32089
▁दहशतवाद	-9.32095
▁भाऊ	-9.32283
(	-9.32392
▁वाटचाल	-9.32406
ाबाबत	-9.32435
▁जपान	-9.3246
▁स्तुती	-9.32481
▁आपापल्या	-9.32482
▁दूध	-9.32584
▁प्रधान	-9.32733
▁हो	-9.32737
▁मिशन	-9.32786
▁प्राणी	-9.32889
▁शरीरात	-9.32979
▁मंडळ	-9.33138
सोबत	-9.33184
सी	-9.33345
▁सक्रिय	-9.334
▁पाहता	-9.33462
▁देणाऱ्या	-9.33524
▁जेवण	-9.33795
▁छोट्या	-9.33882
▁माल	-9.33882
▁नौदल	-9.33893
▁एस	-9.33948
▁कसा	-9.34003
ंगत	-9.34112
▁बनवले	-9.34118
ातल्या	-9.34265
▁परंपरा	-9.34301
▁भागीदार	-9.34314
▁नव्हता	-9.34388
▁आगामी	-9.34395
▁बचत	-9.34445
▁प्रवासी	-9.34474
▁2014	-9.34623
▁लागणार	-9.34632
▁सहमती	-9.34848
▁नुकसान	-9.34936
▁प्रिय	-9.34941
▁झालेले	-9.34951
ांपासून	-9.35116
तो	-9.35156
▁केलेली	-9.35166
▁गोळा	-9.35377
▁विधेयक	-9.35413
▁पहिले	-9.3557
▁ची	-9.36034
▁कुठल्या	-9.3616
▁सर्वशक्तिमान	-9.36226
▁पळ	-9.36312
▁हवी	-9.36318
▁निवडणूक	-9.36351
सारख्या	-9.36369
▁सर्वांनी	-9.36383
▁सहज	-9.36484
▁पाठविले	-9.3655
▁दिनानिमित्त	-9.3665
▁बी	-9.3685
▁सर्वाधिक	-9.36946
▁नावाने	-9.36957
पूर्ण	-9.37017
▁लिहिले	-9.37017
▁मार्गदर्शन	-9.37148
▁सर्वोत्तम	-9.37165
▁समुदाय	-9.37196
▁देखरेख	-9.3727
▁गाड्या	-9.37343
▁समृद्ध	-9.3735
▁ठेव	-9.3741
▁परिषदेच्या	-9.37462
▁मोबाईल	-9.375
▁आकार	-9.37511
▁एन	-9.37549
▁माजी	-9.37578
▁राहणाऱ्या	-9.37593
▁आत्म्या	-9.37798
▁संग्रहालय	-9.37812
▁एकाच	-9.38033
ानंतर	-9.38048
▁सोन्या	-9.38077
▁2022	-9.38268
ाकडून	-9.38447
▁तीव्र	-9.38581
▁जलद	-9.3868
▁मानसिक	-9.38753
▁असल्याने	-9.38828
▁२	-9.38891
▁पाहिजेत	-9.38958
▁एमएसएमई	-9.3897
▁राहून	-9.38999
▁दिन	-9.39043
▁परीक्षा	-9.39185
▁2016	-9.39406
▁सौंदर्य	-9.39426
ांमुळे	-9.39586
▁लागतो	-9.39608
▁मानव	-9.3962
▁अहवाल	-9.39636
▁युद्ध	-9.39673
▁यहोशवा	-9.39676
▁मिळू	-9.39695
▁योजनेच्या	-9.3976
▁दरवर्षी	-9.39779
▁अनुदान	-9.39879
▁प्रमाणावर	-9.39917
▁करण्याबाबत	-9.3999
तरी	-9.40005
ांमधील	-9.40111
केंद्रशासित	-9.4012
▁लढा	-9.40154
▁किंमत	-9.40176
▁वडील	-9.40181
▁आलेले	-9.40183
▁शारीरिक	-9.40191
▁देशाची	-9.4026
▁पाठिंबा	-9.40394
▁आत्मनिर्भर	-9.40411
पुढे	-9.4049
▁ठेवण्यासाठी	-9.40655
▁किमी	-9.40685
▁वर्षाच्या	-9.40692
▁घडले	-9.40816
▁वर्ग	-9.40827
▁बाजार	-9.40879
▁प्रदर्शन	-9.40894
▁विकासाच्या	-9.40914
▁पूजा	-9.40981
▁क्षेत्रातल्या	-9.4103
o	-9.41046
▁राग	-9.41185
▁रोखण्यासाठी	-9.41243
▁विद्यार्थ्यांना	-9.41258
▁शांत	-9.41403
▁काल	-9.41453
▁जमिनीवर	-9.41458
टी	-9.41551
डी	-9.41631
▁घेतलेल्या	-9.41699
▁संकल्पना	-9.41786
▁बोलला	-9.41842
▁टपाल	-9.41853
▁वेतन	-9.41982
▁विरुद्ध	-9.4204
▁कुमार	-9.42114
▁गरजा	-9.42209
▁रुग्णालय	-9.4226
▁भयंकर	-9.42284
▁मेट्रो	-9.42433
▁सहकारी	-9.42591
▁राज्यपाल	-9.42794
▁कोणत्या	-9.42973
▁अन्नधान्य	-9.43042
▁यासंदर्भात	-9.43048
▁40	-9.43066
▁दिसत	-9.4308
▁चिंता	-9.43116
रा	-9.43126
▁स्वतः	-9.4314
,000	-9.43247
▁लोकांसाठी	-9.43289
▁नवा	-9.43359
▁जरी	-9.43415
▁गेलो	-9.43541
▁आसियान	-9.43596
▁युवक	-9.43641
▁राज्यांना	-9.43659
▁ज्यात	-9.43676
▁नेते	-9.43718
▁निघून	-9.43776
लो	-9.4378
▁शहरी	-9.43793
▁मूर्ख	-9.43875
▁ब	-9.43879
▁वेगवेगळ्य	-9.43968
▁देशांना	-9.44
▁नोंद	-9.44021
▁जीवनात	-9.4426
▁रुपयांच्या	-9.44357
▁गरम	-9.44523
▁जमिनी	-9.44622
▁समजून	-9.44706
▁रुग्णाला	-9.44759
ण्यासाठी	-9.44983
▁इस्राएलचा	-9.45032
▁कोळसा	-9.45057
▁खासगी	-9.45068
▁म्हणाली	-9.45111
▁ह्याच्या	-9.45132
▁बिहार	-9.45149
▁पोट	-9.4515
▁देशांनी	-9.45197
▁उद्घाटन	-9.45258
▁खरोखरच	-9.45274
▁यांच्यातील	-9.45345
▁स्वामी	-9.45424
▁काढले	-9.45507
▁व्यापारी	-9.45551
▁मुली	-9.45674
▁पाहत	-9.45678
▁म	-9.45691
▁योजनेचा	-9.45742
▁पाहू	-9.45829
▁देण्याच्या	-9.45832
▁समाविष्ट	-9.46128
▁डॉलर्स	-9.46181
▁खोटे	-9.46226
▁बारा	-9.46273
▁असत	-9.46296
▁वेदी	-9.46315
▁परिषदेचे	-9.46519
▁आठ	-9.46572
▁कार्यकारी	-9.46602
▁समन्वय	-9.46626
▁गरजेचे	-9.46627
तल्या	-9.46681
▁मंडळी	-9.4674
▁आशिया	-9.46789
▁येथून	-9.46802
▁जाण्यासाठी	-9.46833
▁देशांतर्गत	-9.4703
▁जहाज	-9.47089
▁भागातील	-9.47098
▁कुठे	-9.47116
▁अशुद्ध	-9.47224
विरुद्ध	-9.47266
▁दृष्टीकोन	-9.47298
▁मुंबईत	-9.47329
▁वृक्ष	-9.4743
▁केल्याने	-9.4748
▁पोलीस	-9.47682
▁आराखडा	-9.47697
▁जोडणी	-9.47698
▁यावे	-9.47809
▁अमित	-9.4791
▁म्यानमार	-9.47969
▁सर्वेक्षण	-9.48067
▁पिता	-9.48145
▁गावात	-9.48435
▁ज्यांनी	-9.48442
▁यांच्याशी	-9.48442
▁आराम	-9.4846
▁सदैव	-9.48562
▁कंपन्या	-9.48608
▁साली	-9.48715
▁आकाश	-9.4873
▁ईयोब	-9.48787
▁त्याचप्रमाणे	-9.48861
▁बळी	-9.49057
▁मंजूर	-9.49124
▁उत्पादक	-9.49194
▁वेग	-9.49286
▁पंतप्रधानांचे	-9.49415
▁कर्नाटक	-9.49425
ापेक्षा	-9.49532
▁नेपाळ	-9.49664
▁क्षेत्रामध्ये	-9.49667
▁75	-9.49688
▁मार्गावर	-9.49719
▁ठेवण्यात	-9.49825
▁कृपा	-9.49917
▁करण्यावर	-9.49959
▁केंद्रित	-9.49986
▁विक्री	-9.50004
▁निर्देश	-9.50064
▁घालून	-9.50193
▁आयुष्यात	-9.50232
▁केस	-9.50273
▁दूत	-9.50416
के	-9.50419
▁याविषयी	-9.50419
▁झारखंड	-9.50437
▁अर्थव्यवस्थे	-9.50471
▁मिळून	-9.5048
▁रस	-9.50485
▁यावर्षी	-9.50531
▁वाहन	-9.5055
▁वारसा	-9.50557
▁70	-9.50575
▁येणे	-9.50613
री	-9.50615
▁झाल्यानंतर	-9.50625
▁माध्यम	-9.50627
▁वाटेल	-9.50782
▁सांगून	-9.50798
▁आर	-9.50875
▁त	-9.50982
▁विशाल	-9.51003
▁विकासाला	-9.51039
▁सारख्या	-9.51107
▁बंदर	-9.51251
▁म्हणणे	-9.5129
▁याच्या	-9.51297
▁जीएसटी	-9.51308
▁दुसरे	-9.51313
▁मूळ	-9.51344
▁सज्ज	-9.51353
▁कला	-9.51485
▁आदर्श	-9.51518
▁देतील	-9.51614
▁परिस्थितीत	-9.51665
▁उपकरणे	-9.51672
▁आजच्या	-9.51744
▁मधुमेह	-9.51783
▁दान	-9.51839
▁राजधानी	-9.51859
तः	-9.51877
▁वाढवण्यासाठी	-9.51993
▁पी	-9.52004
▁जगाला	-9.52028
ते	-9.52149
▁केल्यानंतर	-9.52222
▁मदतीने	-9.52232
▁उत्सव	-9.52291
▁राजाच्या	-9.52344
▁विभागाच्या	-9.52428
▁लागली	-9.5245
▁लागत	-9.5249
▁सिद्ध	-9.52542
▁रस्ता	-9.52574
ांसह	-9.5263
▁तयारी	-9.52659
▁नव	-9.52848
▁त्यातून	-9.52848
▁बस	-9.52888
▁महत्वाचा	-9.52896
▁ये	-9.52897
▁उत्पादने	-9.52902
▁जुन्या	-9.52917
▁नवीकरणीय	-9.52932
in	-9.52997
▁तिसऱ्या	-9.53145
▁उद्देशाने	-9.53146
▁साधन	-9.53339
▁गोयल	-9.53388
▁संघटना	-9.53398
▁समूह	-9.53463
▁सांगा	-9.53467
▁केल्याबद्दल	-9.53515
▁ऐकू	-9.53556
▁विश्व	-9.53578
▁जेणेकरून	-9.53617
▁मानतो	-9.53648
▁भरपूर	-9.53649
▁शिकवण	-9.53744
▁विशेषत	-9.53792
▁मोशेने	-9.53846
▁अभ्यासक्रम	-9.53866
▁संख्येने	-9.53896
▁उंचीवर	-9.53936
▁लग्न	-9.53938
से	-9.54067
▁इच्छितो	-9.54095
▁संवर्धन	-9.541
बी	-9.54127
▁तक्रार	-9.54184
▁शपथ	-9.54239
▁पात्र	-9.54294
▁देण्याचा	-9.5439
▁कठोर	-9.54477
नीय	-9.54545
▁60	-9.5463
▁पाठवले	-9.54666
▁मंत्र्यांनी	-9.54749
▁१	-9.54781
▁दिल्‍ली	-9.548
▁डोळे	-9.54809
▁तेथून	-9.54827
वरुन	-9.54831
▁वृद्धी	-9.54851
▁केरळ	-9.54879
▁बरेच	-9.54955
ावरील	-9.55001
▁बाजारपेठ	-9.55013
▁टी	-9.55039
▁झोप	-9.55063
▁बांधले	-9.55064
▁शिष्य	-9.55142
▁योसेफ	-9.55239
▁निसर्ग	-9.55266
▁मधे	-9.55361
▁डी	-9.55436
▁पेट्रोलियम	-9.55517
▁पटेल	-9.55528
▁लगेच	-9.55529
▁सोबत	-9.5562
▁दया	-9.55647
▁मूल	-9.55698
▁गुलाम	-9.55722
▁प्रकारची	-9.55738
▁व्हावी	-9.55799
▁क्रमांक	-9.55983
▁शुभारंभ	-9.56001
▁सांगण्या	-9.56224
▁लांबी	-9.56261
▁खत	-9.5631
▁प्रदेशातील	-9.56321
▁भगवान	-9.56499
▁स्रोत	-9.56499
▁झालेली	-9.56515
▁इतक्या	-9.56552
▁कलम	-9.56831
▁देशाचे	-9.56894
"	-9.56946
▁हाच	-9.57009
▁ठेवली	-9.57031
▁झाल्याचे	-9.57067
▁होण्याचा	-9.57259
▁वाढेल	-9.57297
▁जोर	-9.57301
▁जंगल	-9.57366
▁सांगू	-9.5743
▁भाषा	-9.57446
▁कशा	-9.57581
▁पीक	-9.57615
▁मागील	-9.57638
▁करायची	-9.57711
▁मार्गाने	-9.57814
▁आदेश	-9.57873
▁अलीशा	-9.57922
▁मोफत	-9.57947
▁झालो	-9.5795
▁क्षमा	-9.57957
श	-9.5799
▁हजारो	-9.58031
▁पेत्र	-9.58082
▁अडचणी	-9.58316
▁त्यापैकी	-9.58507
▁त्याप्रमाणे	-9.58767
▁बनले	-9.58832
▁३	-9.59013
▁सरकारला	-9.59104
▁उत्साह	-9.59147
▁जिल्ह्यात	-9.59147
ानुसार	-9.59167
▁हक्क	-9.59189
▁मिळतो	-9.59236
▁परराष्ट्र	-9.59314
▁राज्यातील	-9.59375
▁उत्तरे	-9.59389
पूर्वक	-9.59468
▁सर्वसमावेशक	-9.59531
▁मुळे	-9.59767
▁रुपयांचे	-9.598
ंत	-9.59826
▁अर्ज	-9.59902
▁पायाभरणी	-9.59935
▁जावडेकर	-9.60186
▁द्यायला	-9.6019
▁`	-9.60278
▁बचाव	-9.60479
▁वेगळे	-9.60666
▁मंत्रिमंडळाच्या	-9.60937
▁विभागाने	-9.60937
▁जनतेच्या	-9.60965
▁ज्यामध्ये	-9.61151
▁नीती	-9.61208
▁तशी	-9.61295
e	-9.61412
▁कशी	-9.61558
▁खेळ	-9.61694
▁ताप	-9.61696
▁भवन	-9.61729
▁स्वर्गात	-9.61835
▁देवी	-9.61871
▁ह्याला	-9.61975
▁पडला	-9.62
▁अर्थसंकल्प	-9.62091
▁शुल्क	-9.62361
▁कराल	-9.62367
▁लावले	-9.62406
▁ह्याचा	-9.6242
▁कोविंद	-9.62477
▁अश्शूर	-9.62477
▁भेटी	-9.62558
▁राहत	-9.62662
▁2019-20	-9.62772
▁तसा	-9.62772
दार	-9.62825
▁इतका	-9.62867
▁वाराणसी	-9.62869
▁राहतात	-9.62889
▁त्याबद्दल	-9.62924
▁आयोगाने	-9.62967
▁योहान	-9.63053
▁स्पर्श	-9.63062
▁दृश्य	-9.63076
▁चीन	-9.63101
▁धार्मिक	-9.63145
▁जयंती	-9.6321
▁अपेक्षित	-9.63252
▁2018-19	-9.63266
▁श्वास	-9.6327
▁ऐकून	-9.6327
▁ह्यांच्या	-9.63294
▁शासन	-9.63496
▁अधिकाधिक	-9.63511
▁देते	-9.63554
▁वाटले	-9.6361
थ	-9.63646
▁अंत	-9.63831
▁वतीने	-9.63867
▁विभागाचे	-9.63996
▁असणार	-9.64002
▁प्रचंड	-9.64033
▁भाव	-9.64043
▁झालेला	-9.64087
▁संघ	-9.64124
▁माती	-9.64154
▁आश्वासन	-9.64243
▁देशाचा	-9.64334
▁माझ्यासाठी	-9.64339
▁वाटा	-9.64369
▁जास्तीत	-9.64371
▁नगरात	-9.64451
▁क्षमते	-9.64552
▁उदयोग	-9.64558
▁राज्यांमध्ये	-9.64636
▁चाचण्या	-9.64657
▁सु	-9.6471
▁शेवटी	-9.6481
▁यार्देन	-9.6482
▁आधारे	-9.64896
ांकडे	-9.64902
▁सर्वजण	-9.6496
▁साथी	-9.65039
▁तेच	-9.65132
▁नियमशास्त्र	-9.65214
ांपेक्षा	-9.65223
▁विकत	-9.65345
▁पाण्या	-9.65368
▁साथ	-9.65405
▁यातून	-9.655
सारखा	-9.6551
▁लढाई	-9.65524
▁मुलाला	-9.65528
▁प्रशासकीय	-9.6563
▁ज्येष्ठ	-9.65722
▁सह	-9.65741
▁असावे	-9.65761
▁मुला	-9.65778
▁केंद्रे	-9.65779
चं	-9.6579
▁आघाडी	-9.6581
▁कायद्या	-9.65824
▁पोषण	-9.65859
▁दुप्पट	-9.65881
▁नव्हती	-9.65882
▁ऐका	-9.65957
▁कोणाला	-9.66065
भारत	-9.66071
▁घट	-9.661
▁पुनरुच्चार	-9.66147
▁दाखल	-9.66154
▁कॉन्फरन्सिंग	-9.66154
▁राज	-9.66206
▁एकात्मिक	-9.66348
▁पाण्यात	-9.66358
▁आनंदी	-9.66402
▁कुणी	-9.66415
ळ	-9.66438
▁कोरिया	-9.66455
▁सहकार्याने	-9.66524
▁प्रतिबंध	-9.66536
▁ऐक	-9.66538
▁सरळ	-9.66695
▁लोकांमध्ये	-9.66744
▁टप्प्यात	-9.66868
▁ताकद	-9.66893
▁उपासना	-9.66959
▁व्हायला	-9.66963
▁वसलेल	-9.66982
▁व्यक्तीला	-9.67139
▁जय	-9.67169
▁लोकांवर	-9.67179
▁मान्यवर	-9.67191
▁अधिकाऱ्यांना	-9.67252
▁महिलांना	-9.67459
▁पक्षी	-9.67478
▁रोजगाराच्या	-9.67519
▁विदेशी	-9.67556
▁अब्राहाम	-9.67618
स्थापित	-9.67717
▁बसून	-9.67729
▁वर्षांपूर्वी	-9.67765
▁वैयक्तिक	-9.67786
▁पर्वतावर	-9.67872
▁विरोधात	-9.67931
▁सर्वांचे	-9.68074
▁असला	-9.68077
▁महत्त्वाचे	-9.68111
▁१०	-9.68186
▁शलमोन	-9.68406
▁इफ्फी	-9.68469
▁करारामुळे	-9.68474
▁५	-9.6855
▁आसाम	-9.68552
▁कित्येक	-9.68582
▁अटल	-9.68584
▁असणे	-9.68589
▁मदतीसाठी	-9.68622
ात्मक	-9.68641
▁अमेरिके	-9.68668
▁प्रति	-9.68717
▁अंदाजे	-9.68776
C	-9.68795
▁अधिकाऱ्यांनी	-9.6887
▁पुढाकार	-9.6907
▁दिग्दर्शक	-9.69104
▁वंचित	-9.69115
▁परकीय	-9.69131
▁हून	-9.69167
▁प्रकाशन	-9.69324
▁पुस्तक	-9.69329
▁मांस	-9.69467
▁पुढीलप्रमाणे	-9.69516
▁ओळखले	-9.69585
▁उत्कृष्ट	-9.69672
▁बळ	-9.69677
▁आदान	-9.69681
▁सामायिक	-9.69685
▁मालदीव	-9.69695
▁नॅशनल	-9.69723
▁निरोप	-9.69778
▁पोर्टल	-9.69963
बरोबरच	-9.70122
▁अंतिम	-9.70243
पी	-9.70271
▁हातात	-9.70273
▁भव्य	-9.70278
▁लोकांशी	-9.70336
▁कालावधी	-9.70418
▁रोज	-9.70444
▁बंगाल	-9.70507
▁2015	-9.70538
▁आपणा	-9.70565
▁राहात	-9.70644
मधे	-9.70685
▁लिमिटेड	-9.70823
▁विद्यार्थ्यां	-9.70881
!	-9.70963
▁तामिळनाडू	-9.7102
▁भोजन	-9.71023
▁आकर्षित	-9.71075
▁कमतरता	-9.71075
▁पोलाद	-9.71088
▁नक्कीच	-9.71204
▁योजने	-9.71212
▁व्यायाम	-9.71353
▁वाटतो	-9.7148
▁अति	-9.71524
▁दरात	-9.7166
युक्त	-9.71731
▁कोठे	-9.72043
▁आजही	-9.72093
▁होण्या	-9.72103
▁प्राथमिक	-9.72126
▁धर्म	-9.72147
▁दळणवळण	-9.72167
▁बायको	-9.72201
▁व्हावा	-9.72209
▁लोकसंख्या	-9.72226
▁सिंचन	-9.7235
▁बौद्ध	-9.72466
▁हिज्कीया	-9.72491
▁मवाब	-9.7255
▁त्यांच्यासाठी	-9.72845
▁युवकांना	-9.72867
▁करणारी	-9.72901
▁ठेवू	-9.73013
▁खालील	-9.73013
▁जैव	-9.73063
▁आयात	-9.73088
▁मिळवून	-9.73106
▁गोवा	-9.73109
▁त्याग	-9.73117
▁प्राण	-9.73125
▁राजे	-9.73151
तात	-9.73223
▁वेगवेगळ	-9.73272
▁थोडे	-9.73286
▁पि	-9.73299
▁इंधन	-9.73316
▁नगरी	-9.73355
▁माणसांना	-9.73513
▁प्रयोग	-9.7354
▁बसला	-9.73546
▁कटिबद्ध	-9.73552
▁म्हणत	-9.7357
▁करतांना	-9.73596
▁ओदिशा	-9.73607
▁फळे	-9.73843
▁विषयावर	-9.73946
▁दुसर्या	-9.73949
▁कामकाज	-9.73966
▁उंची	-9.74154
▁माहित	-9.74175
▁देशासाठी	-9.74201
▁लक्षणे	-9.74245
▁स्मारक	-9.74265
▁आयुर्वेद	-9.74287
▁त्याशिवाय	-9.74312
▁क्षेत्रांमध्ये	-9.74416
▁खाण्या	-9.74455
▁मुलगी	-9.74502
▁मेट्रिक	-9.74513
▁चित्र	-9.74539
▁कार्ड	-9.74542
सा	-9.74603
▁असल्याची	-9.74623
i	-9.74686
▁साजर	-9.74748
▁मध	-9.74768
▁सुटका	-9.74789
▁रेल्वेने	-9.74877
▁पसरलेल	-9.74999
▁मर्यादित	-9.75082
▁यापैकी	-9.75102
▁उत्तराखंड	-9.75128
▁लागतात	-9.75175
पणा	-9.75198
▁हरियाणा	-9.75352
▁यापूर्वी	-9.75359
▁कान	-9.75409
ार	-9.75419
▁म्हणाल्या	-9.75436
▁रुग्णालयात	-9.75544
▁आलेला	-9.75608
▁त्यांच्याशी	-9.7566
▁जोडण्या	-9.75665
▁याने	-9.75692
▁संकटे	-9.7572
▁लाखो	-9.75818
▁आणून	-9.75894
कर	-9.75943
▁भ्रष्टाचार	-9.75987
▁यरुशलेममध्ये	-9.76016
णार	-9.76035
▁त्यामध्ये	-9.76037
▁सेंटर	-9.76057
▁राहावे	-9.76068
▁तिचे	-9.76125
▁असाल	-9.76162
▁हमी	-9.76184
▁महासंचालक	-9.76262
▁वाढते	-9.76293
▁घेण्याची	-9.76346
▁रुपयांचा	-9.76361
▁धन	-9.76374
▁सरकारचा	-9.76406
्‍या	-9.76408
▁श्रम	-9.76548
▁घटना	-9.76563
▁तळ	-9.76724
▁शिवाय	-9.76731
▁आकर्षण	-9.76824
▁गृहमंत्री	-9.76856
▁ठेवणे	-9.76871
▁आढळले	-9.76875
▁रथ	-9.76903
ंपैकी	-9.76929
करिता	-9.77001
▁अँड	-9.77074
▁अहाब	-9.77144
▁इस्राएली	-9.77228
▁स्वरूपात	-9.77298
▁उद्योजक	-9.77372
%	-9.7747
▁पहिली	-9.77472
▁मात	-9.77534
▁दिलेले	-9.77563
▁हिमाचल	-9.77584
▁राज्यांच्या	-9.77632
▁शहरे	-9.77656
▁श्रीमंत	-9.77706
▁नियोजन	-9.77708
▁मनश्शे	-9.77741
▁प्रसंगी	-9.77817
▁शेतात	-9.7797
▁पदक	-9.77984
▁घेतो	-9.77999
▁गुरु	-9.78005
▁क्रांती	-9.78024
ह	-9.78049
▁सिंगापूर	-9.78141
▁सोडले	-9.78269
I	-9.78339
▁दुसरी	-9.78339
ाबरोबर	-9.7834
▁प्राधिकरण	-9.78372
▁वेळेवर	-9.78372
▁कर्तव्य	-9.78388
▁वंशातील	-9.7843
▁हीच	-9.78519
▁मान्य	-9.78532
▁मृत	-9.78649
▁अशाप्रकारे	-9.7868
▁तिचा	-9.78779
▁राहिली	-9.78792
विरुध्द	-9.78887
▁निरंतर	-9.78948
▁सायबर	-9.78949
▁राजनाथ	-9.78961
▁सुधारित	-9.78965
▁त्याच्याकडे	-9.79044
▁वृद्धि	-9.79164
▁स्वतःला	-9.7921
▁500	-9.79228
▁ह्याचे	-9.7928
▁भाकरी	-9.79284
▁रीतीने	-9.79332
पर	-9.79343
▁हित	-9.79466
वे	-9.79543
▁महिन्याच्या	-9.79554
▁शमुवेल	-9.79557
संदर्भात	-9.79577
▁श्रेणी	-9.79605
▁भूतान	-9.7962
▁आण	-9.79684
▁पंजाब	-9.7971
▁महाविद्यालय	-9.7978
▁संध्याकाळी	-9.7979
▁कष्ट	-9.79844
▁व्हिडीओ	-9.79868
▁तज्ञ	-9.7987
▁पैसा	-9.79871
▁लोकार्पण	-9.79874
▁दिशा	-9.79892
▁संगीत	-9.79927
▁बुद्ध	-9.79929
▁उपग्रह	-9.79934
▁लोकप्रिय	-9.80009
पूर	-9.80012
ांहून	-9.80044
▁त्वरित	-9.80178
▁केलं	-9.80182
▁दाखवले	-9.80195
▁फारो	-9.80225
▁दुरुस्ती	-9.80255
▁लावून	-9.80291
a	-9.80319
▁दलाच्या	-9.80414
ांपर्यंत	-9.80459
▁स्थानक	-9.80463
▁रद्द	-9.80478
▁निदान	-9.80674
1	-9.80684
▁आव्हाने	-9.80731
▁विभागात	-9.80774
▁थंड	-9.80793
▁त्यातील	-9.80805
▁आयोगाच्या	-9.80862
▁महाल	-9.80921
▁पुढच्या	-9.81064
▁कल्याणासाठी	-9.81146
▁एकत्रितपणे	-9.81147
▁निवडले	-9.8128
▁संसदे	-9.81325
▁दिव्यांग	-9.81355
▁2017-18	-9.81409
▁मनापासून	-9.81502
▁राहतो	-9.81518
▁रचना	-9.81583
▁देणारे	-9.81644
▁लक्षणीय	-9.81744
दा	-9.81801
▁साखळी	-9.81822
▁झाल्यामुळे	-9.8183
वेळी	-9.81921
▁अद्ययावत	-9.81997
▁दृष्टिकोन	-9.82016
▁अवस्थेत	-9.82017
▁भारतामध्ये	-9.82037
▁नावे	-9.82243
▁मंत्र	-9.8248
अ	-9.8253
▁माग	-9.82629
▁पाऊस	-9.82658
▁सोपे	-9.82659
▁मंत्रालयाचे	-9.82667
▁देताना	-9.82835
▁शेत	-9.82853
▁भारतासाठी	-9.82861
▁एअर	-9.82888
▁आधीच	-9.82904
ंट	-9.82963
▁अमेरिका	-9.82987
▁प्रीति	-9.83034
▁नितीन	-9.8304
▁दार	-9.83048
▁दरी	-9.83085
का	-9.83177
▁पलिष्ट्यां	-9.83196
▁ह्याने	-9.83214
ः	-9.83255
S	-9.83266
▁निवास	-9.83312
▁आपल्याकडे	-9.83355
▁रशिया	-9.83408
▁सोने	-9.8344
▁प्रकल्पांचे	-9.83462
▁उप	-9.83514
▁मोहीम	-9.83525
▁किंमती	-9.83531
▁रसायन	-9.83556
▁केलेला	-9.83675
िया	-9.83817
▁इंडिय	-9.83822
सुध्द	-9.83932
ाजवळ	-9.83935
▁पत्रकार	-9.83949
▁शहा	-9.83954
▁संदेष्टा	-9.83963
▁घे	-9.84013
▁वेळेत	-9.84053
▁पक्ष	-9.8407
▁पद	-9.84091
.”	-9.84183
▁सांगितली	-9.84258
▁मालक	-9.84262
▁स्वरूप	-9.84263
शाली	-9.84265
▁उपराष्ट्रपतींनी	-9.84329
▁वीर	-9.84358
▁फ्रान्स	-9.84418
▁घेतल्या	-9.84537
▁पॅकेज	-9.8457
एक	-9.84615
▁लढाईत	-9.84627
▁राष्ट्रपतींनी	-9.84712
▁ह्यामुळे	-9.8472
▁खात्यात	-9.8477
▁सत्ता	-9.84887
▁आदरांजली	-9.84888
▁चालत	-9.84888
▁हर्ष	-9.8497
▁उभारणी	-9.8502
▁दिसते	-9.85064
▁जाणीव	-9.85203
▁उदय	-9.85258
▁साकार	-9.85424
▁कुशल	-9.85501
▁कमीत	-9.85501
▁दात	-9.85502
▁पाहायला	-9.85537
भूत	-9.85545
▁महत्त्वाची	-9.85603
▁बोलतो	-9.85682
▁ओ	-9.85746
▁जयंतीनिमित्त	-9.85862
▁कृत्रिम	-9.8587
▁धन्यवाद	-9.86127
▁दखल	-9.86185
▁गृहनिर्माण	-9.86191
▁टप्पा	-9.86201
▁तुमच्यावर	-9.86205
19	-9.86268
▁क्षेत्रासाठी	-9.86273
▁पोलिस	-9.86332
▁पडू	-9.86399
▁वय	-9.86443
▁औषधी	-9.86495
▁घ्यायला	-9.86512
▁एलीया	-9.86556
▁खोल	-9.86625
▁देशांमधील	-9.86629
▁परिसरात	-9.86653
▁पर्यटकांना	-9.86664
▁उद्योगांना	-9.86704
▁शंभर	-9.86718
▁कार्यक्रमाला	-9.86747
▁अवश्य	-9.86839
▁नबुखद्नेस्सर	-9.87168
▁दौरा	-9.87175
▁वर्धन	-9.87208
▁उद्यानात	-9.8725
▁साहित्य	-9.87312
▁स्तंभ	-9.87334
▁घेतात	-9.87449
▁प्रमाणे	-9.87588
A	-9.87744
▁सर्वांसाठी	-9.8778
▁स्थिर	-9.87808
▁बैल	-9.87815
▁देता	-9.87843
▁नि	-9.8786
▁पार्क	-9.87885
▁आकांक्षा	-9.87963
फ	-9.87965
वी	-9.8801
▁वरील	-9.88099
ांबरोबर	-9.88137
▁ताब्यात	-9.88161
▁सामान	-9.88246
▁कारवाई	-9.88283
▁रस्त्यावर	-9.88461
▁ठेवतो	-9.88624
▁जाळे	-9.88658
ांमधून	-9.88732
▁झाडे	-9.88734
▁२०	-9.88738
▁उड्डाण	-9.88794
▁पाण्याने	-9.88807
▁एफ्राईम	-9.8883
▁गावे	-9.88835
▁सल्लागार	-9.88836
▁करायचा	-9.88839
▁मिसळून	-9.88844
ांबद्दल	-9.88844
▁वस्त्रोद्योग	-9.88845
▁बाजारात	-9.88917
▁200	-9.88923
▁३०	-9.88932
▁नगरे	-9.88973
▁खाऊ	-9.89065
▁पत्नी	-9.891
▁निवारण	-9.89107
▁साखर	-9.89163
▁दैनंदिन	-9.89164
▁सविस्तर	-9.89165
▁व्यवस्थे	-9.89195
▁मैल	-9.89327
रित्या	-9.89351
2	-9.89417
▁प्रतीक	-9.89478
▁कथा	-9.89507
▁कायदे	-9.89518
▁जगाच्या	-9.89527
▁सामोर	-9.89539
▁मुद्रा	-9.89542
▁छोटे	-9.89546
▁अग्नी	-9.89591
▁तिची	-9.89638
▁लक्षण	-9.89703
▁यंदा	-9.89842
▁समृद्धी	-9.89943
▁स्वाक्षरी	-9.89997
▁किनार्यावर	-9.90138
▁तुमच्याकडे	-9.9025
▁डोंगरावर	-9.9044
▁महसूल	-9.90459
▁अत्याधुनिक	-9.90518
▁बनवण्यासाठी	-9.90535
▁जायचे	-9.90556
▁आठवड्यात	-9.90582
▁डॉलर	-9.90701
▁शहाणपण	-9.90742
▁उलट	-9.90847
▁द्राक्षारस	-9.90859
▁संस्थांना	-9.90868
▁घोषित	-9.90897
▁असणारे	-9.90929
▁ख्रिस्ता	-9.90935
▁शेवट	-9.91039
▁150	-9.91074
▁फॉर	-9.91094
▁होण्याच्या	-9.91138
ग	-9.91173
▁कर्मचाऱ्यांना	-9.91213
▁शेजारी	-9.91238
ंग	-9.91284
▁बहु	-9.91459
सारखी	-9.91484
▁सक्रीय	-9.91545
एस	-9.91568
▁सरकारची	-9.91605
मन	-9.91617
▁तुमच्यासाठी	-9.91654
▁पुणे	-9.91731
▁६	-9.91816
▁अद्भुत	-9.91894
गत	-9.919
▁पड	-9.91932
▁सौदी	-9.91945
▁जाण्याची	-9.92026
▁कामा	-9.92071
▁मैत्री	-9.92092
▁सुवर्ण	-9.92113
▁सर्वसामान्य	-9.92185
▁केल्यामुळे	-9.9222
▁अत्यावश्यक	-9.9224
▁महामारी	-9.92258
▁वाढली	-9.923
▁वाजता	-9.923
आय	-9.92301
नो	-9.92315
▁व्यतिरिक्त	-9.92419
▁मेक	-9.92431
▁ग	-9.92568
▁मूलभूत	-9.92591
▁व्याप्ती	-9.92607
▁आशियाई	-9.92621
▁बऱ्याच	-9.92633
▁ठरणार	-9.92641
▁चालले	-9.92654
▁राहते	-9.9268
▁परिषदेला	-9.92829
▁पशू	-9.92999
▁उभारण्यात	-9.93096
▁विषयी	-9.93101
▁त्यानुसार	-9.93124
▁कोश	-9.93177
▁समुद्रात	-9.93204
▁वर्षांच्या	-9.93223
▁पद्धत	-9.93241
▁युध्द	-9.93263
▁४	-9.93304
▁बोलणे	-9.93335
▁शहरांमध्ये	-9.93456
▁प्रामाणिक	-9.9346
▁प्रतिमा	-9.9347
▁दहशतवादी	-9.93539
▁मार	-9.93755
▁कोणालाही	-9.9376
▁अधिकृत	-9.94007
▁पिक	-9.94094
▁आकाशात	-9.941
▁जाती	-9.94154
▁शाळा	-9.94235
▁संस्थेच्या	-9.94305
▁खोट्या	-9.9437
▁समर्थन	-9.94386
▁बँकिंग	-9.94433
▁गुण	-9.94458
▁स्पर्धेत	-9.94465
▁किसान	-9.94489
▁यादी	-9.94561
▁जाणे	-9.94574
▁शोमरोन	-9.94693
▁तोडगा	-9.94693
▁चौथ्या	-9.94695
▁कळेल	-9.94697
▁जणू	-9.94778
एल	-9.94786
मान	-9.94872
▁एकच	-9.95016
▁बाबी	-9.95067
ांत	-9.95067
▁आयआयटी	-9.95095
▁अफगाणिस्तान	-9.95099
▁जनता	-9.95131
▁संत	-9.95186
▁शेवटच्या	-9.95187
▁बोलतांना	-9.95272
▁सहकार्यासाठी	-9.95308
▁सा	-9.95309
▁तोच	-9.95339
▁घातले	-9.95364
▁पाठलाग	-9.95406
▁निर्धारित	-9.95471
▁पंतप्रधानांना	-9.95527
▁पट	-9.95634
▁विस्तृत	-9.95764
▁आसपास	-9.95764
▁नाविन्यपूर्ण	-9.95767
▁पोषक	-9.95774
▁आळा	-9.95785
▁यहूदाचा	-9.95785
▁उजव्या	-9.95808
▁तुझ्यावर	-9.95925
▁होणारा	-9.95933
▁उठ	-9.96017
▁रेल्वेच्या	-9.96063
▁पाठबळ	-9.96126
▁तत्व	-9.96127
▁खऱ्या	-9.96137
▁वेबिनार	-9.96139
▁घ्यावी	-9.96185
▁बाजू	-9.9625
▁धरण	-9.9639
▁पिढी	-9.96481
▁गुणवत्ता	-9.96487
ोपरी	-9.96487
▁असेच	-9.96492
▁अपराध	-9.96505
▁आश्चर्य	-9.96599
▁नियमन	-9.9662
▁संस्थांच्या	-9.96625
▁ठरवले	-9.96653
▁गाडी	-9.96693
दरम्यान	-9.96766
▁प्रती	-9.96809
▁दाखव	-9.96843
▁उचलली	-9.96862
▁स्थलांतरित	-9.96881
▁हिंदी	-9.96912
▁वर्षांपासून	-9.96928
▁थोड्या	-9.96953
▁ठरविले	-9.96963
▁सहन	-9.97026
▁पर	-9.97032
▁नोकर	-9.97112
▁जनजागृती	-9.97211
▁होणारे	-9.9726
▁वाद	-9.97297
▁स्वस्त	-9.97388
▁आजारी	-9.97409
▁यज्ञ	-9.97411
▁घेणार	-9.97466
लं	-9.97502
▁पापे	-9.97629
▁जोड	-9.97694
ांनो	-9.97748
▁जिव	-9.97776
▁रोख	-9.97802
▁हस्तांतरण	-9.97871
▁डोंगर	-9.97919
▁काळा	-9.98022
▁90	-9.98027
▁आकडेवारी	-9.98068
▁चेन्नई	-9.98113
▁गेलेल्या	-9.98161
▁वाचव	-9.98198
▁ग्राम	-9.98255
▁अरुणाचल	-9.9832
▁महिने	-9.98325
▁द्यावा	-9.9835
▁सर	-9.98431
लेले	-9.98652
संबंधी	-9.98675
▁दास	-9.98676
▁तपशील	-9.98679
▁शाह	-9.98698
▁गुंतवणुकी	-9.98721
भर	-9.98751
▁महाराज	-9.98771
▁लस	-9.98908
▁जितेंद्र	-9.991
▁दावीदा	-9.9913
▁ताण	-9.99152
वान	-9.99154
▁ध्येय	-9.99299
▁मालमत्ता	-9.99326
▁निर्मितीसाठी	-9.99422
▁80	-9.99431
▁वाढवणे	-9.99438
▁वाहिली	-9.99439
▁महिलां	-9.99443
▁सर्वाना	-9.99589
▁मुलांच्या	-9.99705
ां	-9.99719
▁बांधणी	-9.99726
▁जागे	-9.99738
▁सक्षमीकरण	-9.99786
▁मालकी	-9.99851
▁मोल	-9.99865
▁आयुष्मान	-9.99933
▁मिळतात	-9.9996
▁भांडवल	-9.99967
▁वस्त्रे	-10.001
▁उपलब्धता	-10.001
▁आंबेडकर	-10.002
▁कंपन्यांना	-10.0027
▁साम	-10.003
▁भाषेत	-10.0036
▁शतकात	-10.004
▁महोत्सवात	-10.005
▁चमत्कार	-10.0052
▁सत्र	-10.0058
▁शिव	-10.0059
▁ढग	-10.006
▁आणली	-10.0061
▁स्वर्ग	-10.0065
▁शेतकऱ्यांचे	-10.0073
▁असावा	-10.0075
▁माणसां	-10.009
▁प्रत्यक्षात	-10.0101
▁समितीने	-10.0105
▁मधल्या	-10.0115
▁प्रत्येकाला	-10.0123
▁बोलू	-10.0124
▁संलग्न	-10.0129
▁वि	-10.0131
▁पाहिली	-10.0132
▁राहण्यासाठी	-10.0138
▁मिळतील	-10.0139
▁पीपीई	-10.0146
ल्यावर	-10.0146
▁मीच	-10.0153
▁व्हा	-10.0161
▁राष्ट्रांना	-10.0163
▁वैभव	-10.0164
▁राज्यांनी	-10.0169
▁मुद्यांवर	-10.0178
▁महासागर	-10.018
▁अदोम	-10.0183
▁गोष्टींचा	-10.0183
▁सादरीकरण	-10.0188
▁द्यावी	-10.0188
▁बन्यामीन	-10.0189
▁भूमीवर	-10.019
ओ	-10.0191
▁समारंभात	-10.0193
▁शकले	-10.0196
▁विकार	-10.0201
▁अभूतपूर्व	-10.0206
▁काढण्यासाठी	-10.0212
▁किल्ल्या	-10.0224
▁विलगीकरण	-10.0234
▁बर्फ	-10.0235
प्रदान	-10.0236
▁कुळ	-10.024
▁विकासात	-10.0244
▁महा	-10.0244
▁नेटवर्क	-10.0245
▁आवास	-10.0245
▁पारंपरिक	-10.0245
▁संघर्ष	-10.0253
▁यवाब	-10.0257
▁परिश्रम	-10.0258
▁महामारीच्या	-10.0261
▁लोकांनो	-10.0262
▁फुट	-10.0265
▁वर्षांमध्ये	-10.0273
▁कामात	-10.0276
▁35	-10.028
▁नागरिकांच्या	-10.0281
▁प्रजासत्ताक	-10.0284
▁आत्तापर्यंत	-10.0284
कारी	-10.0288
▁निवृत्ती	-10.0294
ाशिवाय	-10.0295
▁होण्यास	-10.0298
▁वे	-10.0307
▁फोड	-10.0312
4	-10.0331
▁दोष	-10.0331
▁लडाख	-10.0346
ताना	-10.0351
▁आग	-10.0351
▁म्हणू	-10.0355
▁नौवहन	-10.0361
▁म्हणालो	-10.0361
▁शालेय	-10.0362
▁समजले	-10.0375
▁पोटात	-10.0393
मा	-10.0398
▁आणी	-10.04
▁पडेल	-10.041
▁केंद्रात	-10.042
▁उत्सुक	-10.0424
▁साठा	-10.0432
▁सुखी	-10.0432
▁मॉडेल	-10.0434
▁समाजात	-10.0437
▁श्रद्धांजली	-10.0438
▁बाधित	-10.0444
▁घराण्या	-10.0444
▁आयोगाचे	-10.045
▁टाकून	-10.0455
▁खडक	-10.0457
▁दिलेली	-10.0467
ानी	-10.047
▁आणण्या	-10.0471
▁परंत	-10.0477
▁आकर्षक	-10.0478
▁घ्यावा	-10.048
▁एखादी	-10.048
▁पाहण्यासाठी	-10.0481
▁वर्षांत	-10.0487
▁केल्यास	-10.049
▁यांच्यासह	-10.049
▁शी	-10.049
▁खी	-10.0497
ळे	-10.0499
▁कृत्ये	-10.05
▁बैठकीला	-10.0501
▁घेवून	-10.0518
▁आंध्र	-10.052
▁निघाला	-10.0524
▁काहीच	-10.0537
ेन	-10.0544
▁कार्यक्रमाचे	-10.0554
▁सरासरी	-10.0556
▁बांधली	-10.056
▁सिटी	-10.0562
▁व्याज	-10.057
▁निघाले	-10.0574
▁व्ही	-10.0581
ंशी	-10.0588
▁शेतकऱ्यांच्या	-10.0591
▁योनाथान	-10.0596
▁यराबाम	-10.0596
▁जतन	-10.0596
▁बांधण्यात	-10.0597
▁राणी	-10.06
▁पडली	-10.0602
▁बांधून	-10.061
▁लाकडा	-10.0619
▁दाखवून	-10.0619
वून	-10.0624
▁वेदीवर	-10.0625
▁मेंढर	-10.0629
▁नेतृत्वाखाली	-10.0633
▁आलेली	-10.0636
▁अभिवादन	-10.0636
▁तलवार	-10.0636
▁मद्य	-10.0637
▁कोलकाता	-10.0638
▁रुग्णां	-10.0647
▁१८	-10.0651
▁समाजातील	-10.0669
▁यंत्र	-10.0671
ासारखे	-10.0683
▁तारण	-10.0698
ांद्वारे	-10.0702
▁सर्वोत्कृष्ट	-10.0703
▁माहितीपट	-10.071
▁दीर्घकालीन	-10.0716
▁मेंढ्या	-10.0717
▁सोशल	-10.0719
▁वेगवान	-10.0719
▁रक्तदाब	-10.0721
▁साधारण	-10.0721
ांविषयी	-10.0725
▁सहकार्याबाबत	-10.0727
▁वाळवंट	-10.0734
▁सहाय्यक	-10.0737
▁शास्त्र	-10.0741
ऱ्या	-10.0742
▁याआधी	-10.0747
▁दिसू	-10.0748
▁वीस	-10.0748
▁राष्ट्रांच्या	-10.0755
▁अनावरण	-10.0757
▁महाराष्ट्रात	-10.0757
▁संदेष्टे	-10.0758
▁सुरेश	-10.076
▁सबक	-10.0766
▁बांगलादेश	-10.0769
▁स्थित	-10.077
▁चंद्र	-10.0771
▁शौर्य	-10.0772
▁बातमी	-10.0772
▁गिलाद	-10.0773
▁असल्याचा	-10.0776
▁घ्यावे	-10.0779
▁सशस्त्र	-10.0797
▁१५	-10.08
▁सांख्यिकी	-10.0808
▁सुरवात	-10.0811
▁जोडलेले	-10.0812
▁सुख	-10.0813
▁पन्नास	-10.0819
▁चक्र	-10.0822
▁डोंगराळ	-10.0839
▁मर्यादा	-10.084
▁जायला	-10.0843
▁आग्रह	-10.0845
▁प्रयत्नांना	-10.0857
▁तंत्र	-10.0859
▁हातून	-10.0863
▁गतीने	-10.0863
▁विकासाची	-10.0865
▁शलमोनाने	-10.0866
▁नकार	-10.0872
▁बदलत	-10.0875
▁ज्याचा	-10.0876
▁त्वचा	-10.0878
▁असायला	-10.088
▁हिरव्या	-10.0881
▁मोठ्याने	-10.0882
▁लढ्यात	-10.0883
▁केल्याचे	-10.0885
▁आल्याचे	-10.0887
▁वाटप	-10.0893
▁सोय	-10.0894
ासमोर	-10.0896
▁स्वरुप	-10.0907
▁अर्थव्यवस्थेला	-10.0909
▁ठरले	-10.0918
ासोबत	-10.0918
▁तिरस्कार	-10.0919
▁महिन्या	-10.0926
▁तक्रारी	-10.0928
▁शौचालय	-10.0929
▁नव्याने	-10.093
▁वचनबद्ध	-10.0934
▁प्रस्तावित	-10.0935
▁आधारावर	-10.094
▁व्यक्तींना	-10.0941
▁खंड	-10.0945
8	-10.0949
▁त्याच्याबरोबर	-10.095
▁गर्दी	-10.0953
▁समाजाच्या	-10.0953
▁खादी	-10.096
▁अमेरिकन	-10.0968
▁खरा	-10.0969
▁वर्षासाठी	-10.0971
▁दुर्बल	-10.0972
▁ज्याच्या	-10.0972
▁ज्यांच्या	-10.0975
▁सियोन	-10.0977
▁बात	-10.0985
▁सन	-10.0989
▁नयेत	-10.0991
▁स्नान	-10.0992
▁मतदान	-10.1003
M	-10.1003
▁भक्कम	-10.1005
▁पोर्ट	-10.1005
▁प्रगतीचा	-10.1006
ाट	-10.1007
▁तूच	-10.1013
▁परमेश्वरासमोर	-10.1018
▁पथक	-10.102
▁प्रक्रियेत	-10.1021
▁संक्रमण	-10.1023
▁तासात	-10.1038
▁आरक्षण	-10.1038
▁झाल्याने	-10.104
▁दोघे	-10.1044
▁शब्बाथ	-10.1051
▁नेमले	-10.1052
▁खासदार	-10.1062
ासारखा	-10.1068
▁इमारती	-10.1071
▁दुष्कृत्य	-10.1071
▁त्यांच्याकडे	-10.1073
▁खा	-10.1074
▁पाठव	-10.1075
▁वाढले	-10.1078
▁अहमदाबाद	-10.1083
▁अबशालोम	-10.1085
▁इलेक्ट्रॉनिक	-10.1085
▁योजनेची	-10.1089
▁जबाबदार	-10.1094
▁नसलेल्या	-10.1098
▁वाळवंटात	-10.1104
▁रुग्णांना	-10.1108
▁तंबू	-10.1118
▁प्रा	-10.1119
▁पाठ	-10.1125
▁वध	-10.1126
▁प्रामुख्याने	-10.1127
▁नियामक	-10.1129
000	-10.1134
▁शतक	-10.1135
▁एकता	-10.1137
▁जनते	-10.1143
▁अंमलबजावणीसाठी	-10.1147
▁मंजूरी	-10.1148
▁असणार्या	-10.115
ासारख्या	-10.1163
▁स्त्रिया	-10.1166
▁विवेकानंद	-10.1168
▁यहोशाफाट	-10.1169
▁दर्शवली	-10.1169
▁दर्जेदार	-10.117
▁प्रस्थापित	-10.117
▁तुकडे	-10.1172
▁निर्मला	-10.1172
▁उर्वर	-10.1172
▁खरोखर	-10.1173
▁अंग	-10.1177
▁चूक	-10.1178
▁आदी	-10.1186
▁दि	-10.1189
▁बेट	-10.1194
▁उपयोगी	-10.12
▁व्यासपीठ	-10.1203
▁प्रदूषण	-10.1205
▁बँकेच्या	-10.1209
▁पूर्तता	-10.1211
▁पारदर्शकता	-10.1213
▁आभासी	-10.1215
▁योजनेत	-10.1223
▁खते	-10.1225
▁राज्याच्या	-10.1227
▁रुपांतर	-10.1252
▁यरुशलेमच्या	-10.1256
▁इंटरनेट	-10.1256
▁कार्यक्षमता	-10.1256
▁बनला	-10.126
▁कचरा	-10.1261
▁संदेष्ट्या	-10.1266
▁बोल	-10.1269
▁येणारे	-10.127
▁प्रसाद	-10.127
▁लवकरात	-10.1273
▁वंश	-10.1279
▁खाण	-10.1282
▁करण्याला	-10.1292
▁चहा	-10.1294
▁वारंवार	-10.1296
▁योजनेंतर्गत	-10.1297
▁शूर	-10.1297
▁बहुतांश	-10.1298
▁निवासस्थान	-10.1301
आर	-10.1303
5	-10.1322
▁सेवे	-10.1329
▁याबद्दल	-10.1331
▁मधून	-10.1333
▁त्यांच्याबरोबर	-10.1336
▁जनरल	-10.1339
ांतून	-10.1341
▁विषयांवर	-10.1343
▁मेंढपाळ	-10.137
▁हि	-10.1376
▁इमारत	-10.138
▁रुपयांपर्यंत	-10.1383
▁वन्य	-10.1395
▁संबंधी	-10.14
▁उ	-10.1415
▁वस्त्र	-10.1415
▁कक्ष	-10.1416
▁एम्स	-10.1418
▁कुटुंबांना	-10.1419
▁सुधारण्यासाठी	-10.1428
▁बेथ	-10.1428
▁वाढविण्यासाठी	-10.1436
▁लघवी	-10.1437
▁वैशिष्ट्य	-10.1437
्याने	-10.144
▁निवडक	-10.1441
तेने	-10.1455
▁शिशू	-10.1458
▁प्रांतात	-10.1461
▁सरकारकडून	-10.1462
▁निरीक्षण	-10.1466
▁इच्छे	-10.1468
▁प्रोत्साहित	-10.1468
▁शिमोन	-10.1472
▁जेवढ	-10.148
▁सेवेत	-10.1485
▁काठी	-10.1497
▁युक्त	-10.15
▁स्थैर्य	-10.15
णी	-10.1501
▁प्रेषित	-10.1501
▁निराकरण	-10.1506
▁पित्या	-10.1506
▁साक्ष	-10.1513
▁कार्यभार	-10.1515
▁विधी	-10.1515
▁भिंती	-10.1517
▁कराराचा	-10.1517
▁तापमान	-10.1519
▁जिल्ह्यांमध्ये	-10.1522
▁वरून	-10.1522
▁यशया	-10.1534
▁ठेवावे	-10.1537
▁नागपूर	-10.1537
▁असावी	-10.1543
▁लागतील	-10.1544
▁%	-10.155
▁भाकर	-10.1552
▁घेतील	-10.1553
▁उत्पादनात	-10.1553
▁मुद्दे	-10.1555
▁मालवाहतूक	-10.1556
▁स्वदेशी	-10.1558
▁सर्वत	-10.1562
ावरुन	-10.1567
▁हवेत	-10.1567
▁लाज	-10.1571
जा	-10.1572
▁वाढविण्या	-10.1577
▁आमच्यासाठी	-10.1578
▁काळी	-10.1587
▁हळूहळू	-10.1599
▁बहुतेक	-10.1601
▁राष्ट्रे	-10.1604
▁अर्थसंकल्पात	-10.1622
▁लेखी	-10.1623
▁भू	-10.1623
▁इजा	-10.1625
▁फ	-10.1626
▁राष्ट्राला	-10.1634
▁यानंतर	-10.1638
▁कबू	-10.1643
▁कॉर्पोरेट	-10.1644
▁हंगाम	-10.1646
▁मिळावे	-10.1667
▁प्रकाशित	-10.1672
▁सांगतात	-10.1679
▁तुझ्याकडे	-10.1681
▁मूल्यांकन	-10.1687
▁सिद्कीया	-10.1687
▁हर्षवर्धन	-10.169
▁2020-21	-10.169
▁लाभदायक	-10.1691
▁असली	-10.1694
▁गावांमध्ये	-10.1697
▁जुने	-10.1697
▁लोह	-10.1697
भार	-10.17
▁भाषणात	-10.171
▁स्वप्ने	-10.1723
▁खांब	-10.1723
▁जाता	-10.1724
▁शुध्द	-10.1724
▁विपणन	-10.1727
▁पूल	-10.1728
त्र	-10.1729
▁कार्यान्वित	-10.1732
▁जैन	-10.1732
▁श्रमिक	-10.1733
▁मासिक	-10.1734
▁वर्षांचा	-10.174
▁स्मृती	-10.1741
प्रभावित	-10.1746
▁प्रस्तावाला	-10.176
▁य	-10.177
▁झाड	-10.1771
▁आंतर	-10.1774
▁घेईल	-10.1777
▁दुर्गम	-10.1777
▁सूज	-10.1778
▁इलेक्ट्रॉनिक्स	-10.1779
▁दाखवला	-10.1781
▁संकलन	-10.1785
▁केंद्रीत	-10.179
▁प्रवाह	-10.1791
▁वनस्पती	-10.1791
▁प्रमाणपत्र	-10.1792
▁न्यायाधीश	-10.1794
▁सुविधे	-10.1795
▁संस्थेने	-10.1796
▁संघटनेच्या	-10.18
▁मिळालेल्या	-10.1805
िम	-10.1815
▁लोकसभेत	-10.1818
▁गवत	-10.1819
▁किल्ला	-10.1822
▁थोडा	-10.1822
▁सवलत	-10.1823
▁शाप	-10.1825
▁परिसर	-10.1826
▁तोमर	-10.1826
▁पुढ	-10.1829
▁बाई	-10.183
▁स्तर	-10.1831
▁स्थानावर	-10.1839
▁प्रथमच	-10.1856
▁१२	-10.1862
▁शिंग	-10.1865
▁दाब	-10.1867
णारे	-10.1872
▁राखण्यासाठी	-10.1874
▁पावला	-10.1894
:-	-10.1896
▁नियमांचे	-10.1906
▁माणसाच्या	-10.1912
▁अशाच	-10.1914
▁पूर्वेकड	-10.1916
9	-10.1918
▁संसाधन	-10.1926
▁परमेश्वराकडून	-10.1948
▁पडत	-10.1949
▁साहाय्य	-10.1954
▁आध्यात्मिक	-10.1958
ऑनलाइन	-10.1961
▁एकही	-10.1966
▁दानीएल	-10.1966
▁स्वच्छते	-10.1971
▁व्हाल	-10.1975
▁साधने	-10.198
▁विरोध	-10.1994
▁समारंभ	-10.1997
▁ईशान्येकडील	-10.2003
▁घातला	-10.2007
▁डाग	-10.2008
▁केल्यावर	-10.2008
▁देण्यास	-10.201
▁संभाव्य	-10.201
▁भरून	-10.2012
▁पाण्याचा	-10.2016
▁क्षण	-10.2032
▁महामंडळ	-10.2042
▁सर्वांच्या	-10.2042
▁डोक्यावर	-10.2045
▁तीस	-10.2051
▁दीड	-10.2052
▁डोके	-10.2054
▁मेगावॅट	-10.2056
▁विद्युतीकरण	-10.2057
▁स्व	-10.2065
▁महासंघ	-10.2067
▁श्रीलंके	-10.2069
▁मणिपूर	-10.2079
▁नियुक्ती	-10.2081
▁संपर्कात	-10.209
▁साक्षीदार	-10.209
▁प्रत्येकाने	-10.2091
▁चरबी	-10.2094
s	-10.2099
▁श्रेष्ठ	-10.2102
▁दाखवण्या	-10.2102
एम	-10.2105
▁बरा	-10.2107
7	-10.2107
▁संख्येत	-10.2116
▁विद्युत	-10.2118
0	-10.2127
▁क्षयरोग	-10.2129
▁जीवनमान	-10.213
▁निवेदन	-10.2134
▁बांबू	-10.2142
मेक	-10.2149
▁तैनात	-10.2153
इ	-10.2153
पूर्व	-10.216
`	-10.2168
स्वतंत्र	-10.217
▁चर्चे	-10.217
बा	-10.2174
▁स्पर्धे	-10.2175
▁देणारी	-10.2182
▁सुरळीत	-10.2187
▁नियमशास्त्रा	-10.2191
▁थंडी	-10.2193
▁महत्त्वाचा	-10.2195
▁दक्षिणे	-10.2199
शा	-10.2207
▁कच्च	-10.2219
▁छत्तीसगड	-10.2225
मंत्री	-10.2228
▁चढ	-10.2228
ादरम्यान	-10.2229
▁भय	-10.2232
▁सावध	-10.2233
▁येहू	-10.2235
ंमुळे	-10.2237
▁थेंब	-10.2237
▁अस्तित्वात	-10.2238
▁सातव्या	-10.2242
▁शोधून	-10.2246
▁हरित	-10.2253
▁संसदेत	-10.2257
▁लाभार्थी	-10.2264
▁मानवते	-10.2272
▁पाठी	-10.2275
▁तलाव	-10.2279
▁हेक्टर	-10.228
▁कार	-10.228
▁हिस्सा	-10.2281
▁स्त्रोत	-10.2281
▁डोळ्यां	-10.2285
▁नऊ	-10.2295
गार	-10.2306
▁वाहतुकी	-10.2309
▁संकटात	-10.2321
▁ग्रॅम	-10.2328
▁योशीया	-10.2328
वतीने	-10.233
▁यासह	-10.2338
शन	-10.2338
▁१९	-10.2339
▁पापी	-10.2365
▁कापड	-10.2375
▁फोन	-10.238
▁काशी	-10.2383
▁आत्मविश्वास	-10.2385
▁त्यापेक्षा	-10.2385
पट	-10.2391
▁गुप्त	-10.2393
▁आवडते	-10.2394
▁रुग्णालये	-10.2399
▁मीठ	-10.2402
▁पाण्याचे	-10.2408
▁मासे	-10.2421
▁धूप	-10.2422
▁बलवान	-10.2424
ती	-10.2424
▁अडथळे	-10.2424
▁पाहिला	-10.2425
▁संध्याकाळ	-10.2426
जे	-10.2427
▁रोड	-10.2427
▁साडे	-10.2427
ंपासून	-10.2431
▁सेवेसाठी	-10.2438
▁पाकिस्तान	-10.2439
▁प्रादुर्भाव	-10.244
▁वातावरणात	-10.2441
मागे	-10.2446
▁प्रलंब	-10.2456
▁चिकित्सक	-10.2459
ाल	-10.2465
▁जखम	-10.2465
▁तटबंदी	-10.247
▁मौल्यवान	-10.2472
▁राहणे	-10.2472
▁आल्यावर	-10.2478
▁उपकरण	-10.248
▁ठेवण्या	-10.2483
6	-10.2484
▁चांगुलपणा	-10.2487
▁खनिज	-10.2488
▁आव्हानांचा	-10.2488
व्ही	-10.2491
▁लावला	-10.2495
▁जि	-10.25
▁माझ्याशी	-10.2516
▁अचानक	-10.2519
▁शिल्लक	-10.2519
▁दीर्घ	-10.252
▁इथं	-10.2521
▁बसले	-10.2521
▁बिगर	-10.2521
▁एल	-10.2527
▁रुंद	-10.2533
▁दृष्टी	-10.2553
▁जवळच	-10.2563
▁आमंत्रित	-10.2568
▁विकसनशील	-10.2568
▁सुध्द	-10.2569
▁पारंपारिक	-10.257
▁बाबत	-10.2571
ासंबंधी	-10.2572
▁जाणारे	-10.2576
▁हेतू	-10.2579
▁देशांत	-10.2586
▁मंडप	-10.2591
▁मानक	-10.2593
▁तोपर्यंत	-10.2604
▁पारदर्शक	-10.2607
▁काळातील	-10.2607
▁दोषी	-10.2609
▁आधुनिकीकरण	-10.261
▁होमार्पण	-10.2611
▁रूप	-10.2614
▁शर्मा	-10.2619
▁बोस	-10.2621
▁ज	-10.2624
▁मोहिमे	-10.2637
▁कामगारांना	-10.2637
▁शरीराला	-10.2639
▁देणारा	-10.2645
▁समस्यां	-10.2647
▁सुभाष	-10.2661
▁सशक्त	-10.2664
▁पोहोचली	-10.2666
▁प्रकल्पांचा	-10.267
▁अडथळा	-10.2671
▁बाह्य	-10.2677
▁जसा	-10.2678
▁सर्वांचा	-10.2681
▁रात्र	-10.2682
▁अमेरिक	-10.2684
▁अनुकूल	-10.2693
▁भार	-10.2694
▁पुरेस	-10.27
▁द्वेष	-10.2704
▁मुकाबला	-10.2714
▁अभियांत्रिकी	-10.2716
▁घोडे	-10.2717
▁दौऱ्यावर	-10.2721
राष्ट्रीय	-10.2723
▁निकाल	-10.2724
▁घेण्याचा	-10.2731
▁५०	-10.2732
▁देखभाल	-10.2739
▁रूपात	-10.2744
कोविड	-10.2748
▁पूर	-10.2755
▁सलाम	-10.2766
▁पीडित	-10.2766
▁अंधार	-10.278
▁घेण्याचे	-10.2785
▁दंड	-10.2786
▁गोव्या	-10.2787
▁समस्ये	-10.2789
▁फरक	-10.2798
ासंदर्भात	-10.2799
▁वैशिष्ट्ये	-10.2799
▁घेण्यास	-10.2801
▁लष्करी	-10.2806
जण	-10.2809
ेपर्यंत	-10.2812
▁एलपीजी	-10.2813
▁वस्ती	-10.2816
स्	-10.2816
▁पुस्तकात	-10.2817
▁सहजपणे	-10.2818
▁अवकाश	-10.2826
▁जीवनसत्त्व	-10.2832
▁पातळी	-10.2832
हा	-10.2834
▁जणांना	-10.2838
▁डेटा	-10.2843
▁मिळाल्या	-10.2846
▁साप	-10.2848
▁महिन्यां	-10.2849
▁देवाणघेवाण	-10.2853
▁चारही	-10.2856
▁निमित्त	-10.2862
▁नुकत्याच	-10.2862
▁दूरसंचार	-10.2863
▁जेटली	-10.2863
▁गहू	-10.2865
▁निधना	-10.2865
▁लावली	-10.2866
ाअंतर्गत	-10.2868
▁नसून	-10.2869
▁मारुन	-10.2869
एन	-10.2869
▁कळले	-10.287
▁माझ्याबरोबर	-10.2871
▁दावीदाला	-10.2871
▁खरी	-10.2871
▁पेशी	-10.2877
ाबरोबरच	-10.288
▁पहिल्यांदा	-10.2884
काश्मीर	-10.2885
▁तट	-10.2886
▁वाघ	-10.2886
्पद	-10.2892
की	-10.2894
आ	-10.2898
▁सीएसआयआर	-10.29
▁धैर्य	-10.2901
▁जलमार्ग	-10.2903
▁पाहिल्या	-10.2905
▁खुले	-10.2906
▁पाड	-10.2912
▁अनिवार्य	-10.2912
▁ठळक	-10.2913
▁बाप्तिस्मा	-10.2913
▁विश्लेषण	-10.2913
▁होईपर्यंत	-10.2913
▁जनतेचे	-10.2915
▁झाल्याबद्दल	-10.2923
▁इतिहासात	-10.2927
▁दिव्य	-10.2928
▁बोलावले	-10.2928
▁म्हणता	-10.293
▁नावा	-10.2941
▁कामासाठी	-10.2942
▁संस्थांनी	-10.2942
▁थोर	-10.2947
ंसह	-10.2952
▁याकडे	-10.2957
▁प्रदेशातल्या	-10.2961
▁लॉकडाउन	-10.2963
▁उच्चस्तरीय	-10.2964
खाली	-10.2965
्यात	-10.2965
▁बंधु	-10.2966
▁वाऱ्या	-10.2968
▁न्यायालय	-10.2974
▁इकडे	-10.2979
▁ह्यांना	-10.2988
ल्यानंतर	-10.3002
▁नद्या	-10.3007
▁चित्रपटात	-10.3012
▁पदवी	-10.3014
▁नियंत्रित	-10.3015
▁संगम	-10.3015
▁रामनाथ	-10.3017
▁सौभाग्य	-10.3017
ग्रस्त	-10.3022
▁चिकित्सा	-10.3022
▁पडलेल्या	-10.3028
▁जगातल्या	-10.3035
▁योजनेला	-10.3035
▁तपास	-10.3043
▁:-	-10.3047
ण्याची	-10.3047
▁1000	-10.3049
▁32	-10.3056
▁भारतातल्या	-10.3057
▁कायदेशीर	-10.3064
▁पूर्वज	-10.3064
▁बोललो	-10.3065
▁आढळतात	-10.3065
▁नियमितपणे	-10.307
▁असूनही	-10.3081
▁योवाश	-10.309
▁एकर	-10.3093
▁योजनेचे	-10.3093
नं	-10.31
▁म्हण	-10.3102
▁महत्वाकांक्षी	-10.3117
▁बाबासाहेब	-10.3118
▁येशूच्या	-10.3119
▁चळवळी	-10.312
▁सकाळ	-10.313
त्या	-10.3135
3	-10.3136
▁गोड	-10.314
▁रूग्ण	-10.315
▁म्हणतील	-10.3151
▁वापरले	-10.3158
▁नाथ	-10.3163
▁नक्वी	-10.3166
▁वितरित	-10.3166
▁७	-10.3169
▁इटली	-10.317
▁को	-10.3174
▁हाताने	-10.3181
▁घराण्यातील	-10.3182
▁सुविधांचा	-10.3186
▁स्तरावरील	-10.3193
▁त्यांच्यात	-10.3193
▁कॉन्फरन्स	-10.3197
▁प्रकल्पाच्या	-10.3199
▁प्रयत्नांची	-10.3202
▁उद्दिष्टे	-10.3211
▁बँके	-10.3213
▁खाल्ले	-10.3218
▁क्रोध	-10.3219
▁सहयोग	-10.3219
▁कुटुंबातील	-10.322
”,	-10.322
▁जीवनशैली	-10.3223
वर्ती	-10.3225
▁लोकसंख्ये	-10.3229
सिंग	-10.3232
▁सागर	-10.3256
▁उभ	-10.3256
▁दर्जाच्या	-10.3267
▁घडेल	-10.327
▁गरीबांना	-10.3271
▁डाव्या	-10.3272
▁पडतो	-10.3274
▁वाढवण्यात	-10.3274
▁योजनेमुळे	-10.3278
▁स्थितीत	-10.3281
▁मुदत	-10.3282
▁अर्पणे	-10.3282
▁इंच	-10.3282
▁कराराच्या	-10.3292
▁संशोधक	-10.3293
▁जाताना	-10.3295
▁वेगळ्या	-10.33
▁वेगळा	-10.3303
▁देशभर	-10.3306
▁जिल्ह्यातील	-10.3308
▁स्वयं	-10.3314
▁पाहतो	-10.3315
▁मनुष्याला	-10.3316
▁नजर	-10.3318
▁कार्यक्रमाच्या	-10.3319
▁एकमेव	-10.3319
▁अनंतकाळ	-10.3322
▁आरोग्यसेवा	-10.3326
▁अर्थमंत्री	-10.3326
दिवस	-10.333
▁मते	-10.3332
▁प्रत्येकी	-10.3334
▁कार्बन	-10.3334
▁पंख	-10.3336
▁अनुसूच	-10.3337
▁दिवसांत	-10.3343
▁कामाला	-10.3344
कार	-10.3347
▁गोव्यात	-10.3352
दृष्ट्या	-10.3356
▁निकष	-10.3362
आणि	-10.3363
ीक	-10.3363
▁आमच्याकडे	-10.3364
▁सुरुवातीला	-10.3365
▁सुरक्षे	-10.3366
▁पडणार	-10.3367
▁प्रक्षेपण	-10.3368
▁पोस्ट	-10.3373
▁सुक्ष्म	-10.3374
▁राजदूत	-10.3374
▁कफ	-10.3375
▁टक्क्यांपर्यंत	-10.3378
▁पाण्याची	-10.3383
▁एवढी	-10.3385
▁आयएनएस	-10.3388
▁मंदिराचे	-10.3389
▁वस्तु	-10.3392
प्रती	-10.3393
▁स्पर्धात्मक	-10.3394
▁स्वरुपात	-10.3394
▁विक्रम	-10.3395
▁१००	-10.3397
▁आघाडीवर	-10.3403
ंमधून	-10.3414
▁कडक	-10.3417
▁जमिनीत	-10.3419
▁मतदार	-10.3423
▁भौगोलिक	-10.3426
▁नेत्यां	-10.3427
▁समजेल	-10.3428
▁बे	-10.343
▁बाप	-10.3431
▁कलाकार	-10.3433
▁भाज्या	-10.3434
▁तिथल्या	-10.3435
▁तेव्हाच	-10.3436
▁ऐकली	-10.3437
▁सुलभता	-10.3438
▁वाव	-10.3443
▁पुरे	-10.3447
▁खोली	-10.3448
▁समजू	-10.3449
▁संविधान	-10.3453
मुक्त	-10.3455
निमित्त	-10.3461
▁जमाती	-10.3462
▁होवू	-10.3471
▁प्रकट	-10.3473
▁शिकार	-10.3474
अंतर्गत	-10.3476
▁व्यक्ति	-10.3477
▁याप्रसंगी	-10.3477
भाई	-10.3478
▁अद्याप	-10.348
▁खुल्या	-10.3482
▁चाळीस	-10.3482
▁वाढणार	-10.3485
▁खालीलप्रमाणे	-10.3486
▁नेता	-10.3489
▁सामग्री	-10.349
▁लष्कर	-10.3499
▁न्यू	-10.3507
▁करशील	-10.351
३	-10.3518
▁जगत	-10.353
▁दुष्काळ	-10.3533
▁अजिबात	-10.3533
▁लोकांबरोबर	-10.3534
▁पूर्वजांना	-10.3541
▁खाते	-10.3542
▁विकासाचा	-10.3548
▁पुरेसा	-10.3567
▁बलिदान	-10.3568
▁बाग	-10.3572
▁सबलीकरण	-10.3581
▁सर्वच	-10.3582
▁प्रांत	-10.3583
▁किरकोळ	-10.3586
▁मिळावा	-10.3586
▁ह्याच	-10.3587
▁प्रतिबंधात्मक	-10.3588
▁संस्थात्मक	-10.3589
▁अस	-10.3591
▁बाण	-10.3592
▁किलो	-10.3594
▁नाहीतर	-10.3596
▁जमले	-10.3606
▁कार्यात	-10.3615
▁गाठ	-10.3627
सर	-10.3628
▁यावी	-10.3632
▁झेप	-10.3633
▁खोऱ्यात	-10.3635
▁शहीद	-10.364
▁द्यायचे	-10.364
▁शत्रूं	-10.3645
▁यांसारख्या	-10.3653
▁हज	-10.3655
▁योजनांच्या	-10.3658
▁सैन्याने	-10.3659
▁ह	-10.367
▁संपन्न	-10.3674
प्राप्त	-10.3678
▁बाळ	-10.3678
▁इराण	-10.3679
▁परीक्षण	-10.3686
▁सूट	-10.3691
▁लैंगिक	-10.3691
▁गेल्यावर्षी	-10.3696
▁नमस्कार	-10.3697
▁चलन	-10.3698
▁आपत्काल	-10.3702
▁वाढला	-10.3702
▁उद्योजकांना	-10.3705
▁टाक	-10.3707
भोवती	-10.3714
▁समर्थ	-10.3715
▁प्राण्या	-10.3717
▁वाढून	-10.372
▁लोकांपर्यंत	-10.3726
▁ह्याची	-10.3734
▁वृत्त	-10.3735
▁राज्यातल्या	-10.3744
▁घाबर	-10.3745
▁आयुक्त	-10.3746
▁ओसाड	-10.3748
▁सव्वाशे	-10.3748
▁परिपूर्ण	-10.3749
▁सवलती	-10.375
▁निवृत्तीवेतन	-10.3753
▁बाजूंनी	-10.3754
▁मिळवण्यासाठी	-10.3755
▁काळापासून	-10.3764
▁शिफारस	-10.3768
▁दिलासा	-10.3769
▁कल	-10.3769
▁पशु	-10.377
▁शास्त्रज्ञ	-10.3771
▁अवस्था	-10.3775
▁संदेशात	-10.3786
▁खाटा	-10.3788
▁प्रयत्नांमुळे	-10.3788
▁बोलतात	-10.3789
▁निर्धार	-10.3791
-2	-10.3799
▁भाग्य	-10.38
▁कोट्यवधी	-10.3803
▁तिसरा	-10.3804
▁अंदमान	-10.3805
▁विलंब	-10.3808
▁टक्क्यां	-10.3825
▁समितीच्या	-10.3825
▁संच	-10.3831
▁दिनाच्या	-10.3834
वरून	-10.3837
▁65	-10.3847
▁बैठका	-10.3854
▁बळकटी	-10.3854
▁***	-10.3858
▁अवशेष	-10.3859
▁गिदोन	-10.3859
▁परिचालन	-10.386
▁दिसले	-10.3864
▁हत्ती	-10.387
▁अपघात	-10.3875
▁सराव	-10.3877
▁लसीकरण	-10.3892
▁युग	-10.3898
ाचं	-10.3906
▁राहण्या	-10.3907
▁स्थानी	-10.3908
▁कळत	-10.3911
▁दफन	-10.3913
▁सेनापती	-10.3913
▁धीर	-10.3922
▁इतरांना	-10.3922
▁अगोदर	-10.3923
▁पडतात	-10.3925
▁130	-10.3926
रे	-10.3927
▁उपदेश	-10.393
▁पूरक	-10.3939
▁कृत्य	-10.3943
▁उत्तरात	-10.3947
▁राजाचा	-10.3948
▁आतील	-10.3959
▁हाक	-10.3963
P	-10.3964
त्व	-10.3968
▁वितरीत	-10.3969
▁2030	-10.397
▁वडिलां	-10.397
▁युरिया	-10.3972
ंव्हा	-10.3977
▁बनवून	-10.398
▁कॅनडा	-10.3982
▁भागिदारी	-10.3985
च्‍या	-10.399
▁भविष्यासाठी	-10.399
▁बोलले	-10.3991
▁वाटून	-10.3991
ंदा	-10.3992
▁विद्यमान	-10.3993
▁त्याच्यासाठी	-10.3996
▁ट्रस्ट	-10.3998
▁लाभार्थ्यां	-10.3999
▁पहिल्यांदाच	-10.4003
▁संस्थे	-10.4003
▁होवो	-10.4005
▁राहता	-10.4013
▁दिनी	-10.4016
हो	-10.402
▁यातील	-10.4021
▁पुरी	-10.4023
▁ठोस	-10.4025
▁चेहरा	-10.4025
▁गाड्यां	-10.4027
▁बेत	-10.4029
▁गुरू	-10.4032
▁मारली	-10.4033
▁टेक	-10.4033
▁पीठ	-10.4037
▁अल	-10.4039
▁जितके	-10.4039
▁आणला	-10.4042
▁ब्रिटन	-10.4043
वपुत्रा	-10.4043
▁भेटायला	-10.4044
▁धोक्या	-10.4049
▁सुकर	-10.4049
▁देशामध्ये	-10.4049
▁परस्परां	-10.4052
▁पिण्या	-10.4052
▁धन्य	-10.4054
▁42	-10.4056
▁हानी	-10.4057
▁संस्थांमध्ये	-10.4059
▁हॉटेल	-10.406
▁आमंत्रण	-10.4065
▁संस्थेचे	-10.4071
▁आणू	-10.4078
▁वल्हांडण	-10.4081
▁असल्याबद्दल	-10.4083
▁ठराव	-10.4084
▁सेतू	-10.4084
▁भोवताल	-10.4085
▁संकटाच्या	-10.4088
▁तुम्हांस	-10.4091
▁वाढवून	-10.4092
▁आमच्यावर	-10.4092
िका	-10.4101
▁तणाव	-10.4104
▁मैदान	-10.411
▁प्रकल्पाचे	-10.4131
▁होम	-10.4134
▁निर्बंध	-10.4137
▁ठीक	-10.4137
▁खायला	-10.4144
▁चला	-10.4161
▁काढला	-10.4163
▁शासकीय	-10.4172
▁बाकी	-10.4173
▁तेंव्हा	-10.4174
▁अशक्त	-10.4189
▁कडून	-10.4192
▁व्यवस्थित	-10.4194
▁विश्रांती	-10.4194
▁पोहोचले	-10.4195
▁८	-10.4197
▁शकू	-10.42
▁स्वीकारला	-10.42
▁कडे	-10.4201
▁समानता	-10.4204
▁देवाण	-10.4204
▁इस्रायल	-10.4206
▁36	-10.4206
▁परिषदे	-10.4207
▁ओरड	-10.421
ांसोबत	-10.4215
▁दूरध्वनी	-10.4218
▁तरुणांना	-10.4224
▁जगा	-10.4225
▁मिळावी	-10.4231
▁पडते	-10.4235
▁घाट	-10.4237
▁पाहणी	-10.4241
▁मजूर	-10.4246
▁फायदे	-10.4251
▁कार्मिक	-10.4251
▁आदरणीय	-10.4252
▁नीट	-10.4253
▁जोखीम	-10.4253
▁हैदराबाद	-10.4254
▁दुसरीकडे	-10.4262
▁येताना	-10.4274
▁इंजिन	-10.4277
20	-10.4277
▁वर्णन	-10.4281
▁धोरणे	-10.4281
▁उचलण्या	-10.4283
ामधील	-10.4287
▁विक्रमी	-10.4289
संदर्भातील	-10.429
▁इसहाक	-10.4297
▁45	-10.4298
▁तत्वे	-10.4301
▁दुर्लक्ष	-10.4302
▁परदेशात	-10.4303
▁व्यंकय्या	-10.4303
▁प्रयोगशाळां	-10.4304
▁छाती	-10.4305
▁स्वतःच्या	-10.4306
▁नमुने	-10.4309
▁प्रतिपादन	-10.4309
▁गर्भवती	-10.4309
▁परतावा	-10.4312
▁राजाची	-10.4323
▁विजे	-10.4325
▁चुकीच्या	-10.4328
हे	-10.4335
▁प्रक्रिये	-10.4339
▁सीमेवर	-10.4349
घडून	-10.4364
▁शिक्षे	-10.4367
▁सुवार्ता	-10.4367
▁बँका	-10.4368
▁प्रवाशांना	-10.4372
▁संवेदनशील	-10.4378
▁‘‘	-10.4378
▁पुरवण्या	-10.4381
को	-10.4388
ंकडून	-10.4394
▁तातडी	-10.4408
▁सामूहिक	-10.4425
▁नृत्य	-10.4426
▁भवनात	-10.4427
▁मंचावर	-10.4428
▁इशारा	-10.4429
▁वयाच्या	-10.4431
▁उचलून	-10.4434
▁राज्यसभेत	-10.444
ावा	-10.4441
▁रेडिओ	-10.4442
प्रति	-10.4445
▁भारतीयांना	-10.445
तर	-10.4452
▁वस्तूंचा	-10.4453
▁चाल	-10.4453
▁पडतील	-10.4456
▁ठरत	-10.4457
▁बायका	-10.4457
▁जवळच्या	-10.4469
▁माइया	-10.4475
▁हिंद	-10.4478
▁यापुढे	-10.448
▁सुंता	-10.4483
▁अभिषेक	-10.4483
▁सर्वंकष	-10.4484
▁समारोप	-10.4484
▁एवढ्या	-10.4484
▁इन्स्टिट्यूट	-10.4485
▁C	-10.4488
▁खर्चात	-10.4488
ांबाबत	-10.4489
िल	-10.4492
▁लाभार्थ्यांना	-10.4492
▁55	-10.4493
▁प्रत्येकजण	-10.4494
▁सर्दी	-10.4496
▁गटात	-10.4498
▁क्षेत्राचा	-10.4501
ंनो	-10.4514
▁मिसरमध्ये	-10.4515
▁राहण्याची	-10.4516
▁राबवण्या	-10.4517
▁झाक	-10.4517
▁पहा	-10.4517
▁मंडळाने	-10.4518
▁एच	-10.4519
▁सर्वेक्षणात	-10.4526
▁आयकर	-10.4533
▁वास्तव्य	-10.4537
युष	-10.4541
▁अनुषंगाने	-10.4543
▁करणार्या	-10.4557
▁बरीच	-10.456
▁बनविले	-10.4565
▁टाका	-10.4568
▁लि	-10.4568
▁से	-10.4569
▁कैदी	-10.457
▁नेम	-10.457
▁येण्याची	-10.457
झ	-10.4576
▁कपात	-10.4579
▁असतानाच	-10.4591
▁तज्ज्ञ	-10.4594
▁पेयजल	-10.4602
▁जर्मनी	-10.4626
▁प्रकल्पांसाठी	-10.4626
▁इंडोनेशिया	-10.4626
▁गा	-10.4633
▁अर्थाने	-10.4654
▁कारकिर्दी	-10.4654
▁स्वयंपाक	-10.4655
▁पत	-10.4655
▁नाक	-10.4655
▁तारीख	-10.4661
▁वेळोवेळी	-10.4661
▁सीतारामन	-10.4661
▁प्रेरित	-10.4663
▁देशांदरम्यान	-10.4663
▁सामर्थ्यवान	-10.4663
▁वंदन	-10.4667
▁ठरला	-10.4668
▁जशी	-10.467
▁आधारीत	-10.4675
यू	-10.4677
▁ठरू	-10.4678
▁दिसतात	-10.4678
▁संघटने	-10.4683
▁भूकंप	-10.4686
▁शंका	-10.4689
▁कळप	-10.4698
▁ऑस्ट्रेलिया	-10.4703
मूल्य	-10.4704
▁खर्चाच्या	-10.4708
▁व्यभिचार	-10.4721
▁भेदभाव	-10.4721
▁टाकली	-10.4726
▁सगळीकडे	-10.4727
▁पुर	-10.4727
▁छोटी	-10.4729
▁यात्रा	-10.4732
▁सुविधां	-10.4733
▁हिमालय	-10.4733
ेस	-10.4734
▁निमित्ताने	-10.4734
▁जागृती	-10.4739
▁आजारात	-10.4739
▁भागातल्या	-10.4746
▁समुदायाला	-10.4754
▁वेगळी	-10.4755
▁पीएम	-10.4756
▁मांडले	-10.4758
िन	-10.4758
न्स	-10.4761
▁लोकांकडे	-10.4763
▁तेलंगणा	-10.4765
▁33	-10.4767
-20	-10.4769
▁यु	-10.4769
▁आढळ	-10.4772
▁ठेवल्या	-10.4772
रहित	-10.4774
▁बनू	-10.4775
▁उपस्थितीत	-10.4776
खूप	-10.4777
स्थ	-10.4778
▁अप्रत्यक्ष	-10.4779
▁शमशोन	-10.4781
▁हिंदू	-10.4783
▁रे	-10.4788
▁एनसीसी	-10.4789
▁प्राण्यां	-10.4791
▁नेण्यासाठी	-10.4792
▁गावातील	-10.4792
▁खात	-10.4794
▁कायद्यात	-10.4796
▁ठेवतात	-10.4804
▁अर्धा	-10.4819
▁पाडले	-10.4823
▁क्रिया	-10.4828
▁युनिट	-10.4836
▁निती	-10.4837
▁गर्व	-10.484
▁आधारभूत	-10.4844
▁लढण्यासाठी	-10.4844
▁लिहून	-10.4844
▁काळजीपूर्वक	-10.4846
▁संबोधन	-10.4854
▁चुकी	-10.486
▁शस्त्रक्रिया	-10.4862
▁गोष्टींची	-10.4865
▁खालच्या	-10.4865
▁त्रिपुरा	-10.4867
▁फेरी	-10.4868
▁नौदलाच्या	-10.487
▁कट	-10.487
▁वारा	-10.4874
▁उपाहारगृह	-10.4875
पुर	-10.4877
▁आफ्रिका	-10.4879
▁पार्श्वभूमी	-10.4893
चंद्र	-10.4895
▁विधवा	-10.4895
▁क्षेत्रे	-10.4896
▁भागांमध्ये	-10.4899
▁योजनांचा	-10.4901
▁उत्तरेकड	-10.4902
▁तुलना	-10.4902
▁समतोल	-10.4902
▁मनोरंजन	-10.4903
▁तिकड	-10.4904
▁पाहात	-10.4905
▁विद्यार्थ्यांनी	-10.4907
▁अलिकडेच	-10.4909
▁बजावत	-10.4914
▁जवान	-10.4915
▁शिर	-10.4916
ाप्रती	-10.492
▁वृद्ध	-10.4923
▁आव्हानांना	-10.4925
्वस्त	-10.4931
▁निर्देशांक	-10.4936
▁याद्वारे	-10.4936
▁मि	-10.4939
PI	-10.494
▁नियुक्त	-10.4942
▁कुठेही	-10.4942
▁भूक	-10.4944
▁लावण्या	-10.4951
▁बंदी	-10.4956
▁एलाजार	-10.4964
▁नसतो	-10.4965
▁सर्वप्रथम	-10.4965
▁एकमत	-10.4969
▁एवढा	-10.497
▁कूळ	-10.4972
▁पर्यटकांसाठी	-10.4972
▁शक्तिशाल	-10.4972
▁टीम	-10.4976
▁जागेवर	-10.4984
समवेत	-10.4985
▁शेकडो	-10.499
नाम	-10.4992
▁पाडाव	-10.4993
▁अराम	-10.4997
▁जनतेने	-10.5001
▁धोरणात	-10.5005
▁खाणे	-10.501
▁पैलू	-10.5013
▁ताबा	-10.5026
▁जेणेकरुन	-10.5026
▁दिवाळखोरी	-10.5027
▁जयपूर	-10.5028
▁नामक	-10.5029
▁राहणारे	-10.5032
▁कापून	-10.5034
▁मुल	-10.5034
▁कनान	-10.5036
▁प्रवाशां	-10.5039
▁मोड	-10.5041
▁ठरतील	-10.5044
▁पावसा	-10.5051
▁परंपरे	-10.5052
▁कुंभ	-10.5057
▁ठरते	-10.5059
▁सर्वत्र	-10.5062
▁व्यक्तीच्या	-10.5064
६	-10.5067
दोन	-10.5072
▁अक्षय	-10.5076
▁रु	-10.5081
▁देशाने	-10.5083
▁प्रवासात	-10.5084
▁पापार्पण	-10.5084
▁भूमिपूजन	-10.5088
▁राहायला	-10.5088
▁इथून	-10.509
▁धर्मेंद्र	-10.5091
मार्फत	-10.5093
▁तलवारीने	-10.511
▁त्यामुळेच	-10.5115
▁सर्वांची	-10.5117
▁शो	-10.5118
▁सवय	-10.5121
▁बाळा	-10.5125
▁टक्क्यांन	-10.5125
▁तुमच्याबरोबर	-10.5128
▁वास्तविक	-10.5133
▁ठेवत	-10.5133
▁त्याविषयी	-10.5136
▁तरतुदी	-10.5137
▁खाल	-10.5138
▁शिष्यवृत्ती	-10.5139
▁गेल्यावर	-10.5148
▁लाकूड	-10.515
▁पुनरुत्थान	-10.515
▁छळ	-10.5151
▁दिसेल	-10.5151
▁राहिलो	-10.5152
▁धरुन	-10.5154
▁विरोधी	-10.5154
▁अखिल	-10.5155
▁सगळ्यात	-10.5155
▁बल	-10.5163
▁सुरूवात	-10.5164
▁चळवळ	-10.5166
▁छावणी	-10.5175
▁दुपारी	-10.5177
▁४०	-10.5177
▁सहकार्याच्या	-10.5178
▁मुलांचे	-10.5179
प्र	-10.5182
▁वंशा	-10.519
▁१६	-10.5191
ांतील	-10.5201
▁मेला	-10.5203
▁देवाकडे	-10.5203
▁परिस्थितीचा	-10.5206
▁अवयव	-10.5211
▁तिन्ही	-10.5213
▁भूमीपूजन	-10.5213
▁आम	-10.5214
▁राजनैतिक	-10.5215
▁सुरक्षितता	-10.523
▁महोदय	-10.5232
▁निवडलेल्या	-10.5235
कारक	-10.5236
▁दिवे	-10.5239
▁मध्यप्रदेश	-10.5241
▁शहाणा	-10.5248
▁संस्थां	-10.5251
▁लेह	-10.5255
▁बंध	-10.5256
्ड	-10.5262
▁राव	-10.5262
▁कापणी	-10.5266
▁कोड	-10.5267
पूर्वी	-10.5269
▁अपमान	-10.5273
▁पुनरुज्जीवन	-10.5276
▁रहबाम	-10.5276
▁सांत्वन	-10.5276
▁दरवाजे	-10.5276
गुती	-10.5277
▁किफायतशीर	-10.5277
▁ऊर्जे	-10.5278
▁निर्जंतुकीकरण	-10.5278
▁भले	-10.5281
▁उत्सर्जन	-10.5287
▁भिंत	-10.5288
३०	-10.5288
▁धरून	-10.5292
▁बद्दल	-10.5295
▁गोळ्या	-10.5296
▁कार्यक्षम	-10.5297
ानं	-10.531
▁केलीस	-10.5314
▁चोर	-10.5336
▁जिल्हे	-10.534
▁दुःख	-10.5341
▁दरवाजा	-10.5342
▁अरुण	-10.5342
▁एकदम	-10.5343
▁स्नायू	-10.5346
▁कंपन्यांनी	-10.5349
▁मुलांनी	-10.5352
▁खोल्या	-10.5352
▁अखंड	-10.5353
राम	-10.5354
▁मोह	-10.5356
▁पूर्वेला	-10.5357
▁ताज	-10.5358
▁काळ्या	-10.5361
▁अध्ययन	-10.5367
▁आफ्रिके	-10.5368
▁प्रकल्पांना	-10.537
▁पर्यटनाला	-10.5372
▁उघड	-10.5373
▁नागरिकांचे	-10.5374
▁जखमी	-10.5384
▁वृत्ती	-10.5385
▁ऐकत	-10.5388
▁उभारण्या	-10.5389
▁सहकार	-10.54
▁पेमेंट	-10.5401
▁34	-10.5405
▁दुहेरी	-10.5405
▁आपल्यासाठी	-10.5405
▁आणणे	-10.5406
▁ऊस	-10.5408
▁खुली	-10.5409
▁ठेवायला	-10.5409
▁व्हिसा	-10.5416
▁अल्प	-10.5417
▁चिन्ह	-10.542
▁वाचले	-10.5421
▁पराक्रम	-10.5421
▁रान	-10.5426
▁मंत्र्यां	-10.5427
▁थायलंड	-10.5432
▁पायी	-10.5437
▁प्रयत्नांचे	-10.5443
▁क्षेत्राशी	-10.5444
▁शतकातील	-10.5446
▁रुग्णाच्या	-10.5447
▁300	-10.5451
▁यकृत	-10.5453
▁उपस्थिती	-10.5458
▁बघत	-10.5466
▁वार	-10.5467
▁पॅरिस	-10.5469
▁संजय	-10.5469
▁येणारा	-10.547
▁मिश्रण	-10.547
▁महाराष्ट्रातील	-10.5471
▁प्रचार	-10.5471
पाशी	-10.5474
▁सामुग्री	-10.5475
▁कार्यशाळा	-10.5478
▁संकेतस्थळावर	-10.5487
▁रुप	-10.549
डे	-10.5502
▁हर	-10.5511
▁अहवालात	-10.5514
▁सोर	-10.5515
▁दिवसा	-10.5518
▁लिलाव	-10.5519
▁बाजूने	-10.552
▁ड	-10.5524
णा	-10.5524
▁कॉरिडॉर	-10.5526
▁पुनर्वसन	-10.5529
▁भयानक	-10.553
▁पाठवला	-10.5531
▁ट्रिलियन	-10.5534
▁गर्विष्ठ	-10.5534
▁अशक्य	-10.5534
▁असंख्य	-10.5534
▁निर्माते	-10.5535
▁आसा	-10.5538
▁गंगे	-10.5538
▁गुवाहाटी	-10.5539
▁कप	-10.554
▁उद्योजकता	-10.5541
▁कुठला	-10.5541
▁संकेतस्थळ	-10.5548
अप	-10.555
▁मूल्ये	-10.5552
▁पलीकडे	-10.5553
▁वर्तमान	-10.5553
▁यहुदा	-10.5555
▁उचलले	-10.5556
▁शांति	-10.5559
▁नक्की	-10.557
▁बांध	-10.5572
▁संसाधने	-10.5577
▁I	-10.5579
▁समाजाला	-10.5581
▁वाजपेयी	-10.5582
▁झाल्यास	-10.5589
▁परमेश्वरासाठी	-10.5594
▁एलईडी	-10.5599
▁आसन	-10.5599
▁सांगितलं	-10.56
आर्थिक	-10.56
▁रासायनिक	-10.5602
▁उत्पादकता	-10.5606
▁खेळाडू	-10.5606
▁मंदिराची	-10.5606
▁नावाची	-10.5607
▁घालण्यासाठी	-10.5608
▁रि	-10.5611
▁स्तन	-10.5614
▁२५	-10.5614
▁बलाम	-10.5625
▁ब्राझील	-10.5633
▁सदस्यांनी	-10.5634
▁वाढतो	-10.5638
▁राष्ट्रपतींच्या	-10.5642
▁बोर्ड	-10.5643
▁यावा	-10.5652
▁मुख्यालय	-10.5653
▁आरोग्यासाठी	-10.5663
▁हॅकेथॉन	-10.5665
▁जखऱ्या	-10.5665
▁जलदगती	-10.5665
मेंट	-10.5666
मुंबई	-10.5667
▁तप्त	-10.5667
▁एफ	-10.5668
▁अर्ध्या	-10.5669
मय	-10.567
▁मेहनत	-10.567
▁त्याचवेळी	-10.5671
▁करणा	-10.5676
▁पंचायत	-10.5676
▁बनलेल	-10.5686
▁दहशतवादा	-10.5689
▁विविधता	-10.5695
जन्य	-10.5698
०००	-10.5705
▁विचारात	-10.5706
▁कोप	-10.5712
▁समस्यांवर	-10.5714
▁एखादे	-10.5716
▁साठ	-10.5718
ूर	-10.572
▁अंश	-10.5729
▁माते	-10.5729
▁महामारीचा	-10.573
▁रवाना	-10.5731
▁अथक	-10.5731
▁हेब्रोन	-10.5733
▁खरीप	-10.5734
▁अडकलेल्या	-10.5734
▁श्रीनगर	-10.5736
▁जुनी	-10.5737
▁मुलांसाठी	-10.5739
▁यायला	-10.5745
▁दूरदर्शन	-10.5746
▁समारंभाला	-10.5747
▁सांगता	-10.5753
▁येण्या	-10.5757
▁श	-10.5757
▁यंत्रणे	-10.5758
▁मदतीची	-10.5761
▁जाल	-10.5766
▁उत्पादनांच्या	-10.5769
▁युद्धात	-10.577
▁तुझ्याबरोबर	-10.5772
▁बराच	-10.5775
प्रमाणेच	-10.5778
▁समर्पण	-10.5779
▁लसी	-10.5784
▁समज	-10.5788
▁अर्थव्यवस्थेत	-10.5794
▁ह्यांमध्ये	-10.5795
▁हृदयविकार	-10.5798
▁मृत्यु	-10.5798
▁फिल्म	-10.5799
▁संचार	-10.5802
▁पूर्वजांनी	-10.5805
▁पू	-10.5812
ंहून	-10.5812
▁भावी	-10.5815
▁अकादमी	-10.5819
डा	-10.5835
▁कुटुंबाला	-10.5836
▁सदस्यांना	-10.5842
▁मेद	-10.5842
▁टाकला	-10.5847
▁उत्तरप्रदेश	-10.5848
▁सहाय्याने	-10.585
▁49	-10.5852
▁स्वयंसेव	-10.586
▁भवितव्य	-10.5865
▁डोकेदुखी	-10.5865
▁वैश्विक	-10.5866
▁अधिवेशन	-10.5871
▁खोकला	-10.5873
▁जाण	-10.5874
▁असल्यास	-10.5875
▁तुमच्यापैकी	-10.589
▁रुपया	-10.5896
▁पाने	-10.59
▁48	-10.5901
▁परिषदेची	-10.5902
▁बघ	-10.5902
▁हस्तक्षेप	-10.5913
▁उपचारासाठी	-10.5914
▁हाडे	-10.5915
▁चालणार	-10.592
▁राजकारण	-10.5922
▁विना	-10.5923
▁प्रतिबिंब	-10.5926
▁भरलेल	-10.5927
▁बाबीं	-10.5928
▁रूपांतर	-10.5929
▁बोट	-10.593
ंड	-10.5931
▁जळजळ	-10.5931
▁सोडव	-10.5934
▁साधारणपणे	-10.5936
▁आणा	-10.5936
वि	-10.5937
▁गरिबांना	-10.5939
▁टक्क्यांवर	-10.5939
कालीन	-10.5943
▁भोवती	-10.5945
▁पुरवण्यासाठी	-10.5945
▁सि	-10.5947
प्रसिद्ध	-10.5947
▁जोपर्यंत	-10.5948
▁भांडवली	-10.5951
राज	-10.5952
▁नाकारले	-10.5955
▁खाऊन	-10.5956
▁युगात	-10.5957
पाठ	-10.5957
id	-10.5961
वत	-10.5965
रक्षक	-10.5967
▁प्रकल्पांची	-10.5973
▁वाचवले	-10.5975
▁साल	-10.5976
▁ज्यावेळ	-10.5981
▁लोट	-10.5983
▁अधिकाऱ्या	-10.5984
▁अंगावर	-10.5993
▁250	-10.5995
तोब	-10.5998
▁महामहीम	-10.6001
▁A	-10.6002
▁अर्थमंत्र्यांनी	-10.6003
▁देह	-10.6004
▁बाबा	-10.6007
▁फेकून	-10.6008
▁पहाटे	-10.6012
▁भारताकडे	-10.6015
▁केंद्राच्या	-10.6018
पण	-10.6018
▁कराराची	-10.6018
▁मिळवले	-10.6024
▁वाहत	-10.6032
▁बिल	-10.6041
शक्तिमान	-10.6042
▁शिकव	-10.6045
▁धावत	-10.6047
कृत	-10.6048
▁राहिल	-10.6051
▁कार्यालयाचे	-10.6052
▁समजत	-10.6056
▁लेप	-10.6061
▁होतं	-10.6062
▁थोडी	-10.6065
अर	-10.6065
▁दिवसांपूर्वी	-10.6069
▁परिवहन	-10.6069
▁घातली	-10.607
▁डाऊन	-10.607
▁यादीत	-10.6071
▁ह्यात	-10.6072
▁मत्स्य	-10.6073
▁दोघांना	-10.6073
▁माननीय	-10.6074
▁तसंच	-10.6075
▁लपून	-10.6076
▁जाळून	-10.6081
▁अन	-10.6085
▁सुरक्षेसाठी	-10.6085
ाकरिता	-10.6089
▁ऐकतो	-10.6089
ाखाली	-10.6095
▁माफ	-10.6096
र्स	-10.61
▁बनेल	-10.6101
▁लिंक	-10.6102
▁परिणामकारक	-10.6103
▁प्रगत	-10.6106
२	-10.6113
▁अरेबिया	-10.6115
▁किरण	-10.6115
▁ह्यांचा	-10.6116
▁सोड	-10.6118
ावे	-10.6123
▁जीवनाचा	-10.6126
▁बैठकी	-10.6127
▁निकोबार	-10.6128
▁37	-10.6131
▁वागत	-10.6134
▁ठेवणार	-10.6135
▁सखोल	-10.6135
▁ह्यांचे	-10.6135
▁घनद	-10.6138
▁अधिसूचना	-10.6138
▁अपडेट्स	-10.6138
▁भरपाई	-10.6138
▁मूल्यमापन	-10.6139
▁करण्याबरोबरच	-10.614
▁घडणार	-10.6143
माईक	-10.6145
▁प्रतिनिधीं	-10.6149
▁प्रशिक्षणार्थी	-10.6156
▁पुरविण्या	-10.6159
▁अरब	-10.6162
▁खाज	-10.6165
▁रुपात	-10.6167
ापुढे	-10.6174
▁क्रमवारीत	-10.6182
▁दयाळू	-10.6183
▁खाती	-10.6186
▁दिवसाच्या	-10.6191
▁घटने	-10.6194
▁परवाना	-10.6195
▁ऐवजी	-10.6196
▁400	-10.6198
▁निश्चय	-10.6199
▁शंकर	-10.6203
▁मुद्दा	-10.6205
▁भरले	-10.6205
▁हिरवा	-10.6207
▁स्तोत्र	-10.6207
▁यांच्यावर	-10.6207
▁चढाई	-10.6208
▁सकल	-10.6209
जन	-10.6209
▁तांदूळ	-10.6212
▁संदर्भ	-10.6218
▁असणारी	-10.6226
▁तलवारी	-10.6228
▁मुलांची	-10.6234
▁संग्रह	-10.6237
▁दैवत	-10.6255
▁बातम्या	-10.6257
▁धाव	-10.6257
▁91	-10.6259
▁पितळ	-10.6264
▁वी	-10.6275
▁आपोआप	-10.6277
▁मुक्काम	-10.6277
▁अधिसूचित	-10.6278
▁कुठली	-10.6278
▁ग्वाही	-10.6279
▁इच्छित	-10.628
▁झेंडा	-10.628
▁एकीकडे	-10.628
▁बरोबरच	-10.6281
▁सभा	-10.6283
▁सफरचंद	-10.6286
▁अम्मोनी	-10.6287
▁आम्हा	-10.6288
स्ट	-10.6297
▁वादळ	-10.6311
▁गुंतवणूकी	-10.6315
▁कमांड	-10.6319
▁गुंतवणूकदार	-10.6322
▁पालक	-10.6329
▁गर्भाशय	-10.6331
▁असल्या	-10.6338
▁आजाराच्या	-10.6338
▁जगासाठी	-10.6342
▁बोलण्या	-10.6343
▁संस्कार	-10.6348
▁पेरणी	-10.6348
▁अवघड	-10.6348
▁घालव	-10.6349
सरकारी	-10.6349
▁बोलाविले	-10.635
▁उघडले	-10.6352
िय	-10.6353
▁असोत	-10.6353
▁पलिष्टी	-10.6354
▁पती	-10.6355
▁ल	-10.6357
▁दृष्टान्त	-10.6366
▁करण्यासंदर्भात	-10.6371
▁प्रदर्श	-10.6371
▁चर्चेत	-10.6374
▁यहूदात	-10.6375
▁गुहा	-10.6377
१	-10.6381
▁सन्मानित	-10.6382
▁यरूशलेम	-10.639
▁चर्चासत्र	-10.6393
▁लोखंड	-10.6396
्ह	-10.6396
▁केंद्राचे	-10.64
▁टोक	-10.641
▁हिताच्या	-10.6413
▁टर्मिनल	-10.6415
▁समग्र	-10.6419
▁क्लिक	-10.6419
▁तस्करी	-10.6421
▁देशवासियांना	-10.6422
सिंह	-10.6422
▁राखणे	-10.6423
▁खाद्य	-10.6426
▁नागरिकांनी	-10.6448
▁घडत	-10.6452
▁तिच्यावर	-10.6457
▁रस्त्यां	-10.6466
▁माझ्याजवळ	-10.647
▁यांच्यामध्ये	-10.6472
▁विश्वासू	-10.6482
▁दीर्घकाळ	-10.6486
▁पुढारी	-10.649
▁अडीच	-10.6491
▁नात्याने	-10.6496
सबक	-10.6498
ांनुसार	-10.6505
ेशन	-10.6506
▁ओळखून	-10.6509
▁संबंधांना	-10.6509
▁करावेत	-10.651
▁आणल्या	-10.6516
दायक	-10.6522
▁सरकारे	-10.6529
ेश्वर	-10.6533
▁हामान	-10.6534
गट	-10.6538
▁बाजारपेठेत	-10.6538
▁व्यक्तींच्या	-10.6541
▁सर्वांत	-10.655
▁आत्म	-10.6552
▁आणण्यात	-10.6556
▁बदलून	-10.6557
▁अधिकाऱ्यांच्या	-10.6561
ध	-10.6562
▁ताबड	-10.6562
▁पुरावा	-10.6563
▁परिचारिका	-10.6563
▁तासांत	-10.6564
▁अलगीकरण	-10.6564
▁म्हणावे	-10.6566
▁काढली	-10.6566
▁गुजरातमध्ये	-10.6566
क्षेत्रीय	-10.6566
▁ठेवावा	-10.6571
▁जोडली	-10.6572
▁सगळी	-10.6573
▁लघुपट	-10.6588
▁सारखे	-10.6593
▁कशाप्रकार	-10.6597
▁प्रवेशद्वार	-10.6598
▁बिन	-10.6599
▁ऑक्सिजन	-10.6603
▁कंपन्यां	-10.6606
▁वस्तूंच्या	-10.6609
▁निर्मित	-10.6611
▁मुक्ती	-10.6616
भ	-10.6617
▁परीक्षे	-10.6618
▁लोकसभ	-10.6622
▁प्रयत्नांचा	-10.6625
▁भाषे	-10.6626
▁गैर	-10.6634
▁खबरदारी	-10.6634
▁अणु	-10.6635
▁शिवाजी	-10.6635
▁श्रीमती	-10.6636
▁तुम्हां	-10.6636
▁बनली	-10.6636
▁राजीव	-10.6637
▁तंत्रज्ञानाची	-10.6638
▁वाढवली	-10.6638
▁मेलेल्या	-10.6638
▁वाणी	-10.6639
▁दिसला	-10.6641
▁बोलावून	-10.6645
▁ट्रेन	-10.6645
▁पक्षांनी	-10.6647
▁मरणार	-10.6648
▁प्रसूती	-10.6651
▁राखण्या	-10.6652
द्वारा	-10.6659
▁घेताना	-10.6662
▁साधून	-10.6666
▁जोशी	-10.6667
▁मिनिट	-10.6669
्त	-10.6671
▁जोडून	-10.6675
▁विश्वासाने	-10.6686
▁कच्छ	-10.6691
▁व्यवस्थापनासाठी	-10.6694
▁सुगंध	-10.6694
▁सुधारणे	-10.6696
co	-10.6703
▁रहा	-10.6704
▁निवडून	-10.6705
▁एजन्सी	-10.6706
▁दुग्ध	-10.6706
▁निमंत्रण	-10.6707
५	-10.6707
▁मालिश	-10.6708
▁मिळणाऱ्या	-10.6708
▁दीव	-10.6709
▁कुळात	-10.6709
▁टाळण्यासाठी	-10.671
▁पंडित	-10.6711
▁तिथून	-10.6711
▁फूल	-10.6713
▁चौकशी	-10.6713
▁संतुलित	-10.6713
▁परिणामी	-10.6714
▁दिशेला	-10.6716
मात्र	-10.6717
कुमार	-10.6718
▁स्वयंसेवक	-10.6719
▁युरोपियन	-10.6719
▁द्वारा	-10.6723
▁कामाच्या	-10.6724
ीने	-10.6728
▁लढत	-10.6732
▁त्यांच्याकडून	-10.6737
▁जाण्याचा	-10.6738
▁नारायण	-10.6738
▁भागाला	-10.6738
▁सैनिकांना	-10.674
▁तीच	-10.6743
▁रागावला	-10.6744
▁संसद	-10.6745
▁चर्च	-10.6749
▁क्षेत्राचे	-10.6755
▁तत्त्व	-10.6756
▁सहकार्याची	-10.6756
▁सेने	-10.6757
▁स्वायत्त	-10.6761
▁तुरुंगात	-10.6765
▁पौष्टिक	-10.6767
▁सिक्कीम	-10.677
▁मा	-10.6777
▁औपचारिक	-10.6778
▁धक्का	-10.6778
▁वाक	-10.6779
▁धबधबा	-10.6781
▁ऊठ	-10.6781
▁रूपये	-10.6781
▁प्रतिनिधित्व	-10.6781
▁तंबाखू	-10.6782
▁दक्षता	-10.6782
▁हातमाग	-10.6785
▁सर्वसाधारण	-10.6786
▁वाटू	-10.6787
▁ओझे	-10.6787
▁वरुन	-10.6791
▁च	-10.6791
▁सिध्द	-10.6791
वार	-10.6793
▁नर	-10.6794
▁दशकात	-10.6794
▁पोहोचला	-10.6795
▁आणतो	-10.6795
▁घेणाऱ्या	-10.6796
▁सल्लामसलत	-10.6811
▁गाण	-10.6818
▁रडत	-10.6821
▁वाढू	-10.6822
▁शिखरावर	-10.6825
▁जलसाठ्यां	-10.6829
▁अंधारात	-10.683
▁तेव्हापासून	-10.6832
▁स्त्रियां	-10.6834
व्ह	-10.6835
▁हंगामात	-10.6839
▁गाद	-10.6841
▁कैद	-10.6842
▁कोकर	-10.6843
▁गावी	-10.6847
दान	-10.685
▁मिसरमध	-10.6851
▁फायदेशीर	-10.6855
▁मार्गक्रमण	-10.6855
▁पूर्वीच्या	-10.6861
▁दृष्टीकोनातून	-10.6867
▁गो	-10.6867
▁उपस्थितांना	-10.6871
▁दिल्याबद्दल	-10.6877
▁सुविधांची	-10.6879
▁अनेकदा	-10.6881
▁जड	-10.6888
▁कार्यक्रमाचा	-10.6896
▁मल	-10.6901
▁होईन	-10.6902
▁हाड	-10.6904
▁सत्रात	-10.6906
▁परतले	-10.6912
▁संरक्षणासाठी	-10.6918
▁मदती	-10.692
तीन	-10.6921
▁मर	-10.6928
▁टक्क्या	-10.6928
▁टाकी	-10.6929
▁यहोयाकीम	-10.693
▁विलक्षण	-10.693
▁आगमन	-10.6931
▁मोबाइल	-10.6931
▁ज्याची	-10.6931
▁सेंद्रिय	-10.6933
▁वचनबद्धता	-10.6934
▁स्वीकारले	-10.6935
▁युध्दात	-10.6935
▁तिकीट	-10.6936
▁नियोजित	-10.6936
▁करारात	-10.6936
▁अंमलात	-10.6937
द्वितीय	-10.6937
▁वचने	-10.694
▁खराब	-10.694
▁देवावर	-10.6943
▁बनवण्यात	-10.6943
▁शकला	-10.6944
▁राष्ट्रांत	-10.6945
▁र	-10.6948
▁नेताजी	-10.6948
▁राखून	-10.6949
▁ग्रस्त	-10.695
▁वागला	-10.695
▁पाचव्या	-10.695
तर्फे	-10.6952
▁पुरवण्यात	-10.6956
▁गरजू	-10.6956
▁ग्राहकांना	-10.6958
▁प्रकल्पामुळे	-10.6981
▁देवाकडून	-10.6981
▁आरोग्यविषयक	-10.6984
तक	-10.6985
▁प्रतिष्ठा	-10.6987
▁प्रमाणित	-10.699
▁राख	-10.6999
▁मेजवानी	-10.7
▁सरकारांनी	-10.7004
विरूध्द	-10.7005
▁दौऱ्यादरम्यान	-10.7005
▁शक्ति	-10.7006
▁सार्वत्रिक	-10.7006
▁बजावली	-10.7007
▁भक्त	-10.7007
खेरीज	-10.7007
▁रमेश	-10.7007
▁संसदीय	-10.7007
▁शहाणे	-10.7009
▁दासी	-10.7012
▁एसाव	-10.7013
▁तुमच्यामध्ये	-10.7015
▁सांगितला	-10.7016
▁जुलाब	-10.7021
▁११	-10.7021
▁येथेच	-10.7022
▁१४	-10.7023
ांप्रमाणे	-10.7024
▁शिष्यांना	-10.7026
▁बाजूस	-10.7028
▁उद्दीष्ट	-10.7029
▁द्रव्य	-10.703
▁नोकरी	-10.7035
▁टप्प्या	-10.7041
▁ऐकला	-10.7042
▁अभाव	-10.7043
▁ठेवी	-10.7044
▁कनानी	-10.7045
▁जागृत	-10.7047
▁बालक	-10.7048
▁नांव	-10.7049
▁राजाचे	-10.706
▁बदलले	-10.7067
▁शरीरावर	-10.7068
▁निर्मितीत	-10.7074
▁फंड	-10.708
▁खावे	-10.708
▁तात्काळ	-10.7081
▁प्रयागराज	-10.7081
▁शकलो	-10.7081
▁कॉर्पोरेशन	-10.7081
▁जोरदार	-10.7083
▁रानात	-10.7085
▁केंद्रस्थानी	-10.7086
▁गुंतवणुकीला	-10.7087
▁पंतप्रधानांची	-10.7087
▁द्वीप	-10.709
▁लावल्याने	-10.7093
▁आल्यानंतर	-10.7095
ाय	-10.7099
▁वर्षभर	-10.71
▁प्रतिबंधित	-10.7102
▁अभिनव	-10.7104
▁बनारस	-10.7105
तेच्या	-10.7105
▁द्राक्षे	-10.7109
▁पंचायती	-10.7109
ावयास	-10.711
▁परिषदेने	-10.7114
▁हळू	-10.7114
▁पंच	-10.7115
er	-10.7125
▁सं	-10.7127
▁गप्प	-10.7127
ावी	-10.7135
▁डोक्या	-10.7137
गाव	-10.7138
▁विद्यालय	-10.7143
▁तेज	-10.7145
▁सोयी	-10.7147
प्रसंगी	-10.7154
▁योजनांची	-10.7155
▁आपल्याबरोबर	-10.7156
▁रहिवासी	-10.7157
▁प्रेरणादायी	-10.7157
▁रोम	-10.7158
▁संपदा	-10.7162
▁कटिबद्धता	-10.7163
▁पुरवठादार	-10.7164
▁वेशी	-10.7167
▁वायु	-10.7167
▁38	-10.717
▁नसलेल	-10.7172
▁टिक	-10.7172
▁स्थायी	-10.7175
▁फिरण्या	-10.7177
▁कमाल	-10.7183
▁जीवाणू	-10.7184
▁संसर्गजन्य	-10.7186
▁वर्षांसाठी	-10.7189
▁तुझ्याशी	-10.7196
▁अरामी	-10.7198
▁निर्णयामुळे	-10.7204
▁मांडण्या	-10.7206
▁लाभले	-10.7206
▁ओत	-10.7209
▁स्तरीय	-10.721
▁राय	-10.7212
लोक	-10.7227
▁ठेवता	-10.7228
▁आज्ञे	-10.7228
▁कारागीर	-10.7228
▁पोर्टलवर	-10.7233
▁ह्यासाठी	-10.7233
▁कारणे	-10.7234
▁ट्रम्प	-10.7234
▁हस्तांतरित	-10.7234
▁निगडीत	-10.7236
▁मागास	-10.7237
▁जुना	-10.7239
▁चार्ज	-10.724
▁वृध्द	-10.725
▁नगरातील	-10.726
▁करण्या	-10.7261
▁समुदायाच्या	-10.7266
▁स्टेशन	-10.7269
▁संतोष	-10.727
▁वस्तूंची	-10.7271
▁पैकी	-10.7273
▁मेंदू	-10.728
▁करो	-10.7285
▁सैतान	-10.7285
▁लपव	-10.729
▁नळ	-10.7292
▁वधस्तंभावर	-10.7294
तम	-10.7297
▁द्वितीय	-10.73
ऐवजी	-10.7303
▁शेख	-10.7308
▁वाचवू	-10.7309
▁आक्रोश	-10.7311
▁निषेध	-10.7311
▁प्रशिक्षित	-10.7313
▁जागरूकता	-10.7314
▁जम	-10.7314
▁दाट	-10.7315
▁मेघालय	-10.7315
▁टाकावे	-10.7315
▁साधणार	-10.7315
▁संग्रहालयात	-10.7316
▁नौका	-10.7317
▁मेले	-10.7317
▁कितीतरी	-10.7319
रीत्या	-10.7323
▁भावनेने	-10.733
शासित	-10.7337
▁डाळी	-10.7337
▁पसरले	-10.7339
▁प्रकल्पासाठी	-10.7339
▁वंशजांना	-10.7339
▁चक्रीवादळ	-10.7344
▁एक्सप्रेस	-10.7349
▁रांची	-10.7356
▁गरिबां	-10.7364
▁ह्यांची	-10.7365
▁औषधांचा	-10.7369
▁कमकुवत	-10.7378
▁किनारी	-10.7378
▁इलेक्ट्रिक	-10.7382
▁इंग्रजी	-10.7383
▁लॉजिस्टिक	-10.7389
▁अल्पसंख्याक	-10.7389
▁निपटारा	-10.7389
▁पार्सल	-10.7389
▁2016-17	-10.739
▁व्यवस्थापकीय	-10.7391
▁पोहचण्या	-10.7391
▁उज्ज्वला	-10.7392
▁बनण्या	-10.7393
▁गरजेवर	-10.7394
▁चालून	-10.7395
▁महामारीमुळे	-10.7399
▁याजकांना	-10.7402
्र	-10.7405
▁येण्यासाठी	-10.7405
▁भारतीयांच्या	-10.7407
▁बनत	-10.7408
’’	-10.7409
पार	-10.741
▁काढण्या	-10.7413
▁जावा	-10.7414
▁थांबले	-10.7422
▁वाटणार	-10.7424
▁काळे	-10.743
▁यांच्याबरोबर	-10.7431
▁व्यवस्थेत	-10.7435
▁धडा	-10.7444
▁नाकार	-10.7445
▁प्रतिक	-10.7456
▁वयात	-10.7463
▁मने	-10.7464
▁पाळत	-10.7465
▁अखेर	-10.7467
▁पांढरे	-10.7468
▁दर्शविली	-10.7469
▁क्र	-10.7469
▁अर्थसहाय्य	-10.747
▁लखनौ	-10.747
ीकरण	-10.7471
व्यापी	-10.7472
▁बारीक	-10.7472
▁लोकं	-10.7474
▁लॉक	-10.7475
▁दाखवली	-10.7479
▁खान	-10.7479
▁प्रसंग	-10.7482
कडील	-10.7484
▁सामान्यपणे	-10.7488
तु	-10.7491
▁पकडले	-10.7498
▁निर्मितीला	-10.7501
▁वल्लभ	-10.7501
▁मठ	-10.7503
▁असती	-10.7509
▁दुध	-10.7511
▁लेखा	-10.7518
▁मॉरिशस	-10.7525
▁साफ	-10.7527
काही	-10.7533
▁माय	-10.7539
▁मृद	-10.7541
▁पातळीवरील	-10.7542
ंस	-10.7547
▁ओडिशा	-10.7548
▁अशोक	-10.7548
▁लेख	-10.7548
▁रुपयांपेक्षा	-10.755
▁संकेत	-10.7551
▁इस्राएलवर	-10.7553
▁अचूक	-10.7554
▁बांग्लादेश	-10.7556
▁अभयारण्य	-10.7556
▁नाम	-10.7556
टा	-10.7561
कधी	-10.7561
▁370	-10.7569
▁पुरेश	-10.7576
कल	-10.7578
▁रेल्वेमार्ग	-10.7581
▁स्वर्गा	-10.7586
▁हेतूने	-10.7592
▁देशांची	-10.7595
▁वडीलधार	-10.7608
▁जगू	-10.7612
▁दमण	-10.7612
▁स्वभाव	-10.7617
▁43	-10.762
▁बंगालच्या	-10.7623
▁अतिथी	-10.7623
▁खातरजमा	-10.7628
▁मुखर्जी	-10.7628
▁स्वाधीन	-10.7628
▁उदघाटन	-10.7628
▁पाहणे	-10.7628
▁प्राध्यापक	-10.763
▁स्वीडन	-10.763
▁श्रद्धा	-10.7631
▁पणजी	-10.7632
▁विमानतळावर	-10.7634
▁सहाव्या	-10.7642
▁नमन	-10.7645
▁अहज्या	-10.7646
▁वाय	-10.7651
▁पोहोचवण्या	-10.7653
▁योजनेसाठी	-10.7658
▁माणसाचा	-10.7659
▁पुरेशा	-10.7659
▁दौऱ्या	-10.7679
▁खाद्यपदार्थ	-10.7685
▁बेथेल	-10.7687
ति	-10.7689
▁करूया	-10.7693
▁क्षेत्रावर	-10.7706
▁संरचना	-10.7708
▁अमस्या	-10.7708
▁बर्णबा	-10.7708
▁प्रदीर्घ	-10.7708
▁अजऱ्या	-10.7708
▁प्रतिष्ठित	-10.7711
▁फांद्या	-10.7712
▁शस्त्र	-10.7713
▁विकासावर	-10.7714
▁बिमस्टेक	-10.7715
▁झाडां	-10.7718
▁ति	-10.772
▁शोधण्यासाठी	-10.772
▁नागरिकांसाठी	-10.772
▁वर्तन	-10.772
▁वाढती	-10.7721
▁समुद्रा	-10.7736
▁ठिकाणे	-10.7738
▁सम	-10.7741
▁ठोक	-10.7742
▁दिवसभर	-10.7743
दर	-10.7748
ेड	-10.7749
▁आशे	-10.7749
ंबद्दल	-10.7753
▁रक्तात	-10.7755
▁सचिवांनी	-10.7759
▁करणाऱ्यांना	-10.7772
▁53	-10.7775
▁पर्यटकांच्या	-10.7778
▁नेण्या	-10.7779
▁पडताळणी	-10.7779
50	-10.7781
▁पेय	-10.7782
▁बघू	-10.7784
▁प्रभावीपण	-10.7786
वाद	-10.7788
▁सर्वांगीण	-10.7789
▁संघटनां	-10.7791
▁आव्हानात्मक	-10.7792
▁सायन्स	-10.7793
▁करण्याविषयी	-10.7793
▁प्रतिबंधक	-10.7793
▁स्थूलपणा	-10.7793
▁एकंदर	-10.7794
▁जिल्ह्यां	-10.7795
▁स्मरणात	-10.7803
▁हितासाठी	-10.7805
▁स्वराज्य	-10.7805
▁नवनवी	-10.7807
▁पाठवण्यात	-10.7811
▁पैशा	-10.7815
▁येणार्या	-10.7819
▁बनलेल्या	-10.7831
▁चमू	-10.7832
▁मेळा	-10.7832
▁नद्यां	-10.7832
▁किमती	-10.7834
▁चोरी	-10.7835
▁सद्यस्थिती	-10.7838
▁चालला	-10.7846
▁मर्दखय	-10.7846
▁सभेत	-10.7848
▁जरूर	-10.7848
▁अस्तित्व	-10.7857
▁जावी	-10.7859
स्त	-10.786
▁लावू	-10.7867
▁काळामध्ये	-10.787
▁महिना	-10.7871
▁डेव्हलपमेंट	-10.7871
▁निर्दोष	-10.7871
▁साबण	-10.7871
▁विद्वान	-10.7871
▁निष्ठा	-10.7872
▁योगाभ्यास	-10.7872
▁अभियानाच्या	-10.7874
▁टीका	-10.7875
▁जाईन	-10.7875
▁अॅप	-10.7875
▁सिंहासन	-10.7875
▁धोकादायक	-10.7876
▁बहिणी	-10.7876
▁घेईन	-10.7876
▁आढळते	-10.7879
▁घरातून	-10.7879
पंतप्रधान	-10.7884
▁लावा	-10.7887
▁यांच्याकडून	-10.7893
▁शरण	-10.7895
▁अधिकाऱ्यांची	-10.7905
▁संकुल	-10.7905
▁नील	-10.7918
▁कळते	-10.7919
▁दूरध्वनीवर	-10.7921
▁आश्चर्यचक	-10.7927
▁परिवार	-10.7928
▁कुटुंबीय	-10.7928
▁डोळ्या	-10.7935
▁स्वयंपूर्ण	-10.7936
▁जवळून	-10.7939
▁सामाव	-10.7944
▁चालक	-10.7945
▁सातत्य	-10.7946
▁आंध्रप्रदेश	-10.7956
▁पाहुणे	-10.7956
▁दीनदयाळ	-10.7956
▁संक्रमित	-10.7956
▁संरक्षक	-10.7957
▁नाविन्यता	-10.7958
▁सन्माननीय	-10.7958
▁ग्रीड	-10.796
▁भाडे	-10.7962
▁पदार्थां	-10.7963
▁मांडला	-10.7963
▁मुदतवाढ	-10.7965
▁कानावर	-10.7966
▁वाहिनी	-10.797
▁रस्त्याने	-10.797
▁धर	-10.797
▁केसेस	-10.7974
▁कण	-10.7984
▁खोलीत	-10.7992
▁घालण्या	-10.7992
▁आरोप	-10.7997
▁ठेवण्याची	-10.8009
▁गोल	-10.8022
प्रकारे	-10.8022
▁अंजिर	-10.8022
▁सणाच्या	-10.8023
▁द्राक्ष	-10.8023
▁जाणारा	-10.8026
▁टू	-10.8027
▁लाव	-10.8034
▁आनंदाची	-10.8034
▁स्वास्थ्य	-10.8037
▁रहस्य	-10.8037
▁सादोक	-10.8037
▁कम्युनिटी	-10.8037
▁नेमणूक	-10.8038
▁करारकोश	-10.8038
▁यरीहो	-10.8038
▁चूर्ण	-10.8039
▁सोसायटी	-10.8039
▁मोकळे	-10.8039
▁समवेत	-10.804
▁पाळली	-10.804
▁निवासी	-10.8041
▁पाणीपुरवठा	-10.8041
▁दलाचे	-10.8041
▁दिवाळी	-10.8042
▁धूर	-10.8042
▁धावा	-10.8046
▁जाण्यास	-10.8049
▁कानाकोपऱ्यात	-10.8051
मधले	-10.8057
▁असामान्य	-10.806
▁पाळा	-10.8062
▁९	-10.8071
▁गुणवत्ते	-10.8071
▁कलाम	-10.8072
चार	-10.8075
▁सांगायचे	-10.8077
▁हिंदुस्तान	-10.8078
▁74	-10.8079
▁यांच्यासाठी	-10.8081
▁त्याच्याजवळ	-10.809
▁आगीत	-10.809
ंबाबत	-10.809
▁दुपार	-10.809
▁धारण	-10.8092
▁पटी	-10.8105
▁स्वराज	-10.8108
▁नानक	-10.8119
▁आश्रय	-10.812
▁उल्लंघन	-10.8121
▁मिळणे	-10.8122
▁कृतज्ञता	-10.8122
▁नादारी	-10.8122
▁वगैरे	-10.8122
▁बालविकास	-10.8122
▁ठरली	-10.8123
▁तुकडी	-10.8123
▁उठला	-10.8131
▁विरुध्द	-10.8133
▁युरोपीय	-10.8133
▁ज्ञानी	-10.8134
▁करेन	-10.8135
▁उभ्या	-10.8141
▁घडामोडी	-10.8144
▁तुकड्या	-10.8144
▁पिऊ	-10.8149
▁वेळेला	-10.815
▁अभियानात	-10.8151
▁वापरात	-10.8152
▁सहायक	-10.8156
▁क्षेत्राची	-10.8159
▁सवयी	-10.8171
▁टाकील	-10.8171
मंत्र्यांनी	-10.8175
रो	-10.8185
▁शक	-10.8189
▁जाणार्या	-10.8192
▁उद्योगाला	-10.8194
बाहेर	-10.8194
▁स्टार्टअप	-10.8196
▁जरा	-10.8201
▁हलके	-10.8206
▁रामा	-10.8206
▁निष्कर्ष	-10.8206
▁वगळता	-10.8206
▁सांडपाणी	-10.8206
▁शिकवणुकी	-10.8206
▁पौंड	-10.8206
▁बहुआयामी	-10.8206
▁पोखरिया	-10.8206
▁भाऊबंद	-10.8207
▁जलशक्ती	-10.8207
नगर	-10.8208
▁परवडणाऱ्या	-10.8208
▁फिल्म्स	-10.8209
▁अन्याय	-10.8209
▁मजुरांना	-10.8209
▁दोन्हीं	-10.821
▁स्टील	-10.8211
▁दावा	-10.8211
▁शांततापूर्ण	-10.8212
▁आवडत	-10.8212
00	-10.8212
▁होशील	-10.8214
▁44	-10.8214
▁पाळल्या	-10.8214
▁उद्भवलेल	-10.8216
ापैकी	-10.8218
▁धोरणाचा	-10.8221
▁लागल्या	-10.8221
▁वर्षानंतर	-10.8222
▁दृष्ट्या	-10.8227
▁कातडी	-10.8231
▁गुंतवणुकीसाठी	-10.8231
▁मनुष्याचा	-10.8233
पाल	-10.8234
▁कालावधीसाठी	-10.8239
▁क्षेत्रफळ	-10.824
▁बालकां	-10.8241
ीम	-10.8244
▁आजपासून	-10.825
▁सहली	-10.8253
▁राबवत	-10.8254
▁घरांमध्ये	-10.8255
तेची	-10.8256
▁वर्गाला	-10.8256
▁टोळ	-10.8263
स्थान	-10.8263
▁शहराला	-10.8263
▁देशांसाठी	-10.8266
▁जन्माला	-10.8267
▁पापांची	-10.8284
▁नेत	-10.8284
पर्यत	-10.8284
▁हुकूम	-10.8292
▁यहुदी	-10.8292
▁कारखाना	-10.8292
▁पोहोचेल	-10.8292
▁नीतिमान	-10.8293
▁मोटार	-10.8295
▁कॉफी	-10.8295
एफ	-10.8298
▁600	-10.8301
इन	-10.8303
▁लोकांकडून	-10.8304
▁आजूबाजू	-10.8304
▁उभारण्यासाठी	-10.8306
▁दर्शनीय	-10.8307
गड	-10.8307
▁उद्यानाच्या	-10.8309
▁चाचण्यां	-10.8309
घ	-10.831
▁सांगड	-10.8312
▁सगळ्यांना	-10.8313
▁वर्षापर्यंत	-10.8313
▁गोंधळ	-10.8316
▁कंपन्यांच्या	-10.8317
▁अशावेळी	-10.8319
▁सभागृह	-10.8324
▁दक्षिणेकड	-10.8326
▁संघटनेने	-10.8327
▁यू	-10.8328
▁क्रमांकावर	-10.8331
▁ओढ	-10.8336
▁शाळेत	-10.8342
▁दराने	-10.8347
▁अगोदरच	-10.835
▁आनंदित	-10.8351
▁नातेवाईक	-10.836
▁कार्यकाळात	-10.8363
▁कार्यालयात	-10.8364
▁शलमोना	-10.8372
▁सहकार्याचे	-10.8373
▁रुंदी	-10.8374
▁प्लास्टिक	-10.8378
▁अबीमलेख	-10.8378
▁अमंगळ	-10.8378
▁थरथर	-10.8378
▁रुग्णसंख्या	-10.8378
▁कुपोषण	-10.8379
▁कुंड	-10.838
▁शौच	-10.8383
▁व्हिएतनाम	-10.8383
▁अलीकडेच	-10.8384
▁जीडीपी	-10.8385
▁व्यासपीठावर	-10.8387
▁डीआरडीओ	-10.8388
▁बाहेरच्या	-10.8388
▁मळ	-10.8396
विज्ञान	-10.8399
ींग	-10.8402
▁प्रवाहात	-10.8406
▁योगा	-10.8409
▁निम	-10.841
▁गीत	-10.8412
▁परतफेड	-10.8413
पेक्षाही	-10.8422
▁झाल्यापासून	-10.843
▁रस्त्याच्या	-10.8432
▁येण्याचे	-10.8436
्यांना	-10.8437
▁१३	-10.844
▁प्रसन्न	-10.8441
▁इस्राएलमध्ये	-10.8442
▁गुलाब	-10.8451
▁फेस	-10.8453
▁शस्त्रक्रिये	-10.8455
▁अधिकाऱ्यां	-10.8455
▁उच्चाटन	-10.8459
▁नेहरू	-10.8459
▁कर्म	-10.846
▁सिंहासनावर	-10.8462
ाविरुद्ध	-10.8464
ोन्मुख	-10.8465
▁वाढविणे	-10.8465
▁पूर्वसंध्येला	-10.8465
▁संहार	-10.8465
▁मिळवण्या	-10.8465
▁कायमचा	-10.8466
▁उदाहरणे	-10.8466
▁वतन	-10.8467
▁कार्यवाही	-10.8467
▁शिस्त	-10.847
▁दुर्	-10.8471
r	-10.8473
▁आजकाल	-10.8474
▁2000	-10.8474
▁जाण्या	-10.8475
▁पुल	-10.8476
▁समजाव	-10.8478
▁लुट	-10.8479
▁करुब	-10.848
▁दुकाने	-10.8483
▁येता	-10.8485
▁उपाययोजनांची	-10.8485
▁करण्यामध्ये	-10.8486
▁अध्यादेश	-10.8491
▁रूग्णां	-10.8493
▁माणसांनी	-10.8494
कमी	-10.8498
▁फुले	-10.8501
ान	-10.8509
▁आवड	-10.8513
▁प्रभार	-10.8524
▁बाशान	-10.8524
▁स्थळे	-10.8524
▁येणारी	-10.853
▁तत्वावर	-10.8531
▁शिथिल	-10.8532
▁पर्यटनाच्या	-10.8533
▁सुपर	-10.8534
िस	-10.8539
▁उचलत	-10.8541
▁मुकुट	-10.8544
▁दिलेस	-10.8544
गो	-10.8544
▁ठेवण्याचे	-10.8546
▁गिगावॅट	-10.8553
▁भयभीत	-10.8553
▁इथेनॉल	-10.8553
▁अभिवचन	-10.8553
▁अब्बास	-10.8554
▁करण्याकरिता	-10.8555
▁क्षणी	-10.8555
▁आयुष्यभर	-10.8556
ाई	-10.8557
▁वेढा	-10.8559
▁निंदा	-10.8561
▁देशी	-10.8562
▁बघा	-10.8566
▁मागच्या	-10.8567
▁यापूर्वीच	-10.8574
▁मनाला	-10.8574
▁युवकांनी	-10.8575
▁125	-10.8576
▁राज्यांत	-10.8578
▁फिरत	-10.8578
▁भरली	-10.8585
▁कितीही	-10.8589
▁अस्वस्थ	-10.859
▁घटकांना	-10.8592
कार्यक्रमांतर्गत	-10.8596
▁तुमच्यातील	-10.8598
▁कोची	-10.86
▁तूट	-10.86
▁सांगावे	-10.8601
▁अभियानाचा	-10.8602
▁वास्तव	-10.8604
विरोधात	-10.8605
▁छायाचित्र	-10.8606
▁गिबा	-10.8613
गा	-10.8615
▁प्रीती	-10.8616
▁मस्तक	-10.8618
▁घेतल्याने	-10.8623
्यर्थ	-10.8623
▁स्वतःची	-10.8624
▁पाहतील	-10.8624
▁बोली	-10.8626
▁उर	-10.8627
▁गरोदर	-10.8629
▁मिश्रा	-10.8638
▁मापदंड	-10.8639
▁झपाट	-10.8641
▁मोहम्मद	-10.8641
▁उपाध्याय	-10.8641
▁अभियानांतर्गत	-10.8642
▁नूतनीकरण	-10.8642
art	-10.8643
▁भोपाळ	-10.8643
▁साखरे	-10.8644
▁बोध	-10.865
▁सामर्थ्याने	-10.8651
▁श्रीलंका	-10.8653
▁मानतात	-10.8654
▁नमुन्यांची	-10.8655
▁गाठी	-10.8659
▁उलाढाल	-10.8661
▁यशस्वीपणे	-10.8661
▁ग्रंथ	-10.8664
▁विष	-10.8667
▁जिल्ह्यातल्या	-10.867
▁उपयोगात	-10.8674
तेसाठी	-10.8676
▁केनिया	-10.8679
▁वाढण्या	-10.8679
▁शास्त्रात	-10.868
▁मार्गाचे	-10.8681
▁सरकारांना	-10.8682
ेत	-10.8684
▁ह्याशिवाय	-10.8689
ठ	-10.8689
▁काना	-10.8695
▁मनुष्या	-10.87
▁कोर	-10.8704
▁सेंट	-10.8711
▁तरूण	-10.8717
▁लागून	-10.8723
▁खिडकी	-10.8723
▁संगणक	-10.8725
असे	-10.8728
▁मंदिराचा	-10.8729
▁बहीण	-10.873
▁रेल्वेस्थानक	-10.873
▁जलसंपदा	-10.873
▁अबनेर	-10.8731
▁बातमीपत्र	-10.8731
न्	-10.8731
▁भेटीदरम्यान	-10.8733
ers	-10.8751
▁काढ	-10.8753
▁तोडून	-10.8754
▁कर्मचाऱ्यांच्या	-10.8762
उ	-10.8763
▁निधीची	-10.8765
▁साहस	-10.8769
▁तत्त्वे	-10.8769
▁सारा	-10.8774
▁मंत्रालयाकडून	-10.8776
▁प्रकल्पाचा	-10.8777
▁घाबरु	-10.8779
▁दाखविले	-10.8779
▁एज्रा	-10.8791
▁वापरण्या	-10.8796
▁आतल्या	-10.8797
▁घाम	-10.8798
▁युवकां	-10.88
▁समुद्री	-10.8803
▁हजर	-10.881
▁आपल्यावर	-10.8811
▁वन्यजीव	-10.8812
▁काढा	-10.8814
▁नियमावली	-10.8816
▁पुरवठ्या	-10.8816
▁पश्चिमे	-10.882
▁संतुलन	-10.882
▁रिसर्च	-10.882
▁लागणाऱ्या	-10.8821
▁रसायने	-10.8822
▁न्यायनिवाडा	-10.8822
▁मोठया	-10.8823
▁अभियानाअंतर्गत	-10.8823
▁2025	-10.8824
▁निवडणुका	-10.8825
▁कार्यालये	-10.8825
▁फूड	-10.8826
ण्याचे	-10.8828
▁कारगिल	-10.8829
▁टाकल्या	-10.8833
हर	-10.8837
▁दुष्परिणाम	-10.8846
आरोग्य	-10.8847
▁किनाऱ्या	-10.8848
▁साहसी	-10.8854
▁1.5	-10.8855
यर	-10.8855
▁पोहचू	-10.8856
▁अशक्तपणा	-10.8858
▁द्वार	-10.8864
▁कचऱ्या	-10.8866
▁शब्दात	-10.8873
▁भागावर	-10.8875
▁मदतीला	-10.8876
▁रेड	-10.8878
▁रऊबेन	-10.8879
▁तेवढे	-10.8883
,500	-10.8893
▁नावावर	-10.8893
▁अपराधी	-10.8903
▁निर्मूलन	-10.8905
▁देणगी	-10.8911
▁उज्ज्वल	-10.8911
▁अविभाज	-10.8911
▁थकबाकी	-10.8911
▁विनंति	-10.8911
▁हनन्या	-10.8911
▁उचित	-10.8911
▁पराभूत	-10.8911
▁भक्ती	-10.8912
▁अन्नप्रक्रिया	-10.8912
▁थकवा	-10.8912
▁मालवाहू	-10.8913
▁करायच्या	-10.8913
▁थक	-10.8913
▁विवाह	-10.8913
▁रेल्वेचे	-10.8916
▁प्रकृती	-10.8917
▁सिन्हा	-10.8917
▁वापरासाठी	-10.8918
▁दिसणार	-10.8922
▁मरतील	-10.8923
▁शास्त्रीय	-10.8929
▁52	-10.8934
▁नुसार	-10.8937
▁गुफा	-10.8944
▁सेल	-10.8945
▁रकमे	-10.8945
▁केल्याप्रमाणे	-10.8946
▁सांभाळ	-10.895
ल्यामुळे	-10.8951
▁मित्रांना	-10.8954
ोत्तर	-10.8955
▁95	-10.8958
▁आजाराचा	-10.8962
▁बांधला	-10.8967
▁उंट	-10.897
▁राहण्याचे	-10.8985
▁परिस्थितीवर	-10.8985
▁मस्तिष्क	-10.8995
▁भ	-10.8997
▁आणणार	-10.8997
▁कंटेनर	-10.8999
ंकडे	-10.9001
▁अनिवासी	-10.9003
▁शांघाय	-10.9003
▁सामुदायिक	-10.9003
▁घट्ट	-10.9004
▁तथापि	-10.9004
वन	-10.9004
▁आवश्यकतेनुसार	-10.9004
▁नसल्यामुळे	-10.9005
▁आग्रा	-10.9006
▁बर्याच	-10.9009
▁परमेश्वरावर	-10.901
▁चौधरी	-10.9012
▁बसव	-10.9015
▁थर	-10.9017
▁पहाडी	-10.9018
▁ढाली	-10.9019
▁मुलांमध्ये	-10.9022
▁६०	-10.9023
▁माझ्यापासून	-10.9024
▁माहितीचे	-10.9026
▁भागामध्ये	-10.9027
▁त्यांच्यातील	-10.903
▁डे	-10.9035
▁अव	-10.9038
▁गायी	-10.9039
▁मिनिटे	-10.9042
▁संदेष्ट्यां	-10.9042
▁७०	-10.9045
▁हवेली	-10.9055
▁याव्यतिरिक्त	-10.9059
▁रुग्णांसाठी	-10.9061
▁त्यांच्यापैकी	-10.9061
था	-10.9069
▁देशांमधल	-10.907
▁असावेत	-10.9074
बद्ध	-10.9082
▁भावा	-10.9085
▁जाणतो	-10.9086
▁सिनेमा	-10.9094
▁बायो	-10.9095
▁संपुष्टात	-10.9096
▁सुसज्ज	-10.9096
▁राखीव	-10.9096
▁भगिनी	-10.9098
▁1.	-10.9099
▁चालणाऱ्या	-10.9099
▁महादेव	-10.9099
▁इशाय	-10.91
▁आदानप्रदान	-10.9101
▁कोट	-10.9101
▁भ्रमण	-10.9103
▁संदेष्ट्यांना	-10.911
▁रंगाचे	-10.9114
▁नसतात	-10.9115
▁इस्रो	-10.9118
विकास	-10.9119
म्	-10.9119
▁जमाव	-10.9122
▁परक्या	-10.9135
▁दैवतांची	-10.9136
▁शाखा	-10.9137
▁ट्रायफेड	-10.9139
▁कोल	-10.9146
▁वासर	-10.9155
▁शैली	-10.917
▁विक	-10.9171
▁आंदोलन	-10.9188
ारी	-10.9188
▁व्याघ्र	-10.9189
▁शखेम	-10.9189
▁अव्वल	-10.9189
▁सीमाशुल्क	-10.919
▁शकाल	-10.919
▁असण्या	-10.919
▁चौथा	-10.919
▁राज्याचा	-10.9191
▁बनवली	-10.9192
▁बंधूंनो	-10.9192
▁शांतते	-10.9193
▁कु	-10.9194
▁समावेशक	-10.9194
▁ऐकायला	-10.9194
▁वॉटर	-10.9195
जल	-10.9195
▁बसेल	-10.9198
▁महोत्सवाचे	-10.9201
▁85	-10.9202
ead	-10.9204
▁त्वचेवर	-10.9209
▁प्रकरण	-10.9211
▁जनतेसाठी	-10.9214
▁है	-10.9217
▁जंगलात	-10.9221
▁परदेशातील	-10.9221
▁गालील	-10.9226
जो	-10.9227
▁कराराचे	-10.9233
▁महिलांनी	-10.9236
▁सांगण्यासाठी	-10.9237
▁ताजी	-10.9238
ंमधील	-10.9243
▁प्रयत्नात	-10.9243
▁केव्हा	-10.9247
▁पातळ	-10.925
▁पहाय	-10.9253
▁सांगाय	-10.9257
▁चौक	-10.9258
▁संस्थेला	-10.9259
▁मालाची	-10.9266
▁लागवड	-10.9276
▁तु	-10.928
▁प्रगतीसाठी	-10.9281
▁गुन्हे	-10.9283
ावश्यक	-10.9283
▁गाय	-10.9283
ण्याचा	-10.9283
▁धूम्रपान	-10.9283
▁एफ्राइम	-10.9283
▁सुदृढ	-10.9283
▁अल्सर	-10.9283
▁येईपर्यंत	-10.9284
▁2021	-10.9285
▁परिचय	-10.9286
▁अनुक्रम	-10.9286
▁मीखा	-10.9287
▁नेऊन	-10.9288
▁दैवतां	-10.9288
▁संस्थापक	-10.929
▁गरीबी	-10.9291
▁मंत्रालयाचा	-10.9293
▁मांडवीय	-10.9295
▁जोडल्या	-10.9296
▁तृतीयांश	-10.9297
▁बर्फा	-10.93
▁खेलो	-10.9301
▁नदीवर	-10.9302
▁विहार	-10.9305
▁गांधीजींच्या	-10.9305
▁स्वतःच	-10.9305
▁त्याऐवजी	-10.9312
आपल्या	-10.9313
पवित्र	-10.9314
▁सैनिकांनी	-10.9316
▁यांच्याकडे	-10.9316
▁वाटली	-10.9316
▁एकटा	-10.9317
▁पकडून	-10.9318
▁कार्यक्रमासाठी	-10.9318
▁मलेशिया	-10.9321
▁चौरस	-10.9325
▁त्याहून	-10.9327
▁ह्रदय	-10.9328
▁शिफारशी	-10.9332
▁स्नेह	-10.9339
▁वैध	-10.934
▁सेवकांना	-10.9342
▁पान	-10.9344
▁साक्षी	-10.9347
▁भूत	-10.9362
▁स्नेही	-10.9363
▁वापरली	-10.9364
देव	-10.9366
▁हस्त	-10.9368
▁छाप	-10.9369
▁गिर्यारोहण	-10.9373
▁तोंडात	-10.9374
▁शासक	-10.9376
▁नम्र	-10.9377
▁कॅबिनेट	-10.9379
▁डिजीटल	-10.9379
▁पॅलेस	-10.9379
▁हातांनी	-10.9379
▁घालणे	-10.9379
▁अणुऊर्जा	-10.938
▁आकडा	-10.938
▁जळत	-10.9381
▁रक्तदान	-10.9381
▁नाईक	-10.9382
▁मानला	-10.9383
▁सुरुवाती	-10.9384
▁स्थिरता	-10.9385
▁कामाचा	-10.9386
▁नेत्यांना	-10.9391
▁टॅक्सी	-10.9392
▁शेतकऱ्यां	-10.9392
▁आचरण	-10.9395
▁मेंढ्यां	-10.9397
ोन	-10.9401
▁मंदिरे	-10.9402
▁वेळेस	-10.9403
▁वापरल्या	-10.9409
ांसमवेत	-10.941
▁बंदरे	-10.9416
▁देवापासून	-10.9422
▁पक्ष्यां	-10.9423
▁आजूबाजूला	-10.9423
▁उशीर	-10.9434
▁राबवले	-10.9435
▁पायावर	-10.9437
▁डोक्यात	-10.9439
▁कारणामुळे	-10.9441
▁उपभोग	-10.9443
▁भागातून	-10.945
नाथ	-10.9452
▁मुख	-10.9457
▁धरले	-10.9457
▁प्राधान्यक्रम	-10.9458
▁वर्षभरात	-10.9459
ीचा	-10.946
▁कायमचे	-10.9461
▁देशांचा	-10.9469
▁स्पष्टीकरण	-10.9469
▁मशीन	-10.9471
▁पोलिओ	-10.9475
▁पाठपुरावा	-10.9475
▁हार्दिक	-10.9475
▁घनमीटर	-10.9475
▁स्वयंचलित	-10.9475
▁सुशासन	-10.9475
▁धातू	-10.9475
▁व्यक्तिमत्व	-10.9475
▁अंगणवाडी	-10.9476
▁सॉफ्टवेअर	-10.9477
▁यहूदीतर	-10.9477
▁वाचण्यासाठी	-10.9478
▁पिढीला	-10.9485
▁म्हणा	-10.9486
▁जवानांना	-10.9488
▁साहेब	-10.9496
▁सुलभीकरण	-10.9497
▁मुलींना	-10.9505
▁सापडले	-10.9505
▁सुट	-10.9507
▁दशक	-10.9508
▁साधण्या	-10.951
▁मारा	-10.9516
▁२४	-10.9516
▁मिसरला	-10.9518
▁बनाया	-10.9519
▁किट	-10.9525
▁मुलाच्या	-10.9527
▁पसंत	-10.9528
▁मोहिम	-10.9528
▁रक्षणासाठी	-10.953
▁आरोग्याच्या	-10.953
▁भूमीत	-10.9532
्ट	-10.9532
▁यापुढेही	-10.9536
▁होमार्पणे	-10.9537
▁आजपर्यंत	-10.9539
▁शकतोस	-10.954
▁महिलांचे	-10.9548
▁सांगताना	-10.9556
▁कोरोनाच्या	-10.9558
▁आईचे	-10.9561
▁पे	-10.9561
▁उत्तेजन	-10.9561
▁स्तुति	-10.9564
▁वेदने	-10.9564
▁लिंग	-10.9565
▁काढू	-10.9567
▁रुपे	-10.9568
▁मो	-10.9568
▁सेना	-10.9568
▁जगन्नाथ	-10.9571
▁हप्ता	-10.9572
▁जीवितहानी	-10.9572
▁उपाध्यक्ष	-10.9572
▁नमुना	-10.9572
▁अधीन	-10.9573
▁आख	-10.9574
▁रहावे	-10.9574
▁आलं	-10.9577
▁आज्ञेप्रमाणे	-10.9578
▁प्लॅटफॉर्म	-10.9582
▁आत्मसा	-10.9583
▁शिमी	-10.9583
ष	-10.9584
▁आणण्याचे	-10.9584
▁असणारा	-10.9585
▁म्हणेल	-10.9586
▁जनावर	-10.9587
▁निधन	-10.9589
▁बनवण्याचे	-10.9589
▁न्यायालया	-10.9593
पा	-10.9594
करण	-10.9596
▁बघून	-10.961
पि	-10.9614
▁बनावट	-10.9615
▁कोणाच्या	-10.9622
▁सो	-10.9626
▁आनंदात	-10.9627
▁तत्पर	-10.9632
▁कारभार	-10.9632
▁नवोन्मेष	-10.9636
▁बोलून	-10.9638
▁प्रक्रियेला	-10.964
▁वास	-10.9641
▁सुक	-10.9641
▁चुकत	-10.9644
▁आणलेल्या	-10.9645
▁महिलांमध्ये	-10.9645
शे	-10.9647
▁पा	-10.9654
▁उपक्रमांची	-10.9661
▁काळासाठी	-10.9661
ावरून	-10.9664
▁51	-10.9669
एच	-10.967
▁दीक्षा	-10.967
▁सार्क	-10.967
▁त्यांच्यामध्ये	-10.9672
▁दिनांक	-10.9672
▁भुवनेश्वर	-10.9673
▁सोडवण्यासाठी	-10.9674
▁जगभर	-10.9676
▁अधिकाऱ्यांशी	-10.9679
▁हाय	-10.968
इंडिया	-10.968
▁छावणीत	-10.9681
▁उठविले	-10.9684
▁आखण्या	-10.9685
▁एकीकृत	-10.9685
▁उजव	-10.9687
▁10,000	-10.9689
▁मूत्र	-10.9694
▁असुरक्षित	-10.9705
आधारित	-10.9707
वंत	-10.9709
▁पडल्या	-10.971
▁कक्षेत	-10.9712
▁तिकिट	-10.9713
▁सैन्यात	-10.9716
▁मुख्यमंत्र्यां	-10.9719
▁फुल	-10.9725
▁टाकण्या	-10.9729
ाळ	-10.9735
▁येईन	-10.9741
▁श्वसन	-10.9741
▁राहिलेल्या	-10.9745
▁प्रजनन	-10.9752
▁सत्ते	-10.9752
घेवाण	-10.9756
▁बरी	-10.9759
▁शहरांना	-10.9763
▁लोभ	-10.9768
▁पुरूष	-10.9768
▁ठाऊक	-10.9769
▁इंजेक्शन	-10.9769
▁रोगराई	-10.9769
▁2013	-10.977
▁उभारले	-10.977
▁ओढव	-10.9771
▁बोलायला	-10.9772
▁मारण्यासाठी	-10.9778
▁सारे	-10.9782
▁नागरीक	-10.9784
▁नायक	-10.9786
▁युगांडा	-10.9787
▁ताग	-10.9788
▁घडतील	-10.9798
▁सार	-10.9798
▁राहाल	-10.9799
▁नकारात्मक	-10.9801
ंविषयी	-10.9803
▁मजुरी	-10.9804
▁जपानी	-10.9807
▁सारखा	-10.9807
▁वेढलेल	-10.9818
▁माझ्याविरुद्ध	-10.982
▁सारखी	-10.9821
▁बांधिलकी	-10.9822
▁ऊर्जेचा	-10.9823
▁नागरिकांची	-10.9825
मार	-10.9827
▁गाई	-10.9827
▁आल्याची	-10.9833
▁बेन	-10.9835
▁स्वाभाविक	-10.9837
▁किनाऱ्यावर	-10.9839
▁ठाम	-10.9845
ष्ट	-10.9856
▁आणण्याचा	-10.9856
▁राज्यसभे	-10.9857
▁संयम	-10.9859
ंबरोबर	-10.9862
▁मंत्रिमंडळाला	-10.9866
▁किनारपट्टी	-10.9869
▁नफताली	-10.9869
▁रणशिंग	-10.9869
▁द्राक्षरस	-10.9869
▁विषारी	-10.9869
▁निघालो	-10.9869
▁पासवान	-10.9869
▁होमबली	-10.987
ांसमोर	-10.987
▁महाविद्यालये	-10.9871
▁यहोयादा	-10.9872
▁दशकांपासून	-10.9872
▁जनधन	-10.9873
▁उडान	-10.9873
▁स्त्राव	-10.9874
▁बनविण्यासाठी	-10.9877
▁नीति	-10.9877
▁पंधरा	-10.9877
▁मराठी	-10.9879
▁नसतील	-10.9881
▁डॉक्टर्स	-10.9884
▁मुद्द्यांवर	-10.9886
▁घेण्या	-10.9886
▁विद्यापीठात	-10.9886
▁स्त्रियांना	-10.9887
▁गटाच्या	-10.9894
स्तरीय	-10.9898
▁महिलांची	-10.9899
▁धार	-10.9905
▁आशियातील	-10.9905
▁रिकाम	-10.9905
▁सांगते	-10.9913
▁प्रदर्शनात	-10.9916
▁रुची	-10.9919
▁लोकसभे	-10.9921
▁विश	-10.9923
▁शुभ	-10.9927
▁भांड	-10.9931
▁ठेवते	-10.9931
बे	-10.9936
▁ईस्ट	-10.9944
▁S	-10.995
▁मानस	-10.9953
▁प्रशिक्षक	-10.9958
▁त्रि	-10.9963
▁रक्षक	-10.9967
▁विभिन्न	-10.997
▁पशुधन	-10.997
▁आझाद	-10.9971
▁उजाळ	-10.9971
▁प्राप्तीकर	-10.9971
▁इंटरनॅशनल	-10.9972
▁पुरवत	-10.9975
▁कोटींपेक्षा	-10.9975
▁निर्यातदार	-10.9975
▁भरलेला	-10.9976
▁कारणी	-10.9977
▁सोहळ्या	-10.9977
▁पोहोचण्यासाठी	-10.9977
▁केअर	-10.9978
▁पुढाऱ्यांन	-10.9978
▁ऐकल्या	-10.9979
▁भरती	-10.9982
▁ग्रंथी	-10.9982
प्रतिम	-10.9983
▁उर्जे	-10.9983
▁करण्यापूर्वी	-10.9984
▁लेखक	-10.9988
▁आफ्रिकी	-10.999
▁तहान	-10.999
▁घटकां	-10.9993
▁उपाययोजनांचा	-10.9993
or	-10.9995
▁रस्त्यात	-10.9995
▁गिबोन	-10.9998
▁मूत्रपिंड	-11.0003
बीज	-11.0008
▁बाजूच्या	-11.0011
▁गावांना	-11.0013
▁सूची	-11.0016
▁नवस	-11.0021
▁संशय	-11.0021
▁कारणांमुळे	-11.0024
ल्याने	-11.003
▁अडचण	-11.0032
▁चव	-11.0033
▁एली	-11.0034
▁बालाक	-11.0036
▁बांधव	-11.004
▁आणत	-11.0051
95	-11.0053
▁इजिप्त	-11.0054
▁बनवू	-11.0062
▁बाजारपेठे	-11.0065
ोडल	-11.0067
ामधून	-11.007
▁द्वारमंडप	-11.0072
▁प्रतिक्रिया	-11.0072
▁टीव्ही	-11.0074
▁स्तूप	-11.0074
▁मैत्रीपूर्ण	-11.0075
शास्त्र	-11.0075
▁स्टेट	-11.0075
▁वर्ल्ड	-11.0076
▁फिक्की	-11.0076
ातले	-11.0078
▁अर्क	-11.0081
▁विपुल	-11.0082
▁अधिनियम	-11.0082
▁विनिमय	-11.0084
▁अभियानाला	-11.0097
▁सक्ती	-11.0097
▁विनाश	-11.0098
▁ऐ	-11.0101
▁सुचवले	-11.012
वीन	-11.0122
▁बँकेने	-11.0122
▁महत्वावर	-11.0123
▁जिंक	-11.0123
▁लोकां	-11.0128
▁एस्तेर	-11.0134
▁लज्ज	-11.0136
▁बहुपक्षीय	-11.0139
▁एकटे	-11.0142
▁तपासण्या	-11.0143
ासारखी	-11.0144
▁राहिल्या	-11.0147
▁भारतातून	-11.0148
▁वापरता	-11.0152
▁डोळ्यांच्या	-11.0153
▁हल्ल्या	-11.0159
▁जगाने	-11.0164
▁राबविण्या	-11.0168
▁बाटली	-11.0168
▁तुमच्यात	-11.0171
▁सदस्यत्व	-11.0173
▁घड	-11.0175
▁अविरत	-11.0175
▁प्रेक्षणीय	-11.0175
▁मोजमाप	-11.0175
▁वाजेपर्यंत	-11.0175
▁सूर्यकिरण	-11.0175
▁काँग्रेस	-11.0176
▁सन्मानार्थ	-11.0176
▁जागरुकता	-11.0176
▁इच्छाशक्ती	-11.0177
▁समभाग	-11.0177
▁मार्फत	-11.0178
▁मोहन	-11.0179
▁कवच	-11.0183
▁शेतकऱ्यांसाठी	-11.0188
▁प्रतिनिधींनी	-11.0193
▁बांधलेले	-11.0204
▁मुलीं	-11.0211
▁आरंभ	-11.0214
▁बनते	-11.0217
▁सज्जन	-11.0218
▁परमेश्वरच	-11.0224
भारतीय	-11.0226
▁साधत	-11.0228
▁मध्यभाग	-11.0231
निशी	-11.0236
क्ष	-11.0243
▁दिल्लीमध्ये	-11.0243
▁कार्यक्रमाची	-11.0246
▁समाप्त	-11.0246
."	-11.0247
▁गोष्टीविषयी	-11.0249
▁एक्स	-11.0249
स्वातंत्र्यानंतर	-11.025
▁कर्ण	-11.0251
▁नवनव	-11.0252
▁भूमिके	-11.0256
▁कार्यपद्धती	-11.0259
▁रो	-11.026
यांना	-11.0267
▁दिग्दर्शि	-11.0275
▁अनुकरण	-11.0277
▁बआल	-11.0279
▁फाऊंडेशन	-11.0279
▁वागणूक	-11.0279
▁साठवणूक	-11.0279
▁सोपी	-11.028
▁तलम	-11.028
▁ग्रामोद्योग	-11.0281
▁तेजस्वी	-11.0281
▁मायदेश	-11.0282
▁क्लब	-11.0283
▁संताप	-11.0283
▁सांगेन	-11.0283
▁करदात्यांना	-11.0284
▁काटेकोरपण	-11.0284
▁वर्षा	-11.0285
▁41	-11.0289
▁बौद्धिक	-11.0291
ंच	-11.0292
▁आर्थिकदृष्ट्या	-11.0292
▁बेटी	-11.0294
ापाशी	-11.0295
वर्धक	-11.0299
▁टाळेबंदी	-11.0301
▁गुहेत	-11.0302
▁संस्थेत	-11.0303
▁देवदार	-11.0308
▁ओघ	-11.0309
▁त्यांच्यापासून	-11.0312
▁सुरत	-11.0314
▁वाचून	-11.0315
▁वैविध्य	-11.0317
▁स्वातंत्र्यदिन	-11.032
▁हिवाळ्यात	-11.0331
▁अभियानाची	-11.0342
▁आखत	-11.0344
बाबतीत	-11.0345
▁सहमत	-11.0346
णारा	-11.0346
▁२१	-11.035
▁वक्तव्य	-11.0351
▁उज्वल	-11.0355
▁सभागृहात	-11.0359
बंद	-11.0361
▁सुट्टी	-11.0364
▁त्याना	-11.0376
▁सिलेंडर	-11.0376
▁उद्योगांच्या	-11.0379
▁वाढीव	-11.0384
▁प्रवासाचा	-11.0385
▁गर्भनिरोधक	-11.0385
▁पशुपालन	-11.0385
▁निर्णायक	-11.0386
▁सुसंगत	-11.0387
▁इनोव्हेशन	-11.0388
▁आचार्य	-11.0389
▁गोविंद	-11.0389
▁भस्म	-11.0389
▁फ्रेंच	-11.0389
▁बदलली	-11.0389
▁निव्व	-11.039
▁राजांना	-11.0391
▁पुतळ्या	-11.0394
्यावर	-11.0394
▁२००	-11.0397
▁शून्य	-11.0397
▁अमर	-11.0399
▁वळ	-11.0402
▁बोलणार	-11.0403
▁खुला	-11.0404
▁रुपयां	-11.0407
▁फटका	-11.041
▁रुग्णांवर	-11.0411
▁शिक्षणासाठी	-11.0417
▁मोहिमेत	-11.0417
▁प्रवृत्ती	-11.0421
हि	-11.0428
▁नाशिक	-11.0433
▁गाढव	-11.0434
▁सहकार्याचा	-11.0436
▁72	-11.0437
▁स्वार	-11.044
▁प्रसिद्धी	-11.044
▁देय	-11.0445
▁लोकसंख्येच्या	-11.0447
तेचे	-11.0447
▁प्रोटोकॉल	-11.0448
वादी	-11.0448
▁विश्वासार्ह	-11.0451
▁विमाने	-11.0452
▁दूरवर	-11.0454
▁आत्ता	-11.0454
▁वर्षापासून	-11.0454
▁पकड	-11.0455
▁अपघातात	-11.0457
▁उचललेल	-11.0458
▁यहोराम	-11.0466
▁संधींचा	-11.0469
लिंग	-11.047
▁घराण्यां	-11.047
▁भारताकडून	-11.0472
▁शत्रूला	-11.0474
▁सचिवालय	-11.0477
▁बाजारपेठा	-11.0479
▁चढव	-11.0479
▁जाळ्या	-11.048
▁कमांडर	-11.0483
▁आठवणी	-11.0486
▁आयसीएमआर	-11.0488
▁खाटां	-11.049
▁होण्यापूर्वी	-11.0491
▁गुडघे	-11.0491
▁बुद्धिमत्ता	-11.0491
▁सुपूर्	-11.0491
▁अमोरी	-11.0491
▁नेईल	-11.0491
▁रमणीय	-11.0492
▁राष्ट्रकुल	-11.0492
▁प्रचलित	-11.0493
▁देण्याबाबत	-11.0493
▁राधा	-11.0494
▁जलविद्युत	-11.0494
▁वर्षांनी	-11.0494
▁धान्यार्पण	-11.0495
अन	-11.0496
▁नाते	-11.0496
▁जगासमोर	-11.0499
▁किट्स	-11.0499
▁धनुष्य	-11.0503
▁वर्गीकरण	-11.0503
▁अंमली	-11.0504
▁संरक्षणमंत्री	-11.0505
▁आव्हानांवर	-11.0506
▁पाठवू	-11.0506
▁वंशातला	-11.051
▁पाहण्याची	-11.0514
▁पुण्यात	-11.0515
▁वाहतुकीसाठी	-11.0515
▁जन्मलेल्या	-11.0517
▁नियंत्रणात	-11.0522
▁चालेल	-11.0522
४	-11.0523
▁देशावर	-11.0524
▁असतानाही	-11.0525
▁उघडण्या	-11.0528
मिळ	-11.0534
▁ण्ड	-11.0535
▁64	-11.0535
▁मंडपा	-11.0535
▁प्रतिभा	-11.0537
.25	-11.0546
▁आमे	-11.055
सन	-11.0552
▁माप	-11.0554
▁रोमांचक	-11.0554
पक्षीय	-11.0555
▁मानांकन	-11.0558
40	-11.0559
▁पौलाने	-11.0561
तू	-11.0562
▁तितके	-11.0568
▁पक्क	-11.0569
ण्यास	-11.057
▁पथके	-11.0572
▁प्याला	-11.0574
▁जनतेचा	-11.0579
▁दुसऱ्यांना	-11.0585
▁स्थूल	-11.0591
▁उड्डाणे	-11.0592
▁तारा	-11.0592
▁प्रायश्चित	-11.0592
▁अडक	-11.0592
▁रोजच्या	-11.0593
▁सैनिकांच्या	-11.0593
▁कामावर	-11.0595
▁सशक्तीकरण	-11.0595
▁भौतिक	-11.0596
▁पर्व	-11.0598
▁पोशाख	-11.0598
▁नतमस्	-11.0599
▁समूळ	-11.0599
▁अतिसार	-11.0599
▁ग्रीन	-11.0599
▁नवजात	-11.0599
▁मारावे	-11.06
▁वैविध्यपूर्ण	-11.0601
▁ओलांडून	-11.0602
▁कार्यान्वयन	-11.0603
▁सफाई	-11.0605
▁ईपीएफओ	-11.0607
▁जागरूक	-11.0607
रु	-11.0609
▁नर्मदा	-11.0611
▁वाढवण्याची	-11.0612
▁आठव्या	-11.0613
▁पर्वा	-11.0613
▁बेटावर	-11.0613
▁उन्हाळ्यात	-11.0614
▁कोंडी	-11.0614
समुद्रसपाटीपासून	-11.0615
▁उपक्रमात	-11.0616
▁५००	-11.0616
▁बसलेल्या	-11.0622
▁धाडसी	-11.0623
▁गुणगा	-11.0623
▁गटाची	-11.0624
▁नफा	-11.0624
▁इंडियाच्या	-11.0624
ख्यात	-11.0625
▁राज्याची	-11.0628
▁तेलात	-11.063
▁बळावर	-11.0632
▁जनावरे	-11.0633
▁आईच्या	-11.0635
क्ट	-11.0637
▁शिक्षणाचा	-11.064
▁हाट	-11.0641
▁घडल्या	-11.0642
▁उज्जीया	-11.0642
▁जहाजे	-11.0644
▁मुंबईतील	-11.0646
ठी	-11.0646
▁120	-11.066
▁1500	-11.0661
▁याच्याशी	-11.0662
▁संकटातून	-11.0665
▁आठवड्या	-11.0665
जर	-11.0669
▁सूचनां	-11.0674
्ज	-11.0675
▁तत्वज्ञान	-11.0677
▁बाबींवर	-11.068
▁प्रदेशांना	-11.0685
▁दिवसापासून	-11.0688
ुल	-11.069
▁कार्यशाळे	-11.0692
▁पुत्राला	-11.0697
▁संप	-11.0699
▁भरभराट	-11.0701
▁त्याद्वारे	-11.0704
▁विशाखापट्टणम	-11.0705
▁वास्तू	-11.0707
▁कठिण	-11.0707
▁नुकताच	-11.0707
▁नुकतेच	-11.0707
▁योराम	-11.0707
▁अनुवाद	-11.0707
▁गाथा	-11.0708
▁तपशीलवार	-11.0708
▁नाथान	-11.0708
▁रौप्य	-11.0708
▁कार्यप्रणाली	-11.0708
▁पवन	-11.0709
▁विजेते	-11.0709
▁हस्तकला	-11.0709
▁दोघांनी	-11.0709
▁गथ	-11.0709
▁पित्त	-11.0712
▁मिळण्यासाठी	-11.0715
▁39	-11.0716
▁मारल्या	-11.0717
▁बीज	-11.0719
▁पूजे	-11.0723
▁स्थापने	-11.0724
▁मूर्खपणा	-11.0727
▁अनु	-11.0727
▁पूर्णत्वा	-11.0728
▁बनून	-11.0731
▁भंग	-11.0735
शासकीय	-11.0752
▁M	-11.0756
▁म्हणते	-11.0759
▁कृष्ण	-11.0761
▁प्रार्थने	-11.0762
▁राज्याला	-11.0762
▁वाहने	-11.0764
▁जिल्ह्या	-11.0764
▁नाविन्य	-11.0767
▁पास	-11.0769
्‍य	-11.0774
▁इराणी	-11.0774
▁परिसरातील	-11.0779
▁१७	-11.078
▁संस्कृति	-11.0785
▁सावली	-11.0786
ण्याच्या	-11.0786
▁पेन्शन	-11.0789
▁अफवा	-11.0789
▁वेळात	-11.0795
▁कागद	-11.0797
▁मंडळाची	-11.0797
▁जप	-11.0797
▁56	-11.0803
▁घेण्याच्या	-11.0804
राज्य	-11.0805
▁आयोगाला	-11.0805
▁मु	-11.0805
▁कुटुंबात	-11.0808
पाद	-11.0811
▁टेक्नॉलॉजी	-11.0817
▁अल्पसंख्यांक	-11.0817
▁ब्रिटिश	-11.0817
▁मिस्पा	-11.0817
▁रिझर्व्ह	-11.0817
▁गणेश	-11.0817
▁व्यक्तीने	-11.0817
▁भीति	-11.0818
▁आश्चर्यकारक	-11.0818
▁लढाऊ	-11.0818
▁खांदा	-11.0818
▁कुठले	-11.0819
▁वर्षापूर्वी	-11.082
राव	-11.082
▁हिरवे	-11.082
▁तिसरी	-11.0821
▁केदारनाथ	-11.0821
मधली	-11.0823
ांतर्गत	-11.0823
▁किनारा	-11.0823
▁हेरोद	-11.0824
▁भिन्न	-11.0824
▁घडवण्यासाठी	-11.0826
▁गायक	-11.0827
▁पाठवीन	-11.0827
▁निरनिराळ	-11.083
▁शिष्टमंडळ	-11.0832
▁भाषांमध्ये	-11.0832
▁मूर्ति	-11.0837
▁नसल्याचे	-11.0839
▁बघता	-11.0843
▁स्वस्थ	-11.0843
▁आहाज	-11.0844
▁शिखरे	-11.0846
▁कोणाची	-11.0846
र्	-11.0851
▁हॉल	-11.0852
▁वेळापत्रक	-11.0853
▁वारशा	-11.0853
▁देशांबरोबर	-11.0853
▁हु	-11.0861
▁उलटी	-11.0865
▁व्हावेत	-11.0867
▁महिलांसाठी	-11.0868
▁छत	-11.087
▁आल्यामुळे	-11.0876
▁पुरस्काराने	-11.088
▁इथल	-11.088
▁फायबर	-11.0882
▁बल्ब	-11.0882
▁गेलात	-11.0884
▁दिसतो	-11.0885
▁अप्स	-11.0885
▁उद्ध	-11.0886
▁राखत	-11.089
▁रात्रीच्या	-11.089
सु	-11.0892
▁पाडत	-11.0894
▁2.	-11.0895
▁प्रकल्पांमध्ये	-11.0898
करून	-11.0899
▁लढाय	-11.0903
▁श्रेणीत	-11.0909
▁मालमत्ते	-11.0912
▁वेध	-11.0915
ै	-11.0919
▁काटेकोर	-11.0923
▁बंड	-11.0923
▁निगड	-11.0926
▁चैतन्य	-11.0928
▁दिवसांमध्ये	-11.0928
▁क्रिकेट	-11.0928
▁उत्तरदायित्व	-11.0928
▁क्रेडिट	-11.0928
▁रणनीती	-11.0928
▁जैवतंत्रज्ञान	-11.0929
ानिमित्त	-11.0929
▁टाटा	-11.0931
▁फरात	-11.0931
▁घ्यायचे	-11.0932
▁कधीकधी	-11.0932
▁अनुसरून	-11.0933
▁श्रेय	-11.0933
▁तीर्थ	-11.0933
▁पॉवर	-11.0934
▁उरीया	-11.0934
▁करुणा	-11.0934
▁कार्यासाठी	-11.0934
▁शतका	-11.0935
▁डोस	-11.0936
▁सुगंधी	-11.0938
▁विहिरी	-11.0939
▁ग्रहण	-11.0939
▁लाभार्थींना	-11.0941
▁आश्रम	-11.0941
▁शिफारसी	-11.0948
▁ली	-11.0954
▁चारी	-11.0955
▁कुळा	-11.0955
▁साधण्याची	-11.0964
▁राज्यांमधील	-11.0965
▁कारभारी	-11.0966
▁मूर्तीची	-11.0968
▁आयातीवर	-11.0969
दिवशी	-11.0974
▁आपल्यासमोर	-11.0975
▁प्रशंस	-11.0976
▁न्यायालयात	-11.0982
▁शुद्धीकरण	-11.0982
▁ऊर्जेची	-11.0983
▁धुळी	-11.0984
▁जगाचा	-11.0987
▁कानात	-11.0992
▁अरे	-11.0996
▁कोटा	-11.0998
▁बैठकीचे	-11.1002
▁संयुक्तपण	-11.1003
▁माहितीसाठी	-11.1005
▁इश्माएल	-11.1006
▁175	-11.1007
▁दालन	-11.101
▁नसता	-11.1022
▁अमृतसर	-11.1023
▁आतून	-11.1024
▁वापरून	-11.1024
▁मंडळाचे	-11.1025
▁धुवावे	-11.1026
ॅ	-11.1027
▁असतांना	-11.1034
▁संबंधांचा	-11.1037
▁प्रगतीपथावर	-11.1041
▁महामहिम	-11.1041
▁मेंढा	-11.1041
▁प्रतिकूल	-11.1041
▁अवैध	-11.1041
▁मैदानात	-11.1041
▁मिझोरम	-11.1042
▁फेसबुक	-11.1042
▁भरीव	-11.1043
▁अनुयायी	-11.1045
▁नागरिकत्व	-11.1045
▁थोडेसे	-11.1046
▁सत्तर	-11.1049
▁बियाणे	-11.105
▁विवाद	-11.105
▁पत्रे	-11.1056
▁टक्क्यांपेक्षा	-11.1057
▁2016,	-11.1058
▁पडदा	-11.1059
लेली	-11.1063
▁छोटा	-11.1065
▁कोणा	-11.1065
▁फायद्याचे	-11.1067
▁८०	-11.1069
▁मारु	-11.107
▁59	-11.1071
▁तितकेच	-11.1073
▁आरटी	-11.1074
▁उत्पादनाच्या	-11.1076
▁विजेत्यां	-11.1077
▁प्रकरणे	-11.1078
▁वाढवण्याच्या	-11.1078
दी	-11.108
▁बातम	-11.1081
▁शिक्षकांना	-11.1082
▁तंत्रज्ञानावर	-11.1082
▁एकमेका	-11.1084
▁डि	-11.1084
तंत्रज्ञान	-11.1084
▁क्षेत्रांना	-11.1084
ळून	-11.1085
▁गणना	-11.1087
▁अवग	-11.1089
▁ज्ञानाचा	-11.109
सर्व	-11.1093
▁पाटणा	-11.1097
▁पुरवले	-11.1101
▁झ	-11.1103
▁घराण्यात	-11.1106
▁भात	-11.1108
▁मोदींनी	-11.1109
▁कारखान्यां	-11.1111
▁मच्छिमार	-11.1114
▁5000	-11.1119
▁संघटनेचे	-11.1125
▁चल	-11.1126
▁म्हणण्या	-11.113
▁पुरस्कारासाठी	-11.1131
▁नोकरा	-11.1134
▁प्रामाणिकपणा	-11.1137
▁मंडपात	-11.114
▁अद्	-11.1141
▁निराशा	-11.1147
▁आजाराने	-11.1148
▁जगतात	-11.1148
▁टाकू	-11.1149
ावधी	-11.1154
▁गंधसरु	-11.1154
▁इज्रेल	-11.1154
▁खूण	-11.1154
▁चेष्टा	-11.1154
▁बेखमीर	-11.1154
▁बारुख	-11.1154
▁पुनर्वापर	-11.1154
▁२०२२	-11.1154
▁कतार	-11.1155
▁उद्यमशीलता	-11.1155
▁सम्राट	-11.1155
▁रब्बी	-11.1156
▁अमली	-11.1156
▁सिद्धांत	-11.1156
▁रेड्डी	-11.1157
▁मनरेगा	-11.1157
▁२०१८	-11.1158
▁पुरले	-11.1159
▁प्रकल्पात	-11.1159
▁उजवीकडे	-11.116
▁कॉन्फरन्सद्वारे	-11.1161
▁ग्लोबल	-11.1162
▁मांडली	-11.1162
▁पलिष्ट्यांनी	-11.1162
▁बाहू	-11.1164
▁मज	-11.1166
▁उपकार	-11.1168
▁मृत्यूदर	-11.1169
▁67	-11.117
ेट	-11.117
▁बरोबरीने	-11.1171
ल्याबद्दल	-11.1177
▁लावण्यासाठी	-11.1177
▁सुरवातीला	-11.1179
▁निविदा	-11.118
▁उत्पादनासाठी	-11.1187
▁ऑन	-11.1189
▁उज्वला	-11.119
▁शत्रूचा	-11.119
▁आवृत्ती	-11.119
▁चुका	-11.1199
▁जोडण्यासाठी	-11.1199
▁अटक	-11.12
▁ठरल्या	-11.1203
99	-11.1206
▁विद्यापीठे	-11.1208
▁खात्या	-11.1213
▁नवभारता	-11.1214
▁तिथल	-11.1216
▁ठेवतील	-11.1219
▁पित्याने	-11.122
▁आईला	-11.1223
▁भिंतीवर	-11.1227
▁क्रम	-11.1228
▁अभिमानाने	-11.1241
‍ट	-11.1242
लाल	-11.1243
न्ट	-11.125
▁कार्यकाळ	-11.125
▁मुळ	-11.1255
▁पाठवि	-11.126
▁मीडिया	-11.1262
▁अ‍ॅप	-11.1263
▁फोटो	-11.1266
▁हेलिकॉप्टर	-11.1266
▁सौहार्द	-11.1269
▁जबुलून	-11.1269
▁टागोर	-11.1269
▁अरविंद	-11.1269
▁ऑईल	-11.1269
▁कृपया	-11.1269
▁पारदर्शी	-11.1269
▁मणिपुर	-11.1269
▁लाकडी	-11.1269
▁मुख्त	-11.127
▁मधोमध	-11.127
▁इमारतीं	-11.127
▁जैतून	-11.127
▁उमेदवार	-11.1271
▁झालं	-11.1271
िस्ट	-11.1271
▁करण	-11.1271
▁घाटी	-11.1271
▁पुनर्रचना	-11.1272
▁विध्वंस	-11.1275
▁दूषित	-11.1276
▁वेधले	-11.1276
▁बोलायचे	-11.1276
▁खोऱ्या	-11.1276
ढ	-11.1278
▁आपापल	-11.1278
▁बघतो	-11.1278
▁गौरवण्यात	-11.1279
▁ट्रक	-11.1279
▁टोका	-11.1279
▁मेरी	-11.128
▁दृष्टिकोनातून	-11.1283
▁टाकतात	-11.1284
▁पध्दती	-11.1284
▁बांधवांना	-11.1284
▁उगव	-11.1287
▁विश्वासघात	-11.1287
▁झाडा	-11.1288
माप	-11.1293
▁धाम	-11.1293
▁फसव	-11.1295
▁साहाय्याने	-11.1298
▁700	-11.13
काळ	-11.1301
▁दरीत	-11.1303
▁वाडवडिलां	-11.131
▁दूरदृष्टी	-11.1316
आत्मनिर्भर	-11.1321
▁आजारामुळे	-11.1326
ऊ	-11.1326
▁जाण्याचे	-11.133
▁प्रकाशात	-11.1331
▁परतला	-11.1331
सात	-11.1334
▁कालेब	-11.1344
▁आंघोळ	-11.1349
▁धबधब्या	-11.1351
▁शोधात	-11.1352
▁प्रयोगशाळे	-11.1353
▁पर्यटनस्थळ	-11.1357
▁घाण	-11.1358
▁यांच्यासोबत	-11.1358
सूचित	-11.1358
▁पाहणार	-11.1361
पाय	-11.1367
▁कॉल	-11.137
▁कणा	-11.1374
▁बांधल्या	-11.1379
▁याप्रमाणे	-11.1382
▁री	-11.1383
▁62	-11.1384
▁बारकाईने	-11.1385
▁वाटाघाटी	-11.1385
▁गोल्फ	-11.1385
▁एफोद	-11.1385
▁पुतीन	-11.1386
▁बंधनकारक	-11.1386
▁मागितले	-11.1386
▁देशवासियांनो	-11.1386
▁मार्शल	-11.1386
▁ग्रीक	-11.1386
▁पिल्याने	-11.1386
▁देशां	-11.1386
▁विपरीत	-11.1387
▁बांधण्यासाठी	-11.1387
▁भास	-11.1388
▁बळजबरीने	-11.1389
▁मेडिकल	-11.139
▁पथदर्शी	-11.139
▁कुटुंबियांना	-11.1391
▁पुनर्	-11.1393
दि	-11.1396
▁निर्वाह	-11.1396
▁क्षेत्रांचा	-11.1399
▁नेतृत्वाखालील	-11.1403
▁अली	-11.1403
▁एकदाच	-11.1406
▁तारे	-11.1411
▁प्रयत्नांमध्ये	-11.1413
▁प्रेमाने	-11.1413
▁वाहू	-11.142
▁गुरुजी	-11.1426
लाग्र	-11.1427
▁विजेत्या	-11.143
▁विकासात्मक	-11.1431
▁पितळे	-11.1433
▁टेकडी	-11.1435
▁अमेरिकेत	-11.1437
वले	-11.1445
▁वडिलांन	-11.1448
ांनंतर	-11.1449
मध	-11.1459
▁दलाने	-11.147
▁अन्नार्पण	-11.1472
▁अलिकड	-11.1475
▁शहरांचा	-11.1476
▁वर्धापन	-11.1479
▁शिकवणी	-11.1479
▁दोनशे	-11.1485
▁ख्रिस्तामध्ये	-11.1486
▁वाट्या	-11.1486
व्यतिरिक्त	-11.1487
▁गर्भ	-11.1488
▁करतानाच	-11.1491
▁शत्रूच्या	-11.1491
▁विसरू	-11.1497
▁सॅनिटायझर	-11.1502
▁ध्वज	-11.1503
▁रेशीम	-11.1503
▁लिंबू	-11.1503
▁अतुलनीय	-11.1503
▁राजपुत्र	-11.1503
▁रात्रभर	-11.1504
▁दबाव	-11.1505
▁राहीन	-11.1506
▁गौडा	-11.1506
▁शेअर	-11.1506
▁सभे	-11.1507
▁आदि	-11.1508
▁साडेचार	-11.1509
▁रवांडा	-11.151
्‍	-11.1511
‘	-11.1514
सेवा	-11.1516
▁येण्यास	-11.1523
▁जबाबदाऱ्या	-11.1525
▁भोग	-11.1525
▁किंमतीत	-11.1529
▁बनवला	-11.1533
▁शहाण्या	-11.1536
▁सांधेदुखी	-11.1537
▁पाळले	-11.1555
▁जोडलेल्या	-11.1556
▁थांबवण्या	-11.1557
▁त्यांनाही	-11.1562
▁मोर	-11.1563
करुन	-11.1563
▁लाईन	-11.1564
▁क्षेत्राने	-11.1565
▁मंचाच्या	-11.1566
▁ओळखला	-11.1573
▁टेकडीवर	-11.1574
▁2.5	-11.1576
▁मरीय	-11.1576
▁घोडेस्वार	-11.158
▁अती	-11.158
▁विसाव्या	-11.1582
▁शमाया	-11.1582
▁गोऱ्हा	-11.1587
▁सुर	-11.1587
▁होताना	-11.1587
पे	-11.1588
शक्ती	-11.1596
▁व्यसन	-11.1599
▁कामगारां	-11.1601
▁बसवले	-11.1605
▁ईश्वर	-11.1606
▁प्रशासक	-11.1613
▁अध्याय	-11.1616
▁संपले	-11.1619
▁नेत्या	-11.1621
▁कारखाने	-11.1622
▁शिलान्यास	-11.1622
▁द्यायची	-11.1622
▁नातलग	-11.1622
▁सीसरा	-11.1623
▁समाजाची	-11.1623
▁माहितीची	-11.1624
▁जैसलमेर	-11.1624
▁एड्स	-11.1624
▁कहाथ	-11.1624
▁महावीर	-11.1625
▁मुस्लिम	-11.1626
▁मुसळधार	-11.1626
ांप्रती	-11.1629
▁खाल्ल्याने	-11.163
▁रेल	-11.1631
▁देण्यावर	-11.1632
▁खरेदीसाठी	-11.1633
▁प्रत	-11.1634
▁मिडिया	-11.1641
▁टेबल	-11.1644
▁स्पष्टपणे	-11.1647
▁प्यायला	-11.1647
▁आपल्यापैकी	-11.1648
▁राहण्यास	-11.1649
▁शहराचा	-11.165
▁राजांनी	-11.1652
▁ठेवावी	-11.1653
▁वाद्य	-11.1654
िषद	-11.1654
▁तातडीन	-11.1656
▁प्रभा	-11.1659
▁भांडी	-11.1661
पत्र	-11.1661
▁देवाशी	-11.1665
▁800	-11.167
▁संमती	-11.167
▁राहाणार	-11.1671
▁प्रियकर	-11.1674
▁क्षेत्रातही	-11.1676
▁चाचण्यांची	-11.1678
▁समस्येवर	-11.1679
▁69	-11.168
▁टाकत	-11.168
▁बदलू	-11.1684
ृ	-11.169
▁सोडला	-11.1692
▁गोष्टींवर	-11.1693
▁63	-11.1696
▁हस	-11.1703
▁राष्ट्रांनी	-11.1706
▁आजवर	-11.1706
▁परि	-11.1707
▁अध्यक्षपद	-11.1707
▁प्रथा	-11.1708
▁नवकल्पना	-11.1718
▁ग्राहकां	-11.1723
15	-11.1729
आज	-11.173
▁मालीश	-11.1731
▁अग्नि	-11.1733
्रा	-11.1733
▁युरोप	-11.1734
▁मिळवू	-11.1736
▁नवरा	-11.1736
▁ताजे	-11.1738
▁जवानां	-11.1738
▁ट्विटर	-11.1742
▁विसाव	-11.1742
▁द्रुतगती	-11.1742
▁आण्विक	-11.1743
▁व्हायब्र	-11.1743
▁सदोम	-11.1743
▁सावधगिरी	-11.1743
▁लिहिली	-11.1743
▁नोंदवली	-11.1743
▁भिऊ	-11.1743
▁मास्टर	-11.1745
रोग	-11.1746
▁कर्मचाऱ्यांसाठी	-11.1748
▁मनोहर	-11.1749
▁सायकल	-11.1749
▁66	-11.175
▁विशेषकरून	-11.175
▁पळत	-11.175
▁अबीया	-11.1751
▁पलिकडे	-11.1753
▁वाचवण्यासाठी	-11.1753
▁टाकतो	-11.1755
▁पाडली	-11.1755
▁प्रतिष्ठे	-11.1756
▁सांगेल	-11.1757
▁तर्हे	-11.1758
▁बार	-11.1761
▁सक्षमीकरणासाठी	-11.1762
▁कराराबाबत	-11.1765
▁परिषदेसाठी	-11.1766
ंज	-11.1768
▁घराणे	-11.1768
▁बैठकीच्या	-11.1768
▁पध्दतीने	-11.1769
▁घाल	-11.1769
तले	-11.1772
▁बैठकीमध्ये	-11.1775
▁लवचिक	-11.1777
▁शत्रूंनी	-11.1777
▁खोलवर	-11.1777
▁कन्या	-11.1779
▁जपानच्या	-11.178
▁शाही	-11.1782
धारी	-11.1784
ाविरोधात	-11.1786
▁उद्योगांसाठी	-11.1797
▁देतांना	-11.1804
▁उध	-11.1813
▁उघड्यावर	-11.1816
▁बँकेत	-11.1816
योग	-11.1819
▁क्षमतेत	-11.182
▁संसाधनांच	-11.1825
▁प्रौढ	-11.1825
▁अनंत	-11.1827
ूक	-11.1828
▁संतती	-11.1832
▁वीणा	-11.1833
▁माझ्याबद्दल	-11.1843
▁झटका	-11.1843
▁राहो	-11.1845
▁पीडा	-11.1846
▁करावयाच	-11.1856
नि	-11.1857
लाईन	-11.1861
▁चमक	-11.1862
▁ऑगस्	-11.1863
▁चट्ठ	-11.1863
▁तोंडावर	-11.1864
▁तितक्या	-11.1865
▁पश्चात्ताप	-11.1865
▁गदल्या	-11.1865
▁निदर्शना	-11.1865
▁छात्र	-11.1865
▁त्रुटी	-11.1865
▁ट्रेकिंग	-11.1865
▁नोहा	-11.1865
▁धूळ	-11.1865
▁अनुमान	-11.1865
▁कांद्या	-11.1865
▁बनवणे	-11.1865
▁असल्याचं	-11.1866
▁काढणे	-11.1866
▁भूविज्ञान	-11.1867
▁लूट	-11.1867
▁उदाहरणार्थ	-11.1868
▁लाईफ	-11.1868
▁गांधीनगर	-11.1869
▁कपूर	-11.1869
▁महानगर	-11.187
▁व्हायचे	-11.187
▁उत्पादनांचा	-11.1872
रिया	-11.1873
▁चंदन	-11.1874
▁ऑपरेशन	-11.1875
▁जितक	-11.1876
▁भांडण	-11.1877
▁रिक्त	-11.1877
▁दुवा	-11.1884
▁४५	-11.1885
▁आपल	-11.1887
▁77	-11.1889
▁काढण्यात	-11.1897
▁गृहमंत्र्यांन	-11.1904
▁हत्या	-11.1906
▁दिवा	-11.1908
▁क्रमवारी	-11.1911
▁हब	-11.1911
▁लिहिलेल्या	-11.1913
▁उत्पादनांना	-11.1913
▁आलात	-11.1914
▁सुखद	-11.1918
▁दौऱ्यात	-11.1921
आकांक्षा	-11.1921
गणित	-11.1928
▁देशांशी	-11.1928
▁ऐकणार	-11.1932
▁मजा	-11.1936
▁वात	-11.1939
▁करणात	-11.1942
▁त्वचे	-11.1945
▁स्थानकांवर	-11.1946
▁अरबी	-11.1946
▁प्या	-11.1946
▁अंगरख	-11.1947
▁दावे	-11.1949
▁वाळू	-11.1951
▁46	-11.1952
▁निर्याती	-11.1953
▁उचल	-11.1958
▁अत्याचार	-11.1962
▁मंत्रालयाला	-11.1964
▁आह	-11.1965
▁उगम	-11.1965
▁सुरूच	-11.1969
▁गुहे	-11.1971
▁पसरव	-11.1972
▁गव्हा	-11.1974
▁कामी	-11.1975
मरेल	-11.1982
▁अकरा	-11.1982
▁सुवार्ते	-11.1986
▁हलव	-11.1987
▁कनेक्टिव्हिटी	-11.1988
▁तडजोड	-11.1988
▁होमिओपॅथी	-11.1988
▁साम्राज्य	-11.1988
▁मनसुख	-11.1988
▁औषधोपचार	-11.1988
▁शेकेल	-11.1989
▁झा	-11.199
▁बक्षीस	-11.199
▁कमतरतेमुळे	-11.1991
▁अर्जेंटिना	-11.1992
▁सोप्या	-11.1992
▁माझ्याविषयी	-11.1993
▁कोरड्या	-11.1994
▁कोरलेल	-11.1995
▁श्रीराम	-11.1995
▁अमृत	-11.1996
▁दये	-11.1997
▁खांद्याला	-11.2
▁प्रतिबिंबित	-11.2
र्य	-11.2002
▁शिकविले	-11.2006
▁सुधार	-11.2008
▁सद्	-11.2009
▁केंद्रांची	-11.2011
मे	-11.2011
▁९०	-11.2014
▁सर्वकाळ	-11.2016
▁चित्रपटांचा	-11.2017
▁पाठीवर	-11.2018
▁गार्डन	-11.2018
▁काळाच्या	-11.202
▁पोहोंचल	-11.2021
▁गुन्ह्यां	-11.2021
▁कारणासाठी	-11.2024
▁पिलात	-11.2026
पद	-11.2027
▁सैताना	-11.2031
▁प्रवेशिका	-11.2033
▁दिल्याप्रमाणे	-11.2034
▁निवडणुकीत	-11.2035
▁व्यर्थ	-11.2035
▁मूत्राशय	-11.204
▁आगी	-11.2041
▁वेळे	-11.2041
▁घडते	-11.2044
ाम	-11.2053
10	-11.2057
▁ब्लॉक	-11.2061
▁लोकांनाही	-11.2064
क्र	-11.2067
▁प्रकल्पाला	-11.2067
▁पेशीं	-11.2068
▁सिक्किम	-11.207
▁बँकांना	-11.2071
▁रोप	-11.2074
▁दिव	-11.2075
▁47	-11.2075
ai	-11.208
▁अजय	-11.2081
▁जनतेची	-11.2081
▁व्यापारात	-11.2084
▁प्रवासासाठी	-11.2084
-3	-11.2087
▁वळव	-11.2089
▁भेडसावणाऱ्	-11.2091
▁उपक्रमांना	-11.2092
▁स्थळी	-11.2094
▁रोखे	-11.2095
▁दलात	-11.2101
▁रत्न	-11.2101
▁अँटी	-11.2102
▁ड्रोन	-11.2104
▁संस्कृतीचे	-11.2105
स्वामी	-11.2108
▁वागा	-11.2108
ड्या	-11.211
▁फिलिप्प	-11.2113
▁प्रतिज्ञा	-11.2113
▁लेफ्टनंट	-11.2113
▁बवाज	-11.2113
▁फलदायी	-11.2113
▁हलक्या	-11.2113
▁लवाद	-11.2113
▁झरे	-11.2113
▁नागालँड	-11.2114
▁दिवसें	-11.2115
▁सोनेरी	-11.2116
▁अयोग्य	-11.2117
▁अवधी	-11.2117
▁गुन्हेगार	-11.2118
▁पंप	-11.2118
▁एकट्या	-11.2119
▁तीनशे	-11.212
▁तरच	-11.212
▁ठिकाणाहून	-11.2122
▁मीखाया	-11.2125
▁मनाने	-11.2134
▁अटी	-11.2135
दे	-11.2136
▁वाढी	-11.2137
▁युवकांसाठी	-11.2139
▁सलग	-11.2139
▁वाढणे	-11.2139
मोल	-11.214
▁सोडा	-11.2141
▁पाठविण्या	-11.2144
▁दमा	-11.2147
▁उत्पादकांना	-11.2148
▁घेते	-11.2151
थी	-11.2152
▁बीच	-11.2159
▁३५	-11.2159
स्वच्छ	-11.216
▁खात्याचे	-11.2162
▁पु	-11.2163
▁हुशार	-11.217
▁न्यायी	-11.2171
प्रशांत	-11.2175
स्वर्गीय	-11.2177
▁जखमा	-11.2181
▁58	-11.2185
▁शेजाऱ्या	-11.2186
▁ठरु	-11.219
▁समितीची	-11.2198
▁प्लॅस्टिक	-11.2198
▁बागे	-11.2202
▁दिल्याने	-11.2204
दिनानिमित्त	-11.2204
▁धुरा	-11.2205
▁सुविधांमध्ये	-11.221
▁७५	-11.2211
▁शौचालये	-11.2213
▁याआधीच	-11.2219
▁केलेत	-11.2225
▁मोशेच्या	-11.2225
▁समावेशन	-11.2227
▁गटाने	-11.2227
▁विणकर	-11.2227
▁पाळाय	-11.2232
▁घालू	-11.2234
▁याखेरीज	-11.2237
▁डेन्मार्क	-11.224
▁बंगळुरू	-11.224
▁ओबेद	-11.224
▁सत्कार	-11.224
▁मरारी	-11.224
▁डॅशबोर्ड	-11.224
▁मसुदा	-11.224
▁सदिच्छा	-11.2241
▁प्रजा	-11.2242
▁असेन	-11.2243
▁अहवालानुसार	-11.2244
▁पगार	-11.2244
▁जागेत	-11.2245
▁भांडार	-11.2245
▁गोळी	-11.2246
▁म्हणाल	-11.2247
▁स्त्रीने	-11.2247
▁घेतल्यानंतर	-11.225
▁गाठण्यासाठी	-11.225
▁दहावा	-11.2251
▁कानपूर	-11.2251
▁साधण्यासाठी	-11.2254
▁गुंतवणूकदारांना	-11.2256
▁मार्केट	-11.2257
▁उत्पन्नात	-11.2258
ंब	-11.226
▁निर्देशांकात	-11.226
▁पापाबद्दल	-11.2262
▁समजतो	-11.2264
▁शिष्यांनी	-11.2267
मार्ग	-11.2268
▁परदेश	-11.227
▁निर्मितीचे	-11.227
▁वाटतं	-11.2275
ज्या	-11.2276
▁खाणीं	-11.2276
▁दाविदा	-11.2277
▁रचला	-11.2278
▁निर्यातीला	-11.2282
▁कुशीत	-11.2283
संबंधित	-11.2284
▁कुष्ठरोग	-11.2288
वेळा	-11.2292
▁गण	-11.2293
▁फोरम	-11.23
▁पुष्टी	-11.2302
▁अर्थव्यवस्थेचा	-11.2305
▁भूभाग	-11.2306
▁ध्यान	-11.2316
▁यहूद्यां	-11.2316
केंद्र	-11.2324
▁तिच्याशी	-11.2329
▁पिलाता	-11.2331
▁योहानान	-11.2333
▁विनोद	-11.2335
▁शांत्यर्पण	-11.2336
▁उडव	-11.2343
▁राष्ट्रांचा	-11.2345
ँ	-11.2347
▁एव	-11.2347
▁मार्गे	-11.2352
▁मंद	-11.2355
▁स्थलांतर	-11.2355
▁कसोटी	-11.2356
णारी	-11.236
यात	-11.2367
▁लघू	-11.2368
▁धर्तीवर	-11.2368
▁झलक	-11.2368
▁जवाहरलाल	-11.2368
सेंद्रीय	-11.2368
▁निर्जन	-11.2368
▁संरक्षित	-11.2368
▁73	-11.2368
▁यूनान	-11.2369
▁अमिताभ	-11.2369
▁शल्लूम	-11.2369
▁आयर्लंड	-11.2369
▁राबवली	-11.2369
▁आखणी	-11.237
▁चांद्रयान	-11.237
▁कर्मचाऱ्यांनी	-11.237
▁57	-11.237
▁पुरवणे	-11.237
▁तुकडा	-11.237
जनौषधी	-11.237
▁दुखणे	-11.237
▁धुवून	-11.2371
▁निकट	-11.2371
▁सभोवती	-11.2371
▁मूल्यवर्धन	-11.2372
▁मानत	-11.2372
▁स्पेस	-11.2373
▁आरोग्याची	-11.2373
▁एकल	-11.2374
▁सभास्थानात	-11.2374
▁उंचावण्यासाठी	-11.2375
▁लबानोन	-11.2376
▁ट्रॅक	-11.2376
▁केव्हीआयसी	-11.2379
▁सरकारमध्ये	-11.2379
▁सापळ्यात	-11.2381
▁बुद्धी	-11.2381
काम	-11.2382
▁पुण्य	-11.2384
▁कर्मचाऱ्यांची	-11.2386
▁बसलेले	-11.2387
▁मेलेले	-11.2389
▁पुढल्या	-11.239
▁भोगाव	-11.2393
▁बनवते	-11.2394
▁मिश्र	-11.2396
▁व्यक्तीचे	-11.2396
▁आणतात	-11.2398
▁देण्या	-11.2403
▁शेजार	-11.2406
▁पोटा	-11.241
▁पट्टी	-11.2411
▁सौम्य	-11.2413
▁मुलांचा	-11.2415
SI	-11.2418
▁तरतुदीं	-11.2419
▁रस्त्यांवर	-11.242
▁व्याख्या	-11.2422
▁समजावे	-11.2422
▁मार्क	-11.2426
▁पेत्राला	-11.2427
▁गिर्यारोहक	-11.2428
▁घालवू	-11.243
▁खाणी	-11.2432
स्नेही	-11.2432
▁सोहळ्यात	-11.2438
▁लो	-11.244
▁ठस	-11.2443
▁फॉर्म	-11.2444
▁तयारीचा	-11.2445
▁रचने	-11.2446
ानिक	-11.2446
▁अंक	-11.2452
▁आर्ट	-11.2452
▁स्टार्टअप्स	-11.2454
▁घडवले	-11.2454
▁घाबरले	-11.2456
माग	-11.246
बर	-11.246
▁ऐक्य	-11.2463
▁नसताना	-11.2466
▁3000	-11.2467
▁दोर	-11.2469
▁पश्चिमेकड	-11.247
▁प्रदर्शनाचे	-11.2472
▁सेवेचा	-11.2472
▁संकल्पने	-11.2474
▁उजाड	-11.2478
▁सप्ताह	-11.2478
▁ज्यावर	-11.248
▁आणावे	-11.248
▁घालत	-11.2481
▁लंडन	-11.2483
▁उतार	-11.2487
▁द्वारपाल	-11.2492
▁अवस्थे	-11.2496
▁औरंगाबाद	-11.2498
▁डिझाईन	-11.2498
▁तितकी	-11.2498
▁घरोघर	-11.2498
▁आक्रमण	-11.2498
▁गर्भपात	-11.2498
▁कोरियन	-11.2498
▁मदतनीस	-11.2498
▁2015-16	-11.2498
▁मित्रानो	-11.2498
▁स्मरणार्थ	-11.2498
▁पाईपलाईन	-11.2498
▁राजेंद्र	-11.2498
▁शताब्दी	-11.25
▁लावणे	-11.25
▁अश्विनी	-11.25
▁संस्थांची	-11.2505
▁नवनिर्मिती	-11.2505
▁प्रामाणिकपणे	-11.2506
▁दुर्गंधी	-11.2507
▁नसल्याने	-11.2513
▁करव	-11.2513
▁योगी	-11.2514
▁पोहोचवण्यासाठी	-11.2515
▁जगतो	-11.2518
▁आपसात	-11.2526
तत्कालीन	-11.2528
▁रूपाने	-11.2529
▁चौ	-11.2529
▁अडचणीं	-11.253
▁ठेवीन	-11.253
▁राहिल्याने	-11.253
▁अपना	-11.253
▁आणता	-11.2532
▁उपासमार	-11.2532
▁संशोधनासाठी	-11.2535
▁गाढवे	-11.2536
▁चाचणीसाठी	-11.2537
▁उभारणीसाठी	-11.2542
▁भजन	-11.2543
▁शेतकऱ्यांची	-11.2543
▁हव्या	-11.2544
▁बोलावे	-11.2545
▁बसतो	-11.2546
▁माध्यमे	-11.2546
▁शिलो	-11.2546
▁कोळशा	-11.2546
▁रस्त्या	-11.255
ोर	-11.2557
▁आयुष्याचा	-11.2557
▁न्याय्य	-11.2561
▁जगभरातून	-11.2565
सोबतच	-11.2567
▁निरपराध	-11.2569
▁तुडव	-11.2571
▁शेतकऱ्या	-11.2572
▁डब्यां	-11.2573
▁यावर्षीच्या	-11.2577
▁संमत	-11.2577
णार्या	-11.2584
▁शौलच्या	-11.2588
▁नाग	-11.259
▁राज्यांसाठी	-11.2591
▁वयाचे	-11.2593
▁लाटा	-11.2594
▁हरिण	-11.2597
८	-11.2599
▁राजमहाल	-11.26
▁तोड	-11.2602
▁बोलता	-11.2604
▁नकाशा	-11.2607
▁जाळ	-11.2613
ायब	-11.2614
▁रुग्णाचे	-11.2616
िड	-11.2618
05	-11.262
▁सोडू	-11.2626
ंद	-11.2628
▁विवरण	-11.2629
▁भ्रष्ट	-11.2629
▁किर्याथ	-11.2629
▁पदव्युत्तर	-11.2629
▁फडणवीस	-11.2629
▁सीहोन	-11.2629
▁हिल्कीया	-11.2629
▁योथाम	-11.2629
▁पांढर्या	-11.2629
▁बेथलहेम	-11.2629
▁निनवे	-11.2629
▁हागणदारीमुक्त	-11.2629
▁मृतदेह	-11.2629
▁विवरणपत्र	-11.2629
▁कायमस्वरुप	-11.2629
▁हित्ती	-11.263
▁विसर	-11.263
▁आठवडे	-11.2632
▁मिळविण्यासाठी	-11.2633
▁कवी	-11.2633
▁लावावे	-11.2633
▁तेवढा	-11.2635
▁स्राव	-11.2636
▁२०१७	-11.2636
▁खेडी	-11.2637
▁व्यती	-11.2637
▁संबधित	-11.2637
▁विभागणी	-11.2638
▁समाजाचे	-11.2638
▁ठेवेल	-11.264
▁शोधत	-11.2643
▁अनाथ	-11.2643
▁फिट	-11.2645
▁उरलेल्या	-11.265
▁जेल	-11.2654
▁मिळण्याची	-11.2655
▁लागणे	-11.2657
तेला	-11.2658
▁घाला	-11.266
▁अमर्याद	-11.2661
▁पसरला	-11.2664
▁गात	-11.2664
▁उडी	-11.2665
▁रच	-11.267
▁आणील	-11.2673
▁पाहतात	-11.2673
▁समाजासाठी	-11.2679
ॉल	-11.2679
▁विकले	-11.268
▁ईद	-11.2681
▁महिलांचा	-11.2681
ये	-11.2683
2019	-11.2686
▁चौकात	-11.2687
▁Co	-11.2687
▁पाल	-11.269
▁कामाचे	-11.2695
▁व्हेंटिलेटर	-11.2697
भगिनींनो	-11.2698
▁दुष्टांना	-11.27
▁थडग्यात	-11.2709
▁गोष्टीचा	-11.2712
▁त्वचेच्या	-11.2712
त्मक	-11.2713
25	-11.2714
▁यापेक्षा	-11.2715
▁अधिकच	-11.2717
▁प्रवृत्त	-11.2718
▁सर्वानी	-11.2719
▁उड	-11.2719
▁यवाबा	-11.2719
▁लिही	-11.2723
रुंद	-11.2724
▁पो	-11.2726
▁प्रतिकार	-11.2736
▁दिमिष्क	-11.2737
17	-11.2738
▁पडण्या	-11.2742
▁कार्याची	-11.2742
▁उरलेल	-11.2747
▁मानून	-11.276
▁आदरातिथ्य	-11.2761
▁अशेरा	-11.2762
▁फाउंडेशन	-11.2763
▁प्रायोगिक	-11.2763
पूर्वलक्षी	-11.2763
▁महागाई	-11.2763
▁पोहचलो	-11.2763
▁अध्यात्मिक	-11.2763
▁मिळायला	-11.2763
▁कले	-11.2763
▁गणती	-11.2763
▁कारागिर	-11.2764
▁कन्याकुमारी	-11.2765
▁2010	-11.2765
▁पडणे	-11.2766
▁पार्वती	-11.2766
▁प्रेत	-11.2767
▁पसरली	-11.2767
▁मोहरी	-11.2768
▁गड	-11.2769
▁गादीवर	-11.277
▁पोहचवण्या	-11.2771
▁अर्जुन	-11.2771
▁पुरातत्व	-11.2774
▁पार्टी	-11.2775
यो	-11.2775
▁पसरत	-11.2776
▁युनेस्को	-11.2776
प्रमाणात	-11.2776
▁कड्या	-11.2784
▁आजारांपासून	-11.2784
▁युनिट्स	-11.2788
▁तक्रारीं	-11.2791
ण्या	-11.2792
▁ठेवण्यास	-11.2794
रण	-11.2798
▁परुश	-11.2798
ेश	-11.2801
▁बनवण्याच्या	-11.2806
▁क्रूर	-11.2806
▁टप्प्यावर	-11.2807
▁संबंधांचे	-11.2809
योग्य	-11.2811
याल	-11.2811
▁प्राधिकरणाने	-11.2814
गृह	-11.2822
11	-11.2823
▁बजावले	-11.2823
▁भगिनींना	-11.2823
▁कार्यक्रमांचे	-11.2831
कुंड	-11.2833
▁सुधारणांचा	-11.2842
▁कृष्णा	-11.2842
▁गरुड	-11.2846
▁झोपे	-11.2848
▁जनावरां	-11.2849
▁आजू	-11.2852
▁प्रत्येकाच्या	-11.2855
▁वाटेवर	-11.2855
▁महिले	-11.2858
▁सांगतील	-11.2859
▁त्याबाबत	-11.2861
▁याकोबाने	-11.2862
▁अभियानाचे	-11.2865
▁तुमच्याविषयी	-11.2866
▁भूमि	-11.2867
▁प्रगतीची	-11.287
▁लेक	-11.2872
▁जीभ	-11.2874
▁कुणाला	-11.2875
▁मनोज	-11.2875
▁रशियाच्या	-11.2876
▁घटनां	-11.2877
▁महिन्यांत	-11.2879
▁गरीबांच्या	-11.2883
▁त्यांच्याजवळ	-11.2892
▁बोलाव	-11.2892
▁क्लस्टर	-11.2894
बुल	-11.2895
वू	-11.2896
▁घ्याल	-11.2896
▁पॅनोरमा	-11.2897
▁उदार	-11.2897
▁नोएडा	-11.2898
▁उपजीविका	-11.2898
▁रंगचिकित्से	-11.2898
▁नव्हतो	-11.2898
▁स्तनपान	-11.2898
▁आंधळे	-11.2898
▁मध्यमवर्गीय	-11.2899
▁आसाफ	-11.2899
▁जॉर्डन	-11.2899
▁उद्योगात	-11.29
▁सालापर्यंत	-11.29
▁नॅनो	-11.29
▁2008	-11.29
▁आमच्यातील	-11.2901
▁हरदीप	-11.2901
▁रशियन	-11.2902
▁शेतकऱ्यांनी	-11.2903
▁मारायला	-11.2903
▁वाचविले	-11.2904
▁डास	-11.2904
▁भुते	-11.2905
▁धर्मशाळा	-11.2906
▁कोनशिला	-11.2908
▁रुग्णांमध्ये	-11.2909
▁जैविक	-11.2909
▁वर्षाव	-11.2909
▁अम्मोन्यां	-11.2911
▁यात्रे	-11.2912
▁उरले	-11.2913
▁२६	-11.2917
िर	-11.2921
▁शाळांमध्ये	-11.2924
▁प्रकल्पांमुळे	-11.2924
▁लाइन	-11.2933
▁बांधाय	-11.2936
▁तारखेला	-11.2937
▁म्हणणार	-11.2944
जनक	-11.2944
▁सापडला	-11.2944
▁लेवींना	-11.2945
▁बुरुज	-11.2951
▁जणांचा	-11.2951
▁निष्	-11.2957
▁द्याल	-11.2957
▁पिके	-11.2958
▁उद्योगासाठी	-11.2963
▁निर्णयाचे	-11.2964
ापर्यत	-11.2967
ियन	-11.2969
▁मानली	-11.2969
सुधारणा	-11.297
तेचा	-11.2975
▁कोट्य	-11.2975
▁-20	-11.2976
क्षेत्र	-11.298
आपण	-11.2983
ाप	-11.2984
▁कृपे	-11.2985
▁भागाच्या	-11.2987
▁तारखे	-11.2991
▁गज	-11.2993
▁3.	-11.2995
▁कोरोनाचा	-11.2998
▁लढ्या	-11.3
▁ओळखत	-11.3001
▁टोल	-11.3005
▁शिक	-11.3009
गर्जना	-11.3014
ाऊ	-11.3019
हीन	-11.3022
▁त्यास	-11.3025
▁मुलाचे	-11.3026
▁विसरु	-11.3028
▁घडामोडीं	-11.303
▁अपार	-11.3031
▁चालते	-11.3033
▁मासेमारी	-11.3035
▁अनौपचारिक	-11.3035
▁मोजदाद	-11.3035
▁महानगरपालिका	-11.3035
▁हानिकारक	-11.3035
▁कायमस्वरूप	-11.3035
▁सीतारमण	-11.3035
▁भावनिक	-11.3035
▁प्यावे	-11.3035
▁समस्त	-11.3036
▁व्यक्तिगत	-11.3036
▁शक्तीचा	-11.3037
▁बसेस	-11.3037
▁पूर्ववत	-11.3038
▁अलाहाबाद	-11.3038
▁एलएमटी	-11.3038
▁आणावा	-11.3038
it	-11.3038
▁अनुरूप	-11.3039
▁कोठून	-11.304
▁अवघ्या	-11.3044
▁इमारतीचे	-11.3044
t	-11.3044
▁आशेर	-11.3052
▁पाठवली	-11.3052
▁ज्योती	-11.3053
▁यरुशलेमवर	-11.3056
▁बोलणाऱ्या	-11.3057
▁आढळणार	-11.306
मुखी	-11.306
▁परिवर्त	-11.3062
▁झऱ्या	-11.3066
▁ध	-11.3069
▁आपणास	-11.307
▁घरांची	-11.307
▁गुरे	-11.3071
्म	-11.3071
▁राष्ट्रा	-11.3075
▁गुन्हेगारी	-11.3077
▁इथली	-11.3077
▁मोडून	-11.3079
▁ग्रह	-11.3084
▁केंद्राने	-11.3084
▁सीमे	-11.309
▁सीईओ	-11.3091
▁अग्र	-11.3092
▁प्रजाती	-11.3093
▁आयाम	-11.3093
▁बनविण्या	-11.3094
▁रक्ताने	-11.3094
▁धरला	-11.31
▁जगातला	-11.3105
रत	-11.3107
▁था	-11.3111
▁वाळवंटातील	-11.3112
▁भारतीयांनी	-11.3116
▁कृषि	-11.3117
▁सेवनाने	-11.3119
▁काळातही	-11.3121
▁पाचशे	-11.3122
▁कौशल्ये	-11.3122
▁प्रशासनाला	-11.3125
▁साधू	-11.3126
▁त्याबरोबरच	-11.3126
▁अग्नीत	-11.3127
▁क्षेत्रांच्या	-11.3134
ाभोवती	-11.3137
▁मिळणारे	-11.3141
▁संमेलन	-11.3143
▁भीम	-11.3146
▁ठेवलेले	-11.3148
18	-11.3149
▁तुमच्याकडून	-11.3151
▁अर्ध	-11.3151
▁आकाशवाणी	-11.3155
▁पानां	-11.3156
▁रडू	-11.3158
▁लोकांत	-11.3159
▁खेळाडूं	-11.3162
▁येवू	-11.3166
▁आजाराला	-11.3167
▁जलसंवर्धन	-11.3168
▁बिहारी	-11.317
▁उपक्रमाचा	-11.3173
▁संचालन	-11.3173
▁कॉलेस्ट्रॉल	-11.3174
▁क्विंटल	-11.3174
▁चंदीगड	-11.3174
▁बुद्धिमत्ते	-11.3174
▁राठोड	-11.3174
▁हेशबोन	-11.3174
▁बचाओ	-11.3174
▁एकजूट	-11.3174
▁ग्रुप	-11.3174
▁स्वावलंबी	-11.3174
▁यहोआहाज	-11.3174
▁चोवीस	-11.3174
▁रचनात्मक	-11.3174
टेरी	-11.3174
▁बोजा	-11.3174
▁आळशी	-11.3175
▁गंगोत्री	-11.3175
▁दूरसंवाद	-11.3175
▁हाऊस	-11.3175
▁अदोनीया	-11.3176
▁विलीनीकरण	-11.3176
▁शिकवले	-11.3177
▁प्रताप	-11.3178
▁घ्यायचा	-11.3178
▁जेएनपीटी	-11.3179
▁2011	-11.318
▁विभाजन	-11.3181
▁बोला	-11.3181
▁सव्वा	-11.3182
▁बसू	-11.3183
▁मनाली	-11.3184
▁सज्जता	-11.3188
▁करण्यापासून	-11.319
▁पात्रता	-11.3192
▁तंत्रज्ञानामुळे	-11.3192
निवाडा	-11.3192
▁मारला	-11.3193
▁पोहचतात	-11.3193
▁वर्षांपेक्षा	-11.3196
▁अना	-11.32
▁मुक्तता	-11.32
▁बंधन	-11.3201
▁निघत	-11.3204
▁वेल	-11.3204
▁काळापर्यंत	-11.3204
▁डाटा	-11.3205
▁प्रेते	-11.3206
▁उद्योगाच्या	-11.3206
▁मारण्याचा	-11.3207
ातर्फे	-11.321
▁विकृती	-11.3211
▁पीसीआर	-11.3211
▁बिर	-11.3212
▁शाळां	-11.3214
▁बापा	-11.3216
▁पाव	-11.3216
▁केंद्राची	-11.3217
▁उचलला	-11.3219
▁पिकांच्या	-11.3219
▁पद्धतींचा	-11.3224
र्ड	-11.3225
▁भूतकाळात	-11.3226
▁साध्या	-11.3227
▁मह	-11.323
▁संशोधनाला	-11.3241
मो	-11.3242
▁कोरह	-11.3243
▁पर्यटकांची	-11.3245
▁समन्वयाने	-11.3247
झा	-11.3247
गु	-11.325
जात	-11.325
ग्रामीण	-11.325
प्रधानमंत्री	-11.325
▁वडीलांच्या	-11.3253
▁मारून	-11.3254
▁बाबींचा	-11.3255
▁याबरोबरच	-11.3264
▁व्यक्तीची	-11.3265
▁चित्ता	-11.3266
▁बघाय	-11.327
▁सूत्र	-11.3273
▁जाणवत	-11.3274
▁दुर्ग	-11.3277
▁तथ्य	-11.3281
▁तृप्त	-11.3285
घाट	-11.3287
▁२२	-11.3289
ेज	-11.329
▁दांड	-11.3294
करता	-11.3294
▁अधिवेशनात	-11.3302
▁आराखड्या	-11.3305
▁लगेचच	-11.3307
▁पाण्यावर	-11.3308
▁गतिमान	-11.3312
▁निरर्थक	-11.3314
▁विधानसभा	-11.3314
▁अभिप्राय	-11.3314
▁शुष्क	-11.3314
▁प्राप्तिकर	-11.3314
▁सुवर्णपदक	-11.3314
▁कमाई	-11.3315
▁गरजेनुसार	-11.3315
▁उभारली	-11.3315
▁बांधवां	-11.3316
▁दारिद्रय	-11.3316
▁छिद्र	-11.3316
▁झोन	-11.3316
▁पुरस्कृत	-11.3317
निहाय	-11.3317
▁करी	-11.3318
▁राहायचे	-11.3318
▁गोष्टींना	-11.3319
▁एनटीपीसी	-11.332
▁विचारवंत	-11.3322
▁पचन	-11.3322
▁खरेदीदार	-11.3324
टेक	-11.3324
▁नुकती	-11.3325
ांमधे	-11.3325
ाबाहेर	-11.3327
▁बदलला	-11.3329
▁सगळा	-11.333
▁दूरचित्रवाणी	-11.3331
▁फेर	-11.3331
▁मृत्यूनंतर	-11.3331
▁चक्रीवादळा	-11.3333
▁आठवत	-11.3333
पहारा	-11.3334
▁पुस्तके	-11.3334
▁चो	-11.3335
▁जळ	-11.3338
▁त्यांत	-11.3341
▁नगरीत	-11.3341
▁वर्षापेक्षा	-11.3343
▁निर्यातीत	-11.3345
▁ओली	-11.3346
▁बसली	-11.3346
▁संख्ये	-11.3348
▁बनतील	-11.3348
▁संघटित	-11.3349
▁संकल्पनेवर	-11.3353
▁जाहिरात	-11.3356
▁क्षमतेचा	-11.3359
▁वचनबद्धते	-11.3365
▁तेलंगण	-11.3366
▁पुरा	-11.3369
सहित	-11.3383
▁समृध्द	-11.3385
▁आरोग्यावर	-11.3385
ंद्वारे	-11.3387
▁जगाची	-11.3391
सामाजिक	-11.3393
▁संस्थेची	-11.3394
▁समजते	-11.3395
ांप्रमाणेच	-11.3398
▁कार्यक्षमते	-11.3398
▁राजवाड्यात	-11.34
विसाव्या	-11.34
▁आतमध्ये	-11.3401
▁दिवसांनी	-11.3402
▁देवेंद्र	-11.3404
▁तांदळा	-11.3404
▁निकाली	-11.341
▁लव	-11.3411
▁यादव	-11.3411
▁स्थानकावर	-11.3416
▁स्वारी	-11.3422
▁पारितोषिक	-11.3425
▁पदावर	-11.3428
▁तळावर	-11.3431
▁0	-11.3431
▁तार	-11.3434
▁स्थापत्य	-11.3434
▁पद्धतीत	-11.3438
▁गुजराती	-11.3438
▁घडवण्या	-11.3441
▁यांनाही	-11.3445
▁परम	-11.3446
▁संकल	-11.3447
▁भावने	-11.3448
▁लाच	-11.3453
र्न	-11.3454
▁फिरव	-11.3456
तोष	-11.3457
▁शिख	-11.3457
▁साहिब	-11.3457
▁तळागाळात	-11.3457
▁ज्युरी	-11.3457
▁मत्स्यव्यवसाय	-11.3457
▁कॉलेज	-11.3457
▁रक्तस्राव	-11.3457
▁अंत्योदय	-11.3458
▁जलस्रोत	-11.3458
▁गोदाम	-11.3458
▁पंधराव	-11.3459
▁केबल	-11.3459
▁मोकळ्या	-11.3459
▁बनवतो	-11.346
▁पाणबुडी	-11.346
▁वैशिष्ट्यपूर्ण	-11.346
”.	-11.346
▁कर्नल	-11.3461
▁वाटणी	-11.3461
▁त्यासोबतच	-11.3461
▁मिफ्फ	-11.3461
सं	-11.3461
▁यजमानपद	-11.3462
▁नाणी	-11.3464
▁हाउस	-11.3465
▁चुक	-11.3466
▁तऱ्हेने	-11.3468
▁सुधारणांमुळे	-11.3469
▁कौतुकास	-11.3472
▁आठवड्यां	-11.3473
▁कोरडी	-11.3477
▁बनवण्याचा	-11.3477
हळू	-11.3478
▁कराव्यात	-11.3479
▁शिकत	-11.3481
▁सुरक्षितते	-11.3482
ळ्या	-11.3484
▁मेळाव्या	-11.3487
▁ठेवणाऱ्या	-11.3488
▁नावेत	-11.3488
▁सहाय्यता	-11.3489
▁ओळखतो	-11.3489
व्व्या	-11.349
▁रत्ने	-11.3493
▁पर्यावरणीय	-11.35
▁प्रो	-11.35
▁पाहण्या	-11.35
▁वापरला	-11.3501
▁शिबिर	-11.3503
▁कामांसाठी	-11.3505
▁माने	-11.3505
▁असण्याची	-11.3506
▁सभेला	-11.3506
▁वेब	-11.3508
▁ह्दय	-11.3508
▁भिती	-11.351
▁निधीतून	-11.3511
▁सत्याग्रह	-11.3517
▁चारशे	-11.3518
▁केंद्रांमध्ये	-11.3524
▁तुमच्याजवळ	-11.3529
▁राष्ट्रांमध्ये	-11.3532
▁व्यास	-11.3534
▁पडद्या	-11.354
टर	-11.3541
▁महाराजा	-11.3544
▁कल्पक	-11.3544
▁पारपत्र	-11.3549
▁बसवण्या	-11.3554
India	-11.3557
ांमधल्या	-11.3564
▁कायमची	-11.3565
बल	-11.3569
▁चित्रपटांची	-11.3569
▁द्रव	-11.3571
▁पुस	-11.3572
▁बाळगा	-11.3573
▁उपास	-11.3573
▁दिसतील	-11.3575
वाय	-11.3579
▁गांधीजी	-11.3579
▁हृदयात	-11.3582
▁आस्था	-11.3583
ाव्यतिरिक्त	-11.3592
▁आवरण	-11.3594
▁चोख	-11.3595
▁ऐकता	-11.3595
▁पोहोचू	-11.3595
▁खाने	-11.3596
▁काश्मिर	-11.3598
▁उद्रेक	-11.3601
▁असोसिएशन	-11.3602
▁मलेरिया	-11.3602
▁मेंढे	-11.3602
▁गुन्हा	-11.3602
▁इलाज	-11.3602
▁विशेषज्ञ	-11.3602
▁वादविवाद	-11.3602
▁2014-15	-11.3602
▁सुखरुप	-11.3602
▁पांढरा	-11.3603
▁वित्तपुरवठा	-11.3603
▁लागलो	-11.3603
▁विनामूल्य	-11.3603
▁न्यायमूर्ती	-11.3603
▁पूरग्रस्त	-11.3603
▁डिझाइन	-11.3604
▁वयोगटातील	-11.3604
▁कलात्मक	-11.3605
▁ऑर्डर	-11.3605
▁गुणवत्तापूर्ण	-11.3606
▁मोकळा	-11.3607
▁सेंट्रल	-11.3607
▁वेळापूर्वी	-11.3608
▁स्थलांतरीत	-11.3608
▁शुभ्र	-11.3609
▁उतर	-11.3609
▁बदलणार	-11.361
▁गोरखपूर	-11.361
त्रस्त	-11.3612
▁नजीक	-11.3612
▁पदके	-11.3612
▁दाखविण्यासाठी	-11.3613
▁माघार	-11.3613
▁मुळा	-11.3614
▁व्यापाऱ्यांना	-11.3615
▁मंत्रालयांतर्गत	-11.3616
▁वंशाचे	-11.3616
▁सुरक्षिततेसाठी	-11.3617
▁सीआयआय	-11.3617
▁प्राथमिकता	-11.362
▁भेद	-11.3621
ामार्फत	-11.3621
▁सत्तेवर	-11.3623
▁मजुरां	-11.3624
▁प्राण्यांना	-11.3626
▁लोकांसमोर	-11.3628
▁वाढवण्याचे	-11.3629
▁रुग्णालयांमध्ये	-11.3636
▁कोणाचा	-11.3639
बळ	-11.3642
▁सुलभते	-11.3644
ोस	-11.365
संध्याकाळ	-11.365
▁राजेश	-11.3652
▁पंथ	-11.3652
▁संवेदना	-11.3655
▁भारती	-11.3655
▁शस्त्रे	-11.3659
▁माझ्याकडून	-11.366
कड	-11.366
▁इंग्रज	-11.3662
▁मेघ	-11.3662
▁उपक्रमांमध्ये	-11.3663
यु	-11.3663
▁डोळ्यात	-11.3668
▁कम	-11.3672
▁देवो	-11.3673
▁मना	-11.3675
▁सेवकांनी	-11.3675
.30	-11.3675
▁पेटी	-11.3675
ांग	-11.3676
▁पसर	-11.3676
निर्मिती	-11.368
▁प्रदर्शनाला	-11.3682
▁मारण्या	-11.3682
▁मोकळी	-11.3683
कॉमर्स	-11.3685
भगिनीनो	-11.3685
▁आहारात	-11.3685
▁आवडी	-11.3685
कृषी	-11.3686
▁डाळीं	-11.3686
▁खून	-11.3692
▁उपक्रमांचा	-11.3695
▁भरलेली	-11.3698
डो	-11.37
▁कळ	-11.3703
भगिनी	-11.3708
▁चिकित्से	-11.3708
▁धाडस	-11.371
▁कामांना	-11.3712
-2020	-11.3717
▁प्रांता	-11.3717
▁सुधारण्या	-11.3719
▁कालबद्ध	-11.3722
▁डाय	-11.3724
▁उस	-11.3729
▁पाळ	-11.3729
▁अवज	-11.373
▁ह्यावर	-11.3732
▁क्षेपणास्त्र	-11.3733
▁आईवडील	-11.3743
▁तंत्रज्ञ	-11.3745
▁कुटुंबाच्या	-11.3746
▁जाग	-11.3746
▁अग्रेसर	-11.3749
▁गिलगाल	-11.3749
▁दुर्लभ	-11.3749
▁मोबदला	-11.3749
▁सीनाय	-11.375
▁अनावश्यक	-11.375
▁शकेन	-11.375
▁सगव्व्या	-11.375
▁प्रमाणीकरण	-11.3751
▁पचमढी	-11.3751
▁ब्रिटीश	-11.3751
▁खासकरून	-11.3751
▁येथपर्यंत	-11.3751
▁जोमाने	-11.3751
▁संपादन	-11.3753
▁शोषित	-11.3754
▁उपाययोजनांमुळे	-11.3754
▁उदयपूर	-11.3754
▁कस	-11.3755
▁स्पर्धात्मकता	-11.3756
▁अहीया	-11.3756
▁परतावे	-11.3757
▁कापूस	-11.3758
▁संशयित	-11.3759
▁बॅटरी	-11.3759
▁पूज्य	-11.376
▁चरण	-11.376
▁भेटण्याची	-11.3761
▁सार्स	-11.3762
▁निवृत्त	-11.3763
▁परवडणारी	-11.3763
▁कलाकृती	-11.3763
▁करोडो	-11.3764
▁गोष्टींबद्दल	-11.3766
▁चिंते	-11.3767
▁रांग	-11.3767
▁वै	-11.3767
▁राष्ट्रांचे	-11.3767
▁ठरतात	-11.3768
▁वाढवण्याचा	-11.377
▁घातक	-11.3772
▁त्याच्याविषयी	-11.3773
▁लिटर	-11.3773
▁उत्साही	-11.3775
घर	-11.3776
▁दर्शनमंडपाच्या	-11.3779
▁खेड्यात	-11.3779
▁पिणे	-11.3779
▁समजा	-11.3782
▁टाकतील	-11.3786
▁शेतक	-11.3788
▁आतड्यां	-11.3788
▁यांनीही	-11.3789
▁जाळ्यात	-11.3802
▁आणतील	-11.3803
▁धरती	-11.3804
▁व्यक्तींची	-11.3812
▁राई	-11.3815
▁जाळी	-11.3815
▁लांबीचा	-11.3816
▁एला	-11.3817
▁पसंती	-11.3817
▁शहराचे	-11.3819
▁दाखविण्या	-11.3819
▁जोडणार	-11.3821
ल्‍या	-11.3824
▁पोहोचता	-11.3829
▁सोपवण्या	-11.3833
▁काहीजण	-11.3835
c	-11.3836
▁गळ	-11.3837
▁मेहनती	-11.3837
▁पाळी	-11.3839
▁क्रमांकाचा	-11.3842
PP	-11.3842
▁आजाराची	-11.3846
▁टोळधाड	-11.3847
▁हेर	-11.3852
▁वळण	-11.3853
▁खरेच	-11.3857
▁मेज	-11.3857
▁मालिके	-11.3863
▁अस्वल	-11.3868
▁शिल्प	-11.3869
▁प्रसिध्द	-11.3869
ुक	-11.3872
▁कुंभमेळ्या	-11.3873
ायची	-11.3888
▁54	-11.389
▁फेऱ्या	-11.3891
▁छान	-11.3898
▁दारे	-11.3898
▁पौर्णिमे	-11.3898
▁पुष्पांजली	-11.3898
▁ब्युरो	-11.3898
▁तावडीत	-11.3898
▁मैसूर	-11.3899
▁जन्मशताब्दी	-11.3899
▁आपापसात	-11.3899
▁वस्तुस्थिती	-11.3899
▁प्रतीक्षा	-11.3899
▁अडसर	-11.3899
▁सुपुत्र	-11.3899
▁वागणे	-11.3899
▁रोगिणी	-11.39
▁2012	-11.39
▁बोलेन	-11.3901
▁तिसरे	-11.3902
▁दाखवत	-11.3902
▁ओमान	-11.3902
▁समुद्रकिनारा	-11.3903
▁शेतमाल	-11.3904
▁अब्दुल	-11.3904
▁अवधीत	-11.3905
▁किल्ले	-11.3906
50,000	-11.3908
▁जुळव	-11.3909
▁रोखण्या	-11.391
▁हिला	-11.391
▁यावरून	-11.391
▁हिंसाचार	-11.3912
▁जगणे	-11.3915
▁माध्यमिक	-11.3917
▁गोवर	-11.3918
▁आयटी	-11.3924
▁गेट	-11.3927
▁विसरले	-11.3928
▁विचारसरणी	-11.3929
धन	-11.3933
▁महारोग	-11.3934
▁प्रमुखांनी	-11.3935
▁68	-11.3938
▁चेहर्यावर	-11.3939
▁हजारों	-11.394
मंत्र्यांना	-11.394
▁लाभली	-11.3943
वेल	-11.3951
▁वर्षाची	-11.3956
▁बि	-11.3961
्यांनी	-11.3964
▁वाटेत	-11.3964
▁जलाशय	-11.3967
वयास	-11.397
▁घराण	-11.3973
▁गटांना	-11.3973
▁आत्ताच	-11.3974
समाजातल्या	-11.3976
▁प्रशांत	-11.3977
पुरुष	-11.3978
▁बंदरात	-11.3979
काल	-11.3979
किसान	-11.3986
▁भाजी	-11.3987
मोठ्या	-11.3987
▁मार्गात	-11.3988
▁कामांचा	-11.3988
ांबरोबरच	-11.3989
वाल	-11.3996
▁अब	-11.3998
▁प्रशासनाने	-11.3999
बिहारी	-11.4
▁वेद्या	-11.4004
▁वाग	-11.4006
▁नैतिक	-11.4006
पीएम	-11.4007
ौ	-11.4008
▁कंपनीने	-11.4009
▁कार्याचा	-11.401
मला	-11.401
▁2005	-11.4011
▁अजमेर	-11.4021
ाव्यात	-11.4024
▁पूर्वजां	-11.4028
▁पारस	-11.4029
बाल	-11.4033
▁कारवाया	-11.4034
▁खेळाडूंन	-11.4034
▁रहात	-11.4039
▁रड	-11.4041
खा	-11.4042
▁नंबर	-11.4042
▁बोलव	-11.4042
▁एकत्रीकरण	-11.4042
▁नाटक	-11.4047
▁अभिनेते	-11.405
▁इंदिरा	-11.405
▁किरमिज	-11.405
▁दारयावेश	-11.405
▁निष्पाप	-11.405
▁नीतिमत्व	-11.405
▁सत्कृत्य	-11.405
▁परिसंस्था	-11.405
▁इंग्लंड	-11.405
▁अरिष्ट	-11.405
▁कोमट	-11.405
▁राष्ट्रार्पण	-11.4051
▁चमकदार	-11.4051
▁असाधारण	-11.4052
▁उझबेकिस्तान	-11.4052
▁शिल्पकार	-11.4053
▁हेल्थ	-11.4053
▁यशोगाथा	-11.4054
▁इंडो	-11.4056
▁स्पेन	-11.4057
▁एनडीआरएफ	-11.4057
▁वैद्य	-11.4057
▁आरोग्यदायी	-11.4059
▁नॉन	-11.4059
▁नाणे	-11.406
▁सोडली	-11.4061
▁समाधी	-11.4062
▁संदेष्ट्यांनी	-11.4062
▁तीव्रता	-11.4067
▁संचलन	-11.4069
ाप्रमाणेच	-11.4074
▁तशाच	-11.4074
▁मिद्यानी	-11.4075
▁थांबून	-11.4076
▁कारखान्यात	-11.4077
ठाय	-11.4077
▁पोहोचत	-11.4077
▁कर्मचाऱ्यांचे	-11.408
दायी	-11.4081
▁राहाणाऱ्या	-11.4085
▁ऐकतात	-11.4089
▁मिळालेला	-11.409
▁मुदती	-11.4092
काय	-11.4093
▁सीला	-11.4093
30	-11.4097
▁हल्ल्याचा	-11.4101
ल्स	-11.4102
▁परदेशातून	-11.4104
▁पडलेले	-11.4105
▁अंतराच्या	-11.4116
▁बांधकामासाठी	-11.4116
▁रोगी	-11.4119
▁विश्वात	-11.4121
▁योना	-11.4122
▁वर्गवारी	-11.4123
▁ओरडत	-11.4124
▁उत्पादनाची	-11.4125
▁शब्दांनी	-11.4125
ळी	-11.4125
▁सांगणार	-11.4125
▁मिळालेले	-11.413
35	-11.4131
▁क्षेत्रांत	-11.4132
▁स्वातंत्र्याची	-11.4133
▁कापत	-11.4134
▁भाड्या	-11.4137
क्त	-11.4139
▁घडामोडींवर	-11.4139
ाव	-11.414
▁वाहिन्या	-11.4144
‍	-11.4145
ायचे	-11.4148
▁कोसळ	-11.4152
▁फ्री	-11.4152
▁हिम	-11.4157
▁भागीदारीला	-11.4159
्याची	-11.4161
▁सेवेची	-11.4161
▁शिशु	-11.4163
▁वाढता	-11.4164
▁किरे	-11.4168
▁बजावू	-11.4169
▁नेणार	-11.4171
▁o	-11.4173
▁रूग्णालय	-11.4174
▁तेलाने	-11.4175
▁त्यावरील	-11.4175
शान	-11.4177
▁अधिकांश	-11.4178
▁त्यांन	-11.4178
▁अठरा	-11.4179
▁99	-11.4181
▁घेणारे	-11.4184
▁याबाबतीत	-11.4185
▁शिफारशीं	-11.4187
ॉ	-11.4189
▁चित्रपटाला	-11.4192
▁तुझ्याबद्दल	-11.4193
▁लागण	-11.4193
▁अहो	-11.4193
▁विभागाला	-11.4196
▁बाळगू	-11.4197
▁स्थाने	-11.4197
▁महाग	-11.4198
▁कळू	-11.4199
कारण	-11.42
▁उतरले	-11.4201
▁सुवास	-11.4204
▁इस्साखार	-11.4204
▁उपजीविके	-11.4204
▁वृक्षारोपण	-11.4204
▁सलोखा	-11.4204
▁स्तवन	-11.4204
▁पुनर्बांधणी	-11.4204
▁चौबे	-11.4204
▁शानदार	-11.4204
▁पेटंट	-11.4204
▁अबाधित	-11.4205
▁विश्वनाथ	-11.4205
▁डिग्री	-11.4206
▁यासंबंधी	-11.4206
▁संभोग	-11.4206
▁तितका	-11.4206
▁गुरेढोरे	-11.4207
▁यबूसी	-11.4207
▁शबा	-11.4208
▁दिलं	-11.4209
▁2024	-11.4211
▁रवी	-11.4212
▁जगता	-11.4213
▁नवव्या	-11.4213
▁ध्वनी	-11.4213
▁संकटकाळात	-11.4213
▁तरलता	-11.4215
▁आवश्यकतेवर	-11.4216
▁केंद्रांचे	-11.4217
▁मागण्या	-11.4217
▁योगदानाची	-11.4218
▁याजकाला	-11.4219
▁शिमला	-11.4219
▁उपचारानंतर	-11.422
▁दाखवू	-11.4222
▁मुलं	-11.4222
▁टिंकर	-11.4222
▁चौकटीत	-11.4224
▁लोकसेवा	-11.4226
▁समजतात	-11.4227
▁इमारतीत	-11.4228
▁गाल	-11.4228
▁आरोग्यमंत्री	-11.4233
▁अपूर्ण	-11.4236
ाक	-11.4237
and	-11.4237
▁मेलेल्यां	-11.4237
▁दिवसाचा	-11.4238
▁स्वीकारण्या	-11.4238
▁त्वचेला	-11.4245
▁स्वच्छतेसाठी	-11.4245
▁पायाखाल	-11.4246
▁भावांना	-11.4249
▁प्रकारात	-11.4251
▁दौड	-11.4252
▁समृद्धीसाठी	-11.4254
▁अधिका	-11.4255
▁दशके	-11.4256
▁तेवढेच	-11.4257
▁योजनांसाठी	-11.4258
▁नेण्यात	-11.4265
▁नेली	-11.4266
▁वाढवले	-11.4269
▁दलित	-11.4269
▁बादल	-11.4275
▁सुविधांसाठी	-11.4277
▁दुर्गा	-11.4285
▁यांच्यासारख्या	-11.4285
▁लोकांबद्दल	-11.4286
▁कटीबद्ध	-11.4289
▁बनव	-11.4289
▁जानेवारीला	-11.4289
जयकार	-11.4292
▁समुदायाने	-11.4293
▁सुरक्षेच्या	-11.4294
▁केंद्रांवर	-11.4297
▁हाडां	-11.4299
▁चि	-11.4302
▁हिराव	-11.4303
▁शहरातून	-11.4303
▁वाटला	-11.431
▁चौकट	-11.4311
▁सदस्यांचे	-11.4312
▁माहितीनुसार	-11.4314
▁खेळत	-11.4318
▁उद्योगातील	-11.4319
▁550	-11.4324
गढ	-11.4329
▁दुकान	-11.4331
▁350	-11.4335
▁अट	-11.4335
▁वर्षां	-11.4335
▁दिल्याचे	-11.4336
▁78	-11.434
▁विखुरलेल	-11.4342
▁येणा	-11.4346
▁नागरिकाला	-11.4348
▁विविधते	-11.4349
▁निवडणुकी	-11.4351
▁लढ	-11.4351
▁जाळत	-11.4357
▁शिवलिंग	-11.4358
▁खाणकाम	-11.4359
▁दुर्घटना	-11.436
▁टिळक	-11.436
▁प्राणायाम	-11.436
▁सामुहिक	-11.436
▁प्रोटीन	-11.436
▁स्वारस्य	-11.436
▁व्यस्त	-11.436
▁जैवइंधन	-11.436
▁सुपीक	-11.436
▁नव्हत्या	-11.4361
▁कबीर	-11.4361
▁कोरेश	-11.4361
▁बोडो	-11.4361
▁चालावे	-11.4361
▁बोलल्या	-11.4361
▁अणू	-11.4361
▁आमदार	-11.4362
▁हितकारक	-11.4362
▁परिक्षण	-11.4362
▁व्हाव्यात	-11.4363
▁आढळतो	-11.4363
▁पॉइंट	-11.4364
▁वापराला	-11.4364
▁ठाणे	-11.4364
▁त्रासदायक	-11.4364
▁ज्यातून	-11.4364
▁पांडे	-11.4366
▁सेवेचे	-11.4366
▁मत्सर	-11.4366
▁पडणाऱ्या	-11.4367
▁किशोर	-11.4372
▁काढतो	-11.4372
▁उघडली	-11.4373
▁निशाण	-11.4374
▁रात्रं	-11.4374
▁वाढीसाठी	-11.4375
▁कागदपत्रे	-11.4376
▁पोहचता	-11.4377
लि	-11.4378
▁स्थानके	-11.4379
▁होणा	-11.4379
▁नामान	-11.438
▁सिमला	-11.4381
▁योजनांमुळे	-11.4381
▁वर्षांपर्यंत	-11.4381
▁एलाम	-11.4382
▁हास्य	-11.4383
▁संस्कृत	-11.4384
▁लॅब	-11.4385
▁हव्यात	-11.4386
▁डीएसटी	-11.4387
▁पाहण्यासारखे	-11.439
▁व्यवस्थापनात	-11.439
▁चकित	-11.439
ूत	-11.4394
▁सदस्यांच्या	-11.4395
▁आधीपासूनच	-11.4396
▁देशवासीयां	-11.44
▁पथकाने	-11.4404
▁सब	-11.4405
▁फैलाव	-11.4405
▁कार्यालयाने	-11.4407
▁रिकामे	-11.4409
▁निर्मितीमध्ये	-11.4411
▁गुंतवणूकदारां	-11.4413
▁पाहाल	-11.4414
▁पूर्वे	-11.4414
▁युवकांमध्ये	-11.4415
▁मांडू	-11.4419
▁जेथ	-11.4419
▁लावल्या	-11.442
▁येण्याच्या	-11.4421
▁बघण्या	-11.4425
▁प्रगतीच्या	-11.4425
▁दादरा	-11.4426
▁त्याबरोबर	-11.4431
▁उष्ण	-11.4433
▁पटव	-11.4437
▁जीवनावर	-11.4438
▁वारे	-11.4441
्ल	-11.4444
▁लष्करा	-11.4445
▁नाविक	-11.4449
▁रामायण	-11.4449
▁बोगद्या	-11.445
▁दर्शनमंडपात	-11.4451
▁त्याकडे	-11.4452
दुरुस्ती	-11.4452
▁दीप	-11.4452
▁डीडी	-11.4453
▁अंध	-11.4453
२०	-11.4454
शेजारी	-11.4455
98	-11.4455
ीज	-11.4456
▁तज्ञां	-11.4456
▁सभापती	-11.4457
▁लावी	-11.4458
केंद्रीय	-11.4459
▁नवऱ्या	-11.4459
▁घाबरू	-11.446
००	-11.446
▁उत्खनन	-11.446
▁संबंधीत	-11.4461
▁पत्रात	-11.4462
स्थळ	-11.4466
वीस	-11.4466
▁निसर्गाचे	-11.447
▁नारळ	-11.4474
41	-11.4476
▁बागेत	-11.4476
▁हालचाल	-11.4477
सकट	-11.448
▁अनुभवी	-11.448
▁विदेश	-11.4484
▁कंत्राट	-11.4485
▁द्राक्षवेली	-11.4491
▁सुषमा	-11.4492
▁गत	-11.4494
▁वेली	-11.45
▁01	-11.4501
▁हालचाली	-11.4505
▁घोड्यां	-11.4508
▁मिळण्या	-11.4508
ंप्रमाणे	-11.4508
▁वागू	-11.4514
यांच्या	-11.4514
▁निरुपयोगी	-11.4519
▁मुस्लीम	-11.4519
▁वक्फ	-11.4519
▁सहानुभूती	-11.4519
▁उष्मांक	-11.4519
▁मत्स्यपालन	-11.4519
▁उदिृष्ट	-11.4519
▁फसवणूक	-11.4519
▁साधनसंपत्ती	-11.4519
▁रक्तस्त्राव	-11.4519
▁तामार	-11.4519
▁उपवास	-11.4519
▁आंतरराज्य	-11.4519
▁खजुराहो	-11.4519
▁आदाम	-11.452
▁टाकाऊ	-11.452
▁सोहळा	-11.452
▁मुळीच	-11.4521
▁जिल्हाधिकारी	-11.4522
▁ठेऊन	-11.4522
▁देसाई	-11.4522
▁लवचिकता	-11.4522
▁आकारणी	-11.4522
यन	-11.4523
▁मरतात	-11.4523
▁अखत्यारीतील	-11.4524
ठिकाणी	-11.4524
▁कौर	-11.4526
▁तलाक	-11.4527
श्री	-11.4527
▁टेकड्या	-11.4528
▁उत्सुकता	-11.4528
▁गरजूंना	-11.4529
▁उमेदवारांना	-11.453
▁अपलोड	-11.453
▁विसरुन	-11.4531
▁मुद्यां	-11.4533
▁सरकारतर्फे	-11.4533
▁तारणार	-11.4534
▁वाज	-11.4537
▁धरतो	-11.4537
▁सडक	-11.4538
▁--	-11.4541
▁जगण्याचा	-11.4542
▁असल्याच्या	-11.4545
▁सदर	-11.4546
रि	-11.4546
▁व्यापारासाठी	-11.455
▁नेतो	-11.4551
▁व्यापाऱ्यां	-11.4552
▁गाठण्या	-11.4552
▁लावतो	-11.4555
▁खातात	-11.4555
▁धैर्याने	-11.4556
▁आहा	-11.4557
▁दुस	-11.4557
▁रांगेत	-11.4557
▁सोपव	-11.456
▁त्याच्याकडून	-11.456
▁आवश्यकते	-11.4561
▁विद्यार्थ्यांशी	-11.4562
▁निघणार	-11.4562
▁व्यवसायात	-11.4563
▁उन्हात	-11.4565
▁घातलेल्या	-11.4568
▁प्रतिनिधींना	-11.4569
▁व्यक्तींनी	-11.4569
पाच	-11.4572
देश	-11.4574
करी	-11.4576
▁निशंक	-11.4577
▁नसे	-11.458
टन	-11.458
▁स्वीकारल्या	-11.4585
▁वसुली	-11.4589
▁कॉमर्स	-11.4589
▁मुंबईच्या	-11.459
▁पुरुषांना	-11.4591
▁अॅ	-11.4591
▁देवून	-11.4591
▁बदला	-11.4592
▁जांभळ	-11.4595
▁डिव्हिजन	-11.4596
▁हिमालया	-11.4598
▁उपक्रमाला	-11.4598
ण्ड	-11.4599
4.2020	-11.4599
▁बिया	-11.46
▁शोभा	-11.4602
▁चिकट	-11.4612
जागतिक	-11.4616
प्रत्येक	-11.4616
यामुळे	-11.4617
प्रसाद	-11.4617
ंगा	-11.4617
▁वर्षांचे	-11.4618
▁महामंडळाच्या	-11.4619
▁में	-11.4621
▁पाडू	-11.4621
33	-11.4622
आधी	-11.4632
▁त्यांच्याच	-11.4634
▁चर	-11.4635
िनी	-11.4635
खात	-11.4637
.00	-11.4637
▁सरोवरात	-11.4638
्न	-11.4639
▁पूर्वेकडे	-11.464
▁ओग	-11.464
▁घरामध्ये	-11.4642
▁डॉलर्सच्या	-11.4642
▁राज्यघटने	-11.4645
▁जिल्ह्याच्या	-11.4646
सि	-11.4647
०	-11.4648
ेंद्र	-11.4649
▁तेवढी	-11.4653
▁बसणार	-11.4655
▁बेस	-11.4657
▁वाचवण्या	-11.4658
▁राज्यावर	-11.4664
▁पॉल	-11.4664
षी	-11.4665
▁भागांना	-11.4666
▁मारायच	-11.4669
▁गव्हर्नर	-11.4673
▁कमतरते	-11.4676
▁यातना	-11.4677
▁औचित्य	-11.468
▁गल्याथ	-11.468
▁नालंदा	-11.468
▁पढाओ	-11.468
▁प्रल्हाद	-11.468
▁बुद्धीमत्ता	-11.468
▁मदुराई	-11.468
▁अहश्वेरोश	-11.468
▁दायित्व	-11.468
▁पॉझिटिव	-11.468
▁नसबंदी	-11.468
▁न्यूयॉर्क	-11.468
▁शेखावत	-11.468
▁जलवायु	-11.468
▁मतभेद	-11.468
▁गुरुदेव	-11.4681
▁कुटुंबकल्याण	-11.4682
▁अन्र	-11.4682
▁अहमद	-11.4682
▁चालणे	-11.4683
▁उपाययोजनांबाबत	-11.4683
▁आंधळा	-11.4684
ण्याचं	-11.4684
▁पसरतो	-11.4684
▁थांबा	-11.4685
▁व्यवस्थेचा	-11.4686
▁घ्यायची	-11.4686
▁खुशाल	-11.4686
▁परिचित	-11.4686
▁फलक	-11.4686
▁डबे	-11.4687
▁मालिका	-11.4688
▁कलंक	-11.4688
▁आखली	-11.4689
▁पाषाण	-11.4692
▁डोळ्यांनी	-11.4692
▁चित्रे	-11.4694
▁संबंधात	-11.4696
▁रेल्वेची	-11.47
पूरक	-11.4701
▁देवता	-11.4703
▁कारकिर्दीत	-11.4703
▁जगण्याची	-11.4705
▁दिवसानिमित्त	-11.4707
▁पक्षां	-11.4712
▁अर्धे	-11.4717
▁खड	-11.4717
▁वाजवी	-11.4722
▁उपट	-11.4726
▁संस्कृतीचा	-11.4726
▁पोहचले	-11.4732
▁ओळखली	-11.4735
मरुन	-11.4743
ाधिकारी	-11.4744
▁वर्गातील	-11.4744
▁बापूं	-11.4746
▁निर्मितीचा	-11.4746
-1	-11.4753
▁गाणी	-11.4755
▁बांधण्याच	-11.4758
▁देवू	-11.4758
26	-11.4763
▁गरिबी	-11.4772
▁टिकव	-11.4776
▁विद्यार्थ्यांचे	-11.4779
21	-11.4779
्याचे	-11.478
ोत	-11.4782
▁जलसाठ	-11.4782
▁ठरविण्या	-11.4783
▁गोष्टींचे	-11.4785
▁चेक	-11.4792
ुर	-11.4794
▁उतरु	-11.4795
▁मानके	-11.4798
▁माझ्यात	-11.4798
▁इंद्रधनुष	-11.4804
▁पूर्वजांच्या	-11.4806
अमेरिका	-11.4811
▁पर्यावरणाचे	-11.4817
▁देशभरा	-11.4818
▁क्रॉस	-11.482
▁नसले	-11.4822
▁तूप	-11.4823
▁समाधानी	-11.4824
▁तिबेटी	-11.4832
▁व्यवसायिक	-11.4833
▁हनुमान	-11.4838
▁हेल्पलाईन	-11.4838
▁सोडत	-11.484
14	-11.484
▁यामुळेच	-11.4841
▁चुंबन	-11.4844
▁पुतळा	-11.4844
▁प्रणाम	-11.4844
▁भक्ष्य	-11.4844
▁इब्री	-11.4844
▁एलकाना	-11.4844
▁फिनहास	-11.4844
▁माखीर	-11.4844
▁आटोक	-11.4844
▁परिधान	-11.4844
▁२०१६	-11.4844
▁चिरंतन	-11.4844
गर	-11.4845
▁बेंगळुरू	-11.4845
▁संरचनात्मक	-11.4846
▁अल्पसंख्यक	-11.4846
▁दिसली	-11.4846
▁बहादूर	-11.4847
▁शिपाई	-11.4847
▁गर्भधारणे	-11.4847
▁मिळवणे	-11.4847
▁छोडो	-11.4847
▁काली	-11.4847
वास	-11.4848
भगिनींना	-11.4848
▁गांधीजींनी	-11.4848
▁1200	-11.4849
▁प्यायले	-11.4851
▁चालताना	-11.4852
▁आम्ल	-11.4854
▁ज्वर	-11.4854
▁राहावा	-11.4854
▁माका	-11.4856
▁वसंत	-11.4856
▁गोल्ड	-11.4856
▁किनार्या	-11.4857
▁बनवतात	-11.4858
मि	-11.4858
▁पोखरी	-11.4858
▁ठरवावे	-11.4859
▁कामकाजात	-11.4859
▁आंधळ्या	-11.486
▁रविवारी	-11.4862
▁यशस्वीरित	-11.4862
▁वाचवतो	-11.4863
▁पाहावे	-11.4863
▁बनवण्याची	-11.4865
▁अर्थव्यवस्थेवर	-11.4865
▁जोडणाऱ्या	-11.4866
▁खंबीर	-11.4866
▁बालकांना	-11.4867
▁दिल्यानंतर	-11.4869
▁उडून	-11.4869
▁जमलेल्या	-11.487
▁चमचा	-11.4872
▁हसत	-11.4872
▁ताशी	-11.4873
▁प्रेक्षक	-11.4876
▁इच्छितात	-11.4876
▁पोहोचण्या	-11.4878
भाव	-11.488
47	-11.4885
▁माध्यमांनी	-11.4886
▁केसांना	-11.489
▁प्रयोगशाळेत	-11.489
करीता	-11.4892
▁प्रदेशाचा	-11.4897
▁पूर्वजांचा	-11.4897
▁छायाचित्रे	-11.4903
▁गावामध्ये	-11.4904
▁स्वप्नात	-11.4905
▁येशूविषयी	-11.4905
▁मोडले	-11.4905
▁110	-11.4907
छ	-11.4908
▁नागरिकांचा	-11.4909
▁87	-11.4909
▁सहकार्याबद्दल	-11.491
▁समितीचे	-11.491
▁अब्राहामाला	-11.4913
▁एकनिष्ठ	-11.4913
न्न	-11.4913
▁पक्ष्या	-11.4915
▁बोलण्याची	-11.4918
▁सर्वांवर	-11.492
▁अनुसरण	-11.492
▁रास	-11.492
▁वाहण्या	-11.4922
आई	-11.4924
▁2)	-11.4925
मुळेच	-11.4926
▁प्रवासाला	-11.4927
▁दुर	-11.4928
▁द्य	-11.4928
▁हिरवळी	-11.4929
▁योजनेतून	-11.4931
▁ग्रंथात	-11.4934
जू	-11.4937
▁मऊ	-11.4942
▁विश्वासात	-11.4943
▁जु	-11.4944
कार्य	-11.4948
▁हॅ	-11.4951
▁१५०	-11.4953
▁आढळला	-11.4953
िण	-11.4955
▁गुप्ता	-11.4955
▁पेरले	-11.4959
▁मानवजाती	-11.4964
▁82	-11.4964
▁सफल	-11.4966
▁चौकटी	-11.497
▁टाळेबंदीच्या	-11.4975
पाणी	-11.4976
▁हल्ल्यात	-11.4979
▁झुडुप	-11.4979
▁वडीलजन	-11.4984
▁जाड	-11.4985
▁उदा	-11.4986
ांदरम्यान	-11.4992
कर्ता	-11.4994
▁मारणार	-11.4995
▁कक्षात	-11.4996
▁नित्य	-11.4998
▁सहजते	-11.5
▁देशभरातून	-11.5
▁प्रमाणेच	-11.5002
▁स्टार	-11.5006
▁जगला	-11.5006
▁उभारी	-11.5006
▁बांधू	-11.501
▁एकजुटी	-11.5011
▁मून	-11.5011
▁अब्याथार	-11.5011
▁आगेकूच	-11.5011
▁घाऊक	-11.5011
▁हजाएल	-11.5011
▁परिमाण	-11.5011
▁अबीशय	-11.5011
▁शाफान	-11.5011
▁गेहजी	-11.5011
▁आवर्ज	-11.5011
▁खोरे	-11.5011
▁बहुविध	-11.5011
▁पीयूष	-11.5011
▁नारंगी	-11.5011
▁गाजर	-11.5012
▁धोत्रे	-11.5012
▁रालोआ	-11.5012
▁फॅशन	-11.5012
▁मार्गदर्शनाखाली	-11.5013
▁बद्धकोष्ठता	-11.5013
▁कुंभार	-11.5013
▁करण्यासंबंधी	-11.5013
▁निघाली	-11.5013
▁करावयास	-11.5014
▁शकणाऱ्या	-11.5014
▁रॉयल	-11.5014
▁वाचविण्यासाठी	-11.5014
▁शतकांपासून	-11.5015
▁आशय	-11.5015
▁पुस्तिका	-11.5016
▁म्हणेन	-11.5016
▁उष्णता	-11.5016
▁संवेदनशीलता	-11.5017
▁रॉक	-11.5018
▁कापसा	-11.5019
▁पेट्रोल	-11.5019
▁आणावी	-11.502
▁ओस	-11.502
▁चिंतन	-11.5023
▁खास्द्यां	-11.5023
ंतून	-11.5023
▁स्वतःहून	-11.5025
ाकीद	-11.5028
▁पडल्यावर	-11.5029
▁डोळ्यांना	-11.5035
▁मंदिरासाठी	-11.5037
ीमुळे	-11.5039
▁राहणीमान	-11.504
▁चित्रपटाच्या	-11.504
तूमध्ये	-11.5041
▁डमिरल	-11.5041
▁संधीचा	-11.5042
▁शिष्टमंडळाने	-11.5044
▁डीबीटी	-11.5045
▁तफावत	-11.5046
▁वाह	-11.5046
▁मिळवला	-11.5048
▁कर्मेल	-11.5048
.1	-11.505
▁इस	-11.5051
विले	-11.5052
▁गरीबांसाठी	-11.5059
पात्र	-11.506
▁जिंकण्या	-11.5061
▁व्यापाराला	-11.5063
▁परिषदेमध्ये	-11.5064
▁शेतकऱ्याला	-11.5067
▁मिळविले	-11.5069
▁पिशवी	-11.5069
▁ओतले	-11.5071
▁जीप	-11.5072
▁रऊबेनी	-11.5072
▁अर्थव्यवस्थेची	-11.5072
▁येशूवा	-11.5075
ों	-11.5078
१९	-11.5079
▁उद्योजकते	-11.5087
िश	-11.5088
▁लोखंडी	-11.5089
▁शोषण	-11.5091
▁राष्ट्रसंघ	-11.5092
मध्‍ये	-11.5095
▁ज्याच्यावर	-11.5097
▁बाजूं	-11.5104
▁विद्यमाने	-11.5106
▁मरु	-11.511
▁76	-11.5114
▁मध्यस्थ	-11.5116
जपान	-11.5117
आता	-11.5123
िटी	-11.5124
्यु	-11.5124
▁सेवांमध्ये	-11.5126
▁गीते	-11.5129
▁तृतीय	-11.513
▁सोन्याचा	-11.5131
at	-11.5133
▁चाक	-11.5134
▁रेल्वेला	-11.5135
▁गाठला	-11.5136
▁फिर	-11.5137
▁यहुद्यां	-11.5138
▁घ	-11.5144
▁पूर्वीच	-11.5144
करवी	-11.5144
ानंद	-11.5146
▁खोकल्या	-11.5146
▁सकाळच्या	-11.5148
▁परूश	-11.5148
▁चालवत	-11.5149
▁तेथ	-11.5152
▁81	-11.5157
▁लप	-11.5161
ंक	-11.5164
▁दक्ष	-11.5167
▁पहिलीच	-11.5167
▁तुझ्यापासून	-11.517
▁सरपंच	-11.5173
लर	-11.5173
▁वाचू	-11.5174
▁जीवनाची	-11.5174
▁बांधा	-11.5174
▁गडगडाट	-11.5174
याला	-11.5175
ासन	-11.5176
ोमाग	-11.5178
▁बँकांच्या	-11.5179
▁गोष्टीची	-11.5179
▁आग्नेय	-11.518
▁ऑलिम्पिक	-11.518
▁काठमांडू	-11.518
▁देहरादून	-11.518
▁अनुभूती	-11.518
▁ग्लास	-11.518
▁फवारणी	-11.518
▁गौतम	-11.518
▁पाठींबा	-11.518
▁नेहरु	-11.518
▁विनवणी	-11.518
▁चेतना	-11.518
▁बकरा	-11.518
▁सुसंवाद	-11.5181
▁अग्रणी	-11.5181
▁भूजल	-11.5181
▁तज्ज्ञां	-11.5181
▁मूर्त्या	-11.5182
▁खाण्यापिण्या	-11.5183
▁पुरवली	-11.5183
▁असलो	-11.5183
णूक	-11.5184
▁लोकसमुदाय	-11.5184
▁सुप्रशासन	-11.5184
▁सुनील	-11.5185
▁शिकाय	-11.5185
▁सीपीएसई	-11.5185
▁धुतले	-11.5185
▁राजकोट	-11.5187
▁हाताळण्यासाठी	-11.5187
▁आठवणींना	-11.5188
▁आणेल	-11.5189
▁2009	-11.5189
▁राबविले	-11.519
▁दी	-11.519
▁दीन	-11.5191
▁बनणार	-11.5191
रात	-11.5193
▁प्रतिकारशक्ती	-11.5193
▁कोकण	-11.5194
06	-11.5194
▁मोटर	-11.5195
▁उपाशी	-11.5196
▁दुपटीन	-11.5197
▁बनतात	-11.5197
▁कुटुंबाचा	-11.5199
बहाल	-11.5201
▁जीवनाला	-11.5202
हार	-11.5202
▁अवस्थेमध्ये	-11.5204
▁खोल्यां	-11.5204
▁गाळून	-11.5205
▁अमोऱ्यां	-11.5205
ापूर्वी	-11.5207
▁चिर	-11.5209
▁वाढवते	-11.5211
▁सोडण्यात	-11.5212
शि	-11.5212
▁कळून	-11.5213
▁एकशे	-11.5215
▁संहिता	-11.5215
▁रिंग	-11.5215
▁थांबला	-11.5218
▁प्रदेशाला	-11.5219
▁आठवते	-11.5219
ुद्द	-11.5224
याचा	-11.5226
ाधारित	-11.5227
▁स्वीकारली	-11.5227
▁रा	-11.5231
▁सत्राला	-11.5232
▁उपकरणांची	-11.5233
▁करण्याआधी	-11.5234
▁माणस	-11.5237
▁अध्यक्षस्थान	-11.5241
▁रण	-11.5241
▁शोधण्या	-11.5243
▁भारी	-11.5245
▁एफसीआय	-11.5249
▁जीवित	-11.525
▁अडचणीत	-11.5254
▁आशावाद	-11.5259
▁गवता	-11.5259
▁अश्रू	-11.526
▁तंबूत	-11.5263
▁बाधा	-11.5263
▁ऑटो	-11.5267
▁डिझेल	-11.5267
▁विचारला	-11.5268
▁मंत्र्यांची	-11.5268
▁दूतावास	-11.527
▁दिलास	-11.5273
सुविधा	-11.5275
▁योगाचा	-11.5276
▁आठवा	-11.528
▁ज्याद्वारे	-11.5285
▁पटणा	-11.5288
आयुष्मान	-11.5288
▁कच्चा	-11.5289
``	-11.529
▁पाह	-11.529
▁मुख्यमंत्र्यांन	-11.529
▁उपकरणां	-11.5293
▁संरचने	-11.5301
▁सतर्क	-11.5302
दु	-11.5304
75	-11.5304
▁यामागच	-11.5306
▁पर्यत	-11.5309
▁खोट	-11.5315
गी	-11.5319
▁जप्त	-11.5319
▁वापरुन	-11.5319
▁कॅमेरा	-11.5324
▁निराश	-11.5326
▁डाळ	-11.5326
▁विहीर	-11.5327
▁उंचावर	-11.5327
व्दारे	-11.5327
▁इतरांच्या	-11.533
▁आव्हानाचा	-11.533
ar	-11.5331
▁पुण्या	-11.5332
▁फिन	-11.5332
▁61	-11.5332
▁दांत	-11.5333
▁यानुसार	-11.5341
▁काळोख	-11.5344
▁शाळे	-11.5347
▁थ	-11.5348
▁चेंबर	-11.5351
▁फुटबॉल	-11.5353
▁इफ्ताह	-11.5353
▁कायापालट	-11.5353
▁गेहलोत	-11.5353
▁जरुब्बाबेल	-11.5353
▁सेईर	-11.5353
▁न्यायाधिकरण	-11.5353
▁रिजीजू	-11.5353
▁चक्कर	-11.5353
▁राहणारा	-11.5353
▁पाईप	-11.5353
▁अवलंबित्व	-11.5353
▁दोषार्पण	-11.5354
▁तत्त्वां	-11.5354
▁वैद्यक	-11.5354
▁हिंस्	-11.5354
▁सुधारेल	-11.5355
▁साक्षरता	-11.5355
▁छत्तीसगढ	-11.5355
▁मुलांनो	-11.5356
▁पतपुरवठा	-11.5357
▁मिळाल्यानंतर	-11.5358
▁साधताना	-11.5358
▁श्वेत	-11.536
▁हिरवी	-11.5361
▁खातो	-11.5363
▁ओठ	-11.5364
▁मंत्रालयातर्फे	-11.5366
▁चीड	-11.5366
ट्र	-11.5366
▁आशु	-11.5366
▁जायची	-11.5366
▁उत्कृष्टता	-11.5367
▁आयआयएम	-11.5367
▁आपणांस	-11.5372
▁बाळगून	-11.5372
▁कोरडे	-11.5374
▁टूर	-11.5374
▁परताव्या	-11.5375
ांसारखे	-11.5375
णं	-11.5375
▁नेमके	-11.5377
▁झाडावर	-11.5378
५०	-11.5378
▁बाजूंना	-11.5378
▁नदीत	-11.5378
▁एकक	-11.5378
▁यो	-11.5379
▁सोडणार	-11.5382
▁व्याप	-11.5385
▁साधतील	-11.5385
▁चालण्या	-11.5389
▁आमच्यात	-11.5391
▁आमच्याबरोबर	-11.5391
▁कोणाचे	-11.5391
▁भाई	-11.5392
▁पाहण्याचा	-11.5394
बाई	-11.5397
▁खतांच	-11.5401
▁कोर्स	-11.5403
▁IC	-11.5404
▁ऑ	-11.5405
▁जबरदस्ती	-11.5406
▁भाला	-11.5407
▁रामेश्वरम	-11.5412
▁डॉक्टरांना	-11.5415
▁संस्थांमध	-11.5415
स्त्र	-11.5416
▁खाण्यास	-11.542
▁उडत	-11.5427
▁व्यक्तींचा	-11.5429
▁गादी	-11.543
▁मानेवर	-11.5431
▁न्यायालयाने	-11.5437
पास	-11.5439
▁सारखेच	-11.5439
विरूद्ध	-11.5443
▁बँकांनी	-11.5443
धर्म	-11.5452
▁शे	-11.5454
▁गळती	-11.5456
▁बकऱ्या	-11.5459
▁दारा	-11.5462
03	-11.5463
संसर्गजन्य	-11.5464
▁बनवा	-11.5466
▁संस्थाना	-11.5469
▁आठव	-11.5472
▁सापड	-11.5478
▁विभागाची	-11.5478
िग	-11.5478
▁सर्वनाश	-11.548
▁बद्धकोष्ठ	-11.5481
▁खिळ	-11.5481
▁चेहऱ्यावर	-11.5482
▁काढता	-11.5485
▁पै	-11.5486
तंत्र	-11.5489
▁रुग्णालयाचे	-11.5491
▁प्रात्यक्षिक	-11.5496
ीर	-11.5498
▁अध्यात्म	-11.5498
▁जाणता	-11.5499
▁वागण्या	-11.5499
▁मुलीला	-11.5501
आण	-11.5501
ंसोबत	-11.5502
▁ह्यानंतर	-11.5503
▁वाढतात	-11.5503
▁व्हेंटीलेटर	-11.5513
▁येशूवर	-11.5513
▁गावाला	-11.5517
याच्या	-11.5517
▁मराल	-11.5518
▁किनारपट्टीवर	-11.5519
मामि	-11.552
▁आवाजात	-11.552
ाभिमुख	-11.5521
▁जन्मलेल	-11.5522
▁गर्भावस्थे	-11.5524
क्	-11.5525
▁व्यवस्थापक	-11.5525
▁हन्ना	-11.5527
▁दस्तावेज	-11.5528
य्यम	-11.5528
▁कौटुंबिक	-11.5528
▁टंचाई	-11.5528
▁तमिळनाडू	-11.5528
▁बिझनेस	-11.5528
▁मंथन	-11.5528
▁एक्स्प्रेस	-11.5528
▁मजकूर	-11.5528
▁ब्लेअर	-11.5528
▁हिशेब	-11.5528
▁असाव्यात	-11.5529
▁दाणे	-11.5529
▁औषधनिर्माण	-11.5529
▁स्वेच्छेने	-11.5529
▁मनमोहक	-11.553
▁दारिद्र्य	-11.553
▁म्हंटले	-11.553
▁कावीळ	-11.5531
▁फोर्ट	-11.5531
▁दृष्टीस	-11.5532
▁म्हणायचे	-11.5532
▁इतकं	-11.5532
▁आदेशानुसार	-11.5533
▁खरेतर	-11.5535
▁इयत्ता	-11.5536
▁वागले	-11.5536
▁बघितले	-11.5536
▁सनदी	-11.5536
▁जन्मभूमी	-11.5538
ोतक	-11.5538
▁ब्लू	-11.5539
▁कापले	-11.5539
▁सर्वश्रेष्ठ	-11.554
▁नाडी	-11.554
▁निघतो	-11.5541
▁वाटेने	-11.5541
re	-11.5541
▁केदार	-11.5543
▁आत्म्याच्या	-11.5545
▁इको	-11.5545
▁पुरवणार	-11.5547
▁शोधणे	-11.5547
वं	-11.5549
▁अंडी	-11.5549
▁घाली	-11.555
▁धनी	-11.5552
▁त्यावरुन	-11.5557
▁टाईम	-11.5559
▁कामगारांसाठी	-11.5564
▁गुंतवणुकीचे	-11.5565
▁चालतो	-11.5566
ेर	-11.5567
्व	-11.5567
▁ज्यांच्यावर	-11.5569
▁P	-11.5569
▁मुद्यावर	-11.557
▁भरण्यासाठी	-11.5571
डॉ	-11.5572
▁उत्साहात	-11.5572
▁महामंडळाने	-11.5572
Se	-11.5575
▁गंगेच्या	-11.5575
▁रोकड	-11.5576
▁आताच	-11.5576
ुती	-11.5578
▁काप	-11.5579
▁रावत	-11.5585
▁115	-11.5585
▁शहराची	-11.5587
▁करदात्यां	-11.5588
▁निसट	-11.5589
▁पुढेही	-11.559
▁यादृष्टीने	-11.559
▁तुझ्याजवळ	-11.559
द्	-11.5593
▁कृत्यां	-11.5595
▁कराव्या	-11.5597
▁घालणार	-11.5597
▁सांगितलेले	-11.56
▁छातीत	-11.5602
04	-11.5602
▁वाजल्या	-11.5609
▁शीत	-11.5613
▁ऐकतील	-11.5614
▁दिल्यामुळे	-11.5615
▁सां	-11.5616
▁पाहील	-11.5616
पुत्र	-11.5617
▁परिस्थितीमध्ये	-11.5617
▁आजारापासून	-11.5618
▁शिं	-11.5621
▁व्यावसायिकांना	-11.5626
▁आजारांवर	-11.5628
▁पाहण्यासारख	-11.5629
▁पिढ्या	-11.5632
▁कंबोडिया	-11.5633
▁समस्यांना	-11.5635
▁मुक	-11.5636
▁संस्थेचा	-11.5638
▁मळा	-11.5641
निशंक	-11.5642
लहान	-11.5642
▁प्रजे	-11.5643
▁नगराचा	-11.5645
णि	-11.5648
क्या	-11.5653
▁उपासने	-11.5653
▁जवळचा	-11.5658
▁खांद्यावर	-11.5661
▁गोष्टीत	-11.5662
▁एनिमा	-11.5662
▁दारू	-11.5665
ेथ	-11.5667
▁समुहा	-11.5668
▁अभिनेत्री	-11.5671
▁ट्र	-11.5672
▁गार	-11.5674
▁विमानाने	-11.5675
▁आच्छादन	-11.5676
IP	-11.5678
▁सोबतच	-11.5679
फळ	-11.5681
▁नाहीसा	-11.5684
▁शहरांच्या	-11.5685
▁खडका	-11.5685
▁स्वतःचा	-11.5696
▁भर्ती	-11.57
▁मिळव	-11.57
▁अफ्रिके	-11.5703
▁भारतीयाला	-11.5704
▁हिंसा	-11.5706
▁कॅल्शियम	-11.5707
▁कौन्सिल	-11.5707
▁मशुल्लाम	-11.5707
▁विराजमान	-11.5707
▁पावडर	-11.5707
▁शारिरीक	-11.5707
▁आंबट	-11.5707
▁प्राप्ती	-11.5707
▁उत्पादित	-11.5708
▁विवेक	-11.5708
▁मिझोराम	-11.5708
▁विचारविनिमय	-11.5708
▁आकलन	-11.5708
▁नेट	-11.5709
▁ईशान्येकडच्या	-11.5709
▁टेली	-11.5709
▁मसाले	-11.571
▁रिझर्व	-11.5711
▁मद्रास	-11.5711
▁शिक्षित	-11.5712
▁बा	-11.5713
▁साठवण	-11.5714
▁वरदान	-11.5714
▁आजारांना	-11.5716
▁क्रीम	-11.5716
▁देशभक्ती	-11.5717
्री	-11.5717
च्य	-11.5718
▁बेड	-11.5718
▁चित्रपटाची	-11.572
▁आनंददायक	-11.5721
▁जीवंत	-11.5723
▁थांबवले	-11.5724
▁संशोधकांनी	-11.5724
▁शासनाच्या	-11.5724
▁पुरातन	-11.5726
▁जीवनाचे	-11.5732
▁करणार्‍या	-11.5732
▁आफ्रिक	-11.5732
▁दुर्घटने	-11.5732
▁हदाद	-11.5734
▁राहावी	-11.5736
▁ग्रेट	-11.5737
▁कैसरा	-11.5738
▁माणसांचा	-11.5741
▁उपक्रमाचे	-11.5744
▁वाढीस	-11.5744
▁करिता	-11.5747
▁जितका	-11.575
▁भरणे	-11.575
▁मांडी	-11.575
▁एकेकाळ	-11.5752
▁अटीं	-11.5752
काश्मीरमध्ये	-11.5755
▁लॉकडाऊनमुळे	-11.5759
बाजूला	-11.576
▁न्यायवैद्यक	-11.5762
▁हद्द	-11.5767
▁संभाषण	-11.5774
▁अंतराचे	-11.5783
▁वास्तवात	-11.5783
▁ट	-11.5788
▁वाजवत	-11.5789
▁सोळा	-11.5792
▁योवाशने	-11.5795
▁चुकीची	-11.5798
▁चित्रपटासाठी	-11.5799
मोहन	-11.5802
▁आस	-11.5803
▁आशियात	-11.5803
▁मार्गांवर	-11.581
▁त्वचेच	-11.581
▁दुख	-11.5815
▁एकाला	-11.5821
स्वच्छता	-11.5823
▁नेतील	-11.5824
च्यावतीने	-11.5825
ोल	-11.5827
▁शेक	-11.5828
▁घेवाण	-11.5834
▁उघडे	-11.5835
डिक	-11.5836
▁शत्रु	-11.5839
▁71	-11.5839
▁भागीदारीत	-11.5841
▁वृध्दी	-11.5841
▁गाजव	-11.5844
चक्र	-11.5849
▁पीत	-11.5851
▁थांब	-11.5852
▁तांब्या	-11.5852
▁रांगा	-11.5852
▁अनि	-11.5855
▁गळ्या	-11.5856
▁क्षय	-11.5859
्ती	-11.5862
▁गोष्टीं	-11.5863
▁शक्तीने	-11.5872
▁गावांत	-11.5874
60	-11.5874
ीया	-11.5879
▁वाणिज्यिक	-11.5882
वेळ	-11.5884
▁हायड्रोकार्बन	-11.5885
▁प्रासंगिक	-11.5886
▁कृमी	-11.5888
▁गेर्षोन	-11.5888
▁पुलवामा	-11.5888
▁भीषण	-11.5888
▁सरचिटणीस	-11.5888
▁साबरमती	-11.5888
▁हिंसे	-11.5888
▁मागितली	-11.5888
▁सागरमाला	-11.5888
▁इच्छुक	-11.5888
▁गंगवार	-11.5889
▁नावीन्यपूर्ण	-11.5889
▁लेखापरीक्षण	-11.5889
▁करावीत	-11.5889
▁हाँगकाँग	-11.5889
▁श्रीकृष्ण	-11.5889
▁नामकरण	-11.5889
▁सुयोग्य	-11.5889
▁धर्माच्या	-11.589
▁गुरुद्वारा	-11.589
▁पुरावे	-11.589
▁प्रकरणां	-11.5891
▁व्रण	-11.5892
पिण्या	-11.5892
▁पाठवण्या	-11.5892
▁खजिना	-11.5893
▁हमाथ	-11.5893
▁स्कूल	-11.5894
▁बसलो	-11.5895
▁पुष्प	-11.5895
65	-11.5896
▁निळ्या	-11.5897
▁ठरतो	-11.5897
▁निमेशन	-11.5898
▁लॉजिस्टिक्स	-11.59
▁बनतो	-11.5901
▁बाटलीत	-11.5901
▁तंदुरुस्ती	-11.5901
▁आमोन	-11.5901
▁संबध	-11.5902
▁टेस्ट	-11.5904
▁आढळली	-11.5904
▁जेरह	-11.5905
▁शेखर	-11.5906
▁अध	-11.5908
▁वंदे	-11.5908
▁साय	-11.5911
▁चुकून	-11.5912
▁माहितीचा	-11.5912
▁रिती	-11.5913
▁बुक	-11.5913
▁जगण्यासाठी	-11.5914
▁वाढवत	-11.5916
कु	-11.5916
▁पोहचल्या	-11.5919
▁तिबेट	-11.5921
▁चषक	-11.5923
ंसारखे	-11.5923
▁जगेल	-11.5923
▁सरकारकडे	-11.5924
▁मेजावर	-11.5925
▁कृपेने	-11.5926
▁घालण्यात	-11.5934
ांस	-11.5936
कोट	-11.5937
▁दांडी	-11.5937
▁फास	-11.5938
विरोधी	-11.5939
▁अनुसार	-11.594
▁निश्चितपणे	-11.5941
▁शिक्षकांनी	-11.5942
▁सुंदरता	-11.5947
▁अंगणा	-11.5948
▁02	-11.5953
ीकृत	-11.5953
▁होवोत	-11.5955
कळावे	-11.5955
प्रिय	-11.5955
▁फायद्या	-11.5958
▁धोरणाचे	-11.5963
ांशिवाय	-11.5963
▁भेटला	-11.5965
▁३२	-11.5966
टे	-11.5967
▁ख्रिस्ती	-11.5975
ळा	-11.5975
९	-11.5978
सागर	-11.5982
▁रूपयां	-11.5985
गण्य	-11.599
▁अधिकाऱ्यांचे	-11.5991
▁सोन	-11.5993
▁ओम	-11.5993
▁अभियाना	-11.5994
▁राष्ट्रात	-11.5995
गिरी	-11.5995
96	-11.6001
▁वारस	-11.6001
▁गु	-11.6012
प्रगती	-11.6013
▁मल्टी	-11.6015
▁नीळ्य	-11.6017
▁थांबव	-11.6018
▁स्वच्छतागृह	-11.602
दृश्य	-11.6022
▁उपासमारी	-11.6025
42	-11.6032
▁मंत्रालये	-11.6032
७	-11.6032
▁आरोग्याला	-11.6034
▁खरोखरीच	-11.6036
▁एकेक	-11.6038
▁कोष	-11.6043
▁आयुध	-11.6043
▁उद्यम	-11.6045
▁प्रणालीचा	-11.6045
वली	-11.6045
▁प्रसारमाध्यमां	-11.6048
▁मंत्रीमंडळा	-11.605
▁नेत्यांचे	-11.605
▁येवो	-11.6053
▁ऑक्टोबरला	-11.6053
फा	-11.6053
▁मातृ	-11.6057
▁स्वातंत्र्यलढ	-11.6059
▁हिच्या	-11.6063
ाप्रति	-11.6063
▁खाता	-11.6063
▁स्टेडियम	-11.6064
थे	-11.6065
▁नो	-11.6071
▁अनियमित	-11.6072
▁चॉकलेट	-11.6074
▁तांबड	-11.6074
▁परीक्षक	-11.6074
▁प्रत्युत्तर	-11.6074
▁शतकानुशतक	-11.6074
▁छत्रपती	-11.6074
▁बन्यामिन	-11.6074
▁अम्नोन	-11.6074
▁पूरस्थिती	-11.6074
▁वॉर्ड	-11.6074
▁द्यायचा	-11.6074
▁पोहोचवणे	-11.6074
▁बदाम	-11.6074
▁एकात्मता	-11.6074
▁जयंतीदिनी	-11.6074
▁समकालीन	-11.6074
▁काढत	-11.6074
▁ऑप्टिकल	-11.6075
▁निगा	-11.6075
▁पुरवेल	-11.6075
▁मेंदी	-11.6075
▁वाढवायला	-11.6076
▁देण्याबरोबरच	-11.6076
▁देखरेखीखाली	-11.6076
▁कटीबद्धता	-11.6076
▁बाबेलोन	-11.6077
▁सीदोन	-11.6077
▁उपक्रमांतर्गत	-11.6077
▁वेस	-11.6078
▁रोखणे	-11.6078
▁वित्तमंत्री	-11.6079
▁हाताळणी	-11.6079
▁अपयश	-11.6079
▁सृष्टी	-11.6079
▁मिळो	-11.608
▁साऱ्या	-11.608
▁पद्म	-11.608
▁विक्रेते	-11.6081
▁औष्णिक	-11.6082
▁ऐकण्या	-11.6083
१०	-11.6084
▁सापळा	-11.6085
▁रामोथ	-11.6085
▁अखेरीस	-11.6087
▁हॉटेल्स	-11.6088
▁विचारांचे	-11.6089
▁चालली	-11.609
ार्थ	-11.6093
▁नारळाचे	-11.6093
▁अद्ययावतीकरण	-11.6093
▁सुरकुत्या	-11.6093
▁लक्ष्मी	-11.6094
▁इच्छिणाऱ्या	-11.6096
▁विद्यार्थ्यांची	-11.6097
▁कोपऱ्या	-11.6099
▁रुज	-11.61
▁निर्मात्या	-11.61
▁व्यक्तींसाठी	-11.6102
▁कारागिरांना	-11.6102
▁एकमेकांवर	-11.6103
▁यांच्यासमवेत	-11.6105
▁वाचन	-11.6105
▁लाग	-11.6105
▁बसत	-11.6107
▁पकडण्या	-11.6109
▁बदलण्यासाठी	-11.6109
▁चीनच्या	-11.6109
▁पाळतो	-11.6111
▁इं	-11.6111
▁दाखवतो	-11.6112
▁मासेया	-11.6112
▁96	-11.6114
▁गर्भधारणा	-11.6114
49	-11.6114
▁मानवतावाद	-11.6115
▁सोसाव	-11.6116
ाऐवजी	-11.6116
पन्न	-11.6118
▁वाहणार	-11.6119
्यांच्या	-11.6119
▁खेच	-11.612
▁वेळेची	-11.6123
▁मनावर	-11.6123
▁सोडवले	-11.6125
▁दव	-11.6128
▁पाठवत	-11.6128
▁माध्यमांना	-11.6129
▁फेक	-11.613
▁ऊ	-11.6133
▁फाटक	-11.6136
▁सुरवाती	-11.6136
▁आल्याबद्दल	-11.6136
▁दुष्कृत्यां	-11.6137
▁विधेयकात	-11.6137
▁तरीसुद्धा	-11.6137
55	-11.6142
ंतील	-11.6144
▁अंगणात	-11.6147
मुख्यमंत्र्यांनी	-11.6148
▁गावातल्या	-11.6151
▁बनवणार	-11.6153
▁सेवांसाठी	-11.6153
▁अहोरा	-11.6153
▁सोडल्या	-11.6156
▁मुलां	-11.6156
▁कर्णा	-11.6162
▁योसेफाला	-11.6162
▁आदीं	-11.6163
२००	-11.6164
▁पॅन	-11.6168
▁ऐप	-11.6173
▁खर्चून	-11.6179
्याचा	-11.6179
▁कीट	-11.6183
मोठे	-11.6184
▁भागाचा	-11.6186
ूल	-11.6187
▁कंबर	-11.6188
डब्ल्यू	-11.619
▁धोरणाला	-11.6192
▁आजारावर	-11.6192
दारी	-11.6197
उत्तर	-11.6198
▁युवकांची	-11.6199
▁कार्यक्रमामुळे	-11.6202
▁पोटी	-11.6204
▁नेल्या	-11.6207
सारखीच	-11.6213
▁सू	-11.6216
▁ह्याप्रमाणे	-11.6224
▁अहरोनाच्या	-11.6226
▁आशीर्वादाने	-11.6229
वार्षिक	-11.6236
▁देयक	-11.6242
लेस	-11.6246
▁फौज	-11.6247
▁वातानुकूल	-11.625
▁लोकर	-11.6251
▁03	-11.6252
▁भव	-11.6257
▁पाडण्या	-11.6257
दानंद	-11.6259
▁पटना	-11.6262
▁न्याहारी	-11.6262
▁मुबलक	-11.6262
▁विधायक	-11.6262
▁श्रद्धे	-11.6262
▁मादक	-11.6262
▁सोलापूर	-11.6262
▁द्राक्षमळे	-11.6262
▁वर्षानुवर्ष	-11.6262
▁अवसाद	-11.6262
▁ग्रिड	-11.6262
▁ठाकूर	-11.6262
▁बिर्ला	-11.6262
▁युनियन	-11.6262
▁हसीना	-11.6262
▁पाचारण	-11.6262
▁निम्न	-11.6263
▁पूर्वांचल	-11.6263
▁शिक्षणात	-11.6263
▁मातृत्व	-11.6263
▁लक्षद्वीप	-11.6263
▁ऑक्सीजन	-11.6263
▁सजीव	-11.6263
▁रेशम	-11.6263
▁बटाटा	-11.6264
▁असहाय्य	-11.6264
▁समुपदेशन	-11.6264
▁दहशतवादाविरोधात	-11.6264
▁तिसर्या	-11.6264
▁शेवटचा	-11.6264
▁मृत्युदर	-11.6265
▁पूर्वोत्तर	-11.6265
▁म्हैसूर	-11.6265
▁प्रतिनिधीत्व	-11.6266
▁जीएसटीआर	-11.6266
▁अधिपती	-11.6266
▁गरजेपेक्षा	-11.6266
▁कॅम्प	-11.6266
▁फुलां	-11.6267
▁कनिष्ठ	-11.6267
▁प्रभूला	-11.6267
▁पट्टा	-11.6267
▁मधुर	-11.6267
▁काढीन	-11.6268
▁नसावे	-11.6268
▁पारेषण	-11.6269
▁वेशीजवळ	-11.6269
▁चित्रीकरण	-11.6269
▁जव	-11.627
▁ज्याप्रकार	-11.627
▁प्रतिदिन	-11.627
▁अपंग	-11.627
▁कर्तव्ये	-11.627
▁भाले	-11.627
▁खबर	-11.6272
▁साधना	-11.6273
▁मेळ्या	-11.6274
▁झगा	-11.6276
▁कॉमन	-11.6278
▁जायचा	-11.6279
लेट	-11.628
▁2.0	-11.628
▁मारतात	-11.6281
▁अब्राम	-11.6281
▁निवडला	-11.6283
▁बनवत	-11.6286
▁मानसिकता	-11.6288
▁वाढवला	-11.629
▁करारानुसार	-11.629
▁पूर्वक	-11.6291
▁असल्यावर	-11.6291
▁आफ्रिकेतील	-11.6292
▁दिवसांची	-11.6295
▁रबर	-11.6296
▁राष्ट्रसंघाच्या	-11.6299
▁उपहारगृह	-11.6299
▁जाणवते	-11.6305
▁वधस्तंभ	-11.6305
77	-11.6305
▁व्याख्यान	-11.6305
▁स्पर्धेसाठी	-11.6307
▁दुष्टपणा	-11.6307
▁नै	-11.6308
▁कश्मीर	-11.6313
▁उद्योगांनी	-11.6318
▁जाळण्या	-11.6319
▁अंगण	-11.6321
▁स्वर	-11.6323
▁आल्यास	-11.6323
▁इच्छिता	-11.6323
▁नावाला	-11.6324
▁इथला	-11.6326
▁किल्ल्यात	-11.6327
▁रुग्णालयाच्या	-11.6332
▁विश्वविद्यालय	-11.6332
▁वैज्ञानिकांनी	-11.6336
▁कांत	-11.6336
▁दिवसापर्यंत	-11.6337
▁गटांनी	-11.6339
▁वनौषधी	-11.6339
▁निकषां	-11.634
▁मुलांवर	-11.6344
▁ध्यानात	-11.6344
▁गाढवी	-11.6353
▁भूतकाळ	-11.6356
▁बनल्या	-11.6361
▁i	-11.6364
▁राखला	-11.6364
▁जपण्या	-11.6365
▁समृध्दी	-11.6367
▁प्रश्नांना	-11.6371
▁पोचले	-11.6374
▁नामी	-11.6374
▁उघड्या	-11.6375
▁दाखवा	-11.6375
▁श्रीलंकेत	-11.6376
74	-11.6377
दीप	-11.6378
▁अशाप्रकारच	-11.6379
▁नाकात	-11.6382
▁कशाला	-11.6384
▁पोहोचल्या	-11.6387
सार्वजनिक	-11.639
डिजिटल	-11.639
▁सूर	-11.6392
बेटी	-11.6399
▁4.	-11.6401
▁आदराने	-11.6401
▁वर्गात	-11.6408
विना	-11.6408
▁आवळ्या	-11.6408
ाविरुध्द	-11.6412
▁काढल्या	-11.6416
▁अफगाण	-11.6418
▁आग्रही	-11.6418
▁बक्षिस	-11.6422
▁नीच	-11.6424
▁शत्रूंच्या	-11.6427
▁तशा	-11.6427
▁मोजल	-11.6431
▁विचारा	-11.6434
जीवन	-11.6435
▁दार्जिलिंग	-11.6438
▁लोकसहभाग	-11.6441
▁टाळता	-11.6449
▁शिकू	-11.645
▁ट्वीट	-11.6452
उल	-11.6454
▁पदे	-11.6454
▁पद्धतीं	-11.6454
▁अर्तहशश्त	-11.6455
▁चामडे	-11.6455
▁ताळमेळ	-11.6455
▁धबधबे	-11.6455
▁मेंढी	-11.6455
▁चीजवस्तू	-11.6455
▁डेअरी	-11.6455
▁तीमथ्य	-11.6455
▁पहारेकरी	-11.6455
▁पौराणिक	-11.6455
▁मनयारा	-11.6455
▁वडोदरा	-11.6455
▁सफारी	-11.6455
▁यमुना	-11.6455
ंकय्या	-11.6455
▁निवारा	-11.6455
▁अग्रवाल	-11.6455
▁कोकऱ्या	-11.6455
▁समप्रमाणात	-11.6455
▁योगायोग	-11.6455
▁बेघर	-11.6455
▁योएल	-11.6455
▁क्लिनिकल	-11.6456
▁खाईल	-11.6456
▁दरमहा	-11.6456
▁भत्ता	-11.6456
▁विश्वस्त	-11.6457
▁अनिश्चितता	-11.6458
▁फिचर	-11.6459
▁भूषण	-11.646
▁करारांतर्गत	-11.6461
▁तात्पुरत्या	-11.6462
▁संतुष्ट	-11.6462
▁एआयआयबी	-11.6463
▁वाढण्यास	-11.6463
▁वापरामुळे	-11.6464
▁घाई	-11.6464
▁बीएसएनएल	-11.6464
▁अपाय	-11.6464
ण्यायोग्य	-11.6465
07	-11.6465
गण	-11.6465
▁शिक्का	-11.6465
▁शकली	-11.6466
▁ब्रँड	-11.6467
▁स्विकार	-11.6467
▁दाखविला	-11.6467
▁घराला	-11.6469
▁येवून	-11.647
▁कर्जदार	-11.6471
▁राष्ट्रांची	-11.6471
▁घालाय	-11.6471
▁वधू	-11.6473
▁शिकारी	-11.6474
▁वेश्या	-11.6475
an	-11.6478
▁मंडी	-11.648
▁हंगामासाठी	-11.648
▁लाभार्थ्यांशी	-11.6481
▁काळानंतर	-11.6481
ोक	-11.6485
▁सुगम	-11.6489
ण्यापूर्वी	-11.6489
▁चालविण्या	-11.6491
▁तुझ्याविरुध्द	-11.6492
▁आप	-11.6494
▁जोडणारा	-11.6494
▁राबवल्या	-11.6494
▁मारतील	-11.65
▁वचनबद्धतेचा	-11.6502
▁रुपाने	-11.6503
▁चालतात	-11.6504
धारक	-11.6505
▁पाळला	-11.6507
▁कुटुंबिय	-11.6507
▁सुरक्षाविषयक	-11.6508
▁04	-11.6509
▁गरिब	-11.6512
▁महिलेला	-11.6512
▁त्यांस	-11.6514
▁आरक्ष	-11.6516
▁गमावले	-11.6518
▁भरते	-11.6522
माय	-11.6524
▁मेल	-11.6526
▁वर्गाच्या	-11.6528
▁उत्पादनांसाठी	-11.6531
▁बनवलेल	-11.6539
▁काढण्याचा	-11.654
▁बालके	-11.6546
▁स्थानकां	-11.655
,”	-11.655
काळात	-11.655
▁सूर्यास्त	-11.6552
▁जोखड	-11.6552
▁डावा	-11.6552
▁ज्ञानाची	-11.6552
▁कोणाही	-11.6556
्यू	-11.656
▁निधीसाठी	-11.656
र्ट	-11.656
▁भांड्या	-11.6565
▁गणित	-11.6567
▁सिद्धी	-11.6567
▁उभारत	-11.6571
▁जितक्या	-11.6573
▁उपकरणांच्या	-11.6585
▁सेन	-11.6585
▁आपल्याशी	-11.6589
▁घरीच	-11.6591
▁एप्रिलला	-11.6593
▁लोकल	-11.6594
▁चित्रपटांचे	-11.6595
▁स्टँड	-11.6596
31	-11.6596
▁पडद	-11.6598
समान	-11.6601
▁कंपन्यांचे	-11.6602
▁उपस	-11.6602
▁घडविण्या	-11.6603
▁मिल	-11.6604
▁घुस	-11.6606
▁उपक्रमाच्या	-11.6607
▁शेर	-11.6607
तेमुळे	-11.6608
▁रूथ	-11.6609
ाज	-11.6613
▁उणीव	-11.6615
▁अतिदक्षत	-11.6617
▁अटलजीं	-11.6618
▁झोपून	-11.6619
▁चंद्रा	-11.6621
▁सूर्योदय	-11.6622
▁भांड्यात	-11.6622
▁खंबीरपण	-11.6624
▁भिजव	-11.6625
▁प्रारंभी	-11.6626
▁येण्यापूर्वी	-11.6627
▁महानगरपालिके	-11.6627
िले	-11.6629
रिक	-11.6635
▁खिळले	-11.6636
▁गुंतवणुकीचा	-11.6638
▁सार्वभौमत्व	-11.6639
▁राष्ट्रां	-11.6639
▁क्षमतेने	-11.6641
▁सुज्ञ	-11.6643
▁ठरवू	-11.6645
▁जावू	-11.6646
▁पदरी	-11.6647
▁स्वच्छतेचे	-11.6648
▁लागवडी	-11.6648
▁हॉटस्पॉट	-11.6651
▁इब्राह	-11.6651
▁गोलमेज	-11.6651
▁डाऊनलोड	-11.6651
▁मॅनेजमेंट	-11.6651
▁स्वित्झर्लंड	-11.6651
▁अहिंसा	-11.6651
▁उध्दार	-11.6651
▁नेतन्याहू	-11.6651
▁मसाज	-11.6651
▁नोंदी	-11.6651
▁मोतीबिंदू	-11.6651
▁बहुमत	-11.6651
▁फिरायला	-11.6652
▁पोस्टमन	-11.6653
▁फ्लू	-11.6653
▁हरयाणा	-11.6653
▁हॉकी	-11.6653
▁सिस्टम	-11.6654
▁अज्ञान	-11.6654
▁सदना	-11.6655
▁गुंतवणुकीत	-11.6655
▁नियंत्रक	-11.6655
▁पडलो	-11.6655
▁इस्त्रायल	-11.6655
▁कैद्यांना	-11.6656
▁धरा	-11.6657
यी	-11.6657
▁जिओ	-11.6658
▁दर्या	-11.6659
▁मोबिलिटी	-11.666
▁किल्ल्यावर	-11.6661
▁फायद्यासाठी	-11.6662
▁लढाया	-11.6663
▁गळ्यात	-11.6663
▁व्यय	-11.6663
▁समानते	-11.6664
▁भेटीत	-11.6664
80	-11.6664
▁एक्रोन	-11.6665
▁पॅरा	-11.6665
▁खुर्च्या	-11.6665
▁सांगणे	-11.6665
▁ठेवायचे	-11.6666
▁निर्मात्यांना	-11.6666
▁विजेत्यांना	-11.6667
रू	-11.6669
▁मिळाल्यामुळे	-11.6669
▁कॉ	-11.667
▁गावा	-11.6671
▁प्रकरणांमध्ये	-11.6673
▁मुगल	-11.6674
▁निधनामुळे	-11.6674
▁खात्यां	-11.6675
▁व्यक्तीचा	-11.6675
काळी	-11.6678
▁घालतो	-11.668
▁बुंदेलखंड	-11.6681
▁जोरावर	-11.6682
▁कपट	-11.6682
▁आनंददाय	-11.6684
▁योगदानाबद्दल	-11.6686
▁भरण्याची	-11.6687
▁n	-11.669
▁शहरांत	-11.6694
▁गया	-11.6695
▁पडण्याची	-11.6699
▁रंगात	-11.6699
▁चिखल	-11.67
▁भारतीयांसाठी	-11.6701
▁चाके	-11.6702
▁यहुदाच्या	-11.6704
▁उपचारात	-11.6704
▁सर्वांनाच	-11.6707
▁मूर्त	-11.6707
▁मैत्रीचे	-11.6708
▁लावता	-11.6708
▁PM	-11.6709
▁विलास	-11.6711
▁सांध्यां	-11.6714
▁एकप्रकारे	-11.6716
▁मंदी	-11.6719
▁प्रशासनात	-11.6724
▁नामांक	-11.6724
ध्द	-11.6726
▁भूमीतून	-11.6726
▁होताच	-11.6729
▁विश्वासाचे	-11.6729
▁याअंतर्गत	-11.6733
ीर्ण	-11.6733
पदी	-11.6735
▁केल्याची	-11.6735
▁कुटुंबे	-11.6736
▁राहातो	-11.6736
पल्ली	-11.6737
ीस	-11.6739
▁उघडी	-11.6739
▁राजवाड्या	-11.674
▁यावरुन	-11.6741
▁वाहनांची	-11.6742
▁वाटतात	-11.6743
▁घाबरत	-11.6743
▁बोटे	-11.6743
▁वाहते	-11.6743
▁चालवले	-11.6747
▁चिन्हे	-11.6748
▁गृहमंत्रालय	-11.6749
▁रेल्वेगाड्या	-11.6753
▁अवकाशात	-11.6754
जेन	-11.6755
▁मास	-11.6755
▁रागावले	-11.6758
▁शाखां	-11.6764
▁पत्रिका	-11.6767
▁निवडी	-11.677
▁प्रश्नांची	-11.6774
▁राज्याने	-11.6774
सो	-11.6775
▁डॉक्टरांच्या	-11.6782
▁घेरलेल	-11.6784
रशिया	-11.6788
▁घडवत	-11.6791
पुरी	-11.6791
▁मिद्यान	-11.6796
सुरक्षा	-11.6797
कोटी	-11.6799
▁केरळमध्ये	-11.6799
नवीन	-11.6805
अर्थी	-11.6805
▁वाहनां	-11.6807
▁जीवनामध्ये	-11.6807
45	-11.6808
67	-11.6809
▁खर	-11.6812
▁750	-11.6815
▁खातील	-11.6815
▁प्रशिक्षणासाठी	-11.6816
▁वसाहतवाद	-11.682
पो	-11.682
800	-11.6821
▁विचारू	-11.6823
▁नौदलाचे	-11.6823
▁बऱ्या	-11.6824
▁दोरी	-11.6831
▁निर्	-11.6834
▁लाबान	-11.6841
▁घालता	-11.6842
▁नेऊ	-11.6844
ात्पर	-11.6845
▁मधले	-11.6846
▁वर्षामध्ये	-11.6848
▁दारापा	-11.6849
▁जिवा	-11.6849
▁ट्रान्स	-11.6851
▁दलाला	-11.6851
▁कनेक्शन	-11.6851
▁तर्कसंगत	-11.6851
▁तुइया	-11.6851
▁नोंव्हेबर	-11.6851
▁मूतखडा	-11.6851
▁उदरनिर्वाह	-11.6851
▁शिवार	-11.6851
▁नबाट	-11.6851
▁अंकुर	-11.6851
▁शलमोनाच्या	-11.6851
▁निमंत्रित	-11.6851
▁आधारस्तंभ	-11.6852
▁बढाई	-11.6852
▁कांस्य	-11.6852
▁मोहिमेअंतर्गत	-11.6852
▁पेट्रोकेमिकल्स	-11.6852
▁बजावेल	-11.6852
▁नाबाल	-11.6852
▁गडद	-11.6853
▁थट्टा	-11.6853
▁घनिष्ठ	-11.6853
▁कायद्याअंतर्गत	-11.6853
▁थोडासा	-11.6853
▁म्हटलं	-11.6854
▁वकील	-11.6854
▁सर्किट	-11.6854
▁पॅलेस्टाईन	-11.6854
▁मिठा	-11.6855
▁ठरवण्यात	-11.6855
▁मसुद्या	-11.6855
▁तब्ब	-11.6855
▁घराबाहेर	-11.6855
▁मुल्यांकन	-11.6855
▁बर	-11.6856
ारा	-11.6856
▁अस्वस्थता	-11.6856
▁अगरबत्ती	-11.6857
▁व्हायरस	-11.6857
▁व्हेंटीलेटर्स	-11.6857
▁साधे	-11.6857
▁वाळलेल	-11.6858
▁ढकल	-11.6859
▁दयाळूपणा	-11.686
▁पोहोचणार	-11.6861
▁ओळखणे	-11.6863
▁घोडा	-11.6863
▁जीईएम	-11.6864
▁एनसीईआरटी	-11.6866
▁यशाबद्दल	-11.6869
▁मेगा	-11.6871
▁मेजर	-11.6872
▁पहात	-11.6873
▁कांदा	-11.6879
▁सगळ्यांनी	-11.6879
.50	-11.6886
▁आणणाऱ्या	-11.6887
▁पाठवा	-11.6888
▁भेटलो	-11.6889
▁पिकांचे	-11.6889
▁गंगाळ	-11.689
▁कार्यकर्त्यां	-11.6891
▁बंगाली	-11.6895
▁पाळण्या	-11.6897
▁परीक्षेत	-11.6899
▁पुरवल्या	-11.69
▁स्नायु	-11.69
▁राष्ट	-11.6902
63	-11.6904
मार्गे	-11.6904
▁उतरला	-11.6907
▁कुटुंबियांच्या	-11.6907
▁पिढ्यां	-11.6907
▁लाखापेक्षा	-11.6911
▁पथ	-11.6913
▁उंचावण्या	-11.6913
▁लावलेल्या	-11.6915
▁माना	-11.6916
▁वापरणे	-11.6917
▁दिवसाची	-11.6924
▁नस	-11.6926
न्ड	-11.6927
▁कमरे	-11.6931
▁तेलाचा	-11.6933
▁उपायांचा	-11.6934
▁विभागातल्या	-11.6934
▁ग्रामपंचायती	-11.6934
16	-11.6936
▁डाक	-11.6941
▁93	-11.6941
▁विश्वसनीय	-11.6942
▁पोहच	-11.6943
▁सभागृहा	-11.6946
▁असावीत	-11.6948
▁जिल्हाधिकाऱ्यां	-11.6949
▁सजग	-11.695
▁काढाय	-11.6951
▁हिल	-11.6952
▁पाण्याला	-11.6954
▁युनिटी	-11.6962
▁हिंमत	-11.6962
▁वर्षांची	-11.6967
▁किमतीत	-11.6971
▁इस्रोच्या	-11.6972
▁अन्नाची	-11.6973
ांपर्यत	-11.6975
▁तरीदेखील	-11.6983
त्काळ	-11.6983
▁चम	-11.6993
▁(1	-11.6996
▁देवाविषयी	-11.6997
▁आपल्यातील	-11.7008
▁लाद	-11.7008
्क	-11.7012
▁भेटले	-11.7012
विचार	-11.7012
▁बहुधा	-11.7013
▁उठले	-11.7014
ासमवेत	-11.7015
▁समुद्रावर	-11.7017
▁वसूल	-11.7019
▁ढाल	-11.702
▁वर्षांनंतर	-11.7025
▁जीवनसत्व	-11.7025
▁तर्फे	-11.7026
▁कडू	-11.7027
▁हिराम	-11.7034
▁देशवासियां	-11.7038
▁चंद्रशेखर	-11.7038
िकोप	-11.7039
▁मोठमोठ्या	-11.704
▁पर्वतांवर	-11.7047
▁टॉवर	-11.7047
▁मानधन	-11.7051
▁बरौनी	-11.7055
▁बाभळी	-11.7055
▁महत्त्वाकांक्षी	-11.7055
▁हकीकत	-11.7055
▁दैनिक	-11.7055
▁भाष्य	-11.7055
▁तत्पूर्वी	-11.7055
▁पोटदुखी	-11.7055
▁उभारणे	-11.7055
▁अपचन	-11.7055
▁सिमेंट	-11.7056
▁अलर्जी	-11.7056
▁आप्त	-11.7056
▁युनानी	-11.7056
▁रडणे	-11.7056
▁जॉर्ज	-11.7056
▁पेपर	-11.7056
46	-11.7057
▁मजल्यावर	-11.7057
▁कार्यकर्ते	-11.7057
▁ऐच्छिक	-11.7057
▁दाखविली	-11.7057
▁सत्‍य	-11.7057
▁चाललो	-11.7058
▁व्हर्च्युअल	-11.7058
ायचा	-11.7059
▁परके	-11.7059
▁सोडविण्यासाठी	-11.7059
▁ठामपणे	-11.7059
▁देशमुख	-11.7059
क्सेना	-11.706
▁जॉन	-11.7061
▁डावीकडे	-11.7061
▁क्षार	-11.7062
▁83	-11.7062
▁लढण्यास	-11.7062
▁बोलेल	-11.7062
▁निर्माता	-11.7063
▁कादेश	-11.7064
▁उदयास	-11.7065
▁भारताबरोबर	-11.7066
▁आंतरिक	-11.7066
▁मंत्रीस्तरीय	-11.7066
▁शिकवण्या	-11.7066
▁मोरोक्को	-11.7066
व्यवस्था	-11.7066
▁हलका	-11.7067
▁दागिने	-11.707
▁राजस्थानमध्ये	-11.7072
▁निष्क्रिय	-11.7072
▁उपक्रमाची	-11.7073
▁स्त्रियांनी	-11.7074
▁जिल्ह्यांना	-11.7075
▁थांबते	-11.7075
▁पराग	-11.7078
ांचं	-11.7078
नु	-11.708
▁हितधारकां	-11.7084
▁प्रसाराला	-11.7086
िज	-11.7089
▁लहरी	-11.7089
▁उद्योजकांनी	-11.709
▁1,000	-11.709
▁खोटा	-11.7091
ासहित	-11.7091
ॉन	-11.7093
▁मोजले	-11.7093
▁मलम	-11.7096
▁उतरव	-11.7098
▁विथ	-11.7098
▁साधनांचा	-11.71
▁किंग	-11.7102
▁नारी	-11.7103
वितो	-11.7103
-2019	-11.7104
▁न्यायिक	-11.7107
▁बंधुभाव	-11.7114
▁गुन्ह्या	-11.7116
▁आणते	-11.7124
▁द्राक्षाच्या	-11.7125
▁खुन	-11.7127
▁खमीर	-11.7128
▁कार्यालयाच्या	-11.7129
▁उष्णते	-11.7129
▁दारु	-11.7131
▁विरूद्ध	-11.7132
शिक्षण	-11.7136
▁एकूणच	-11.7136
▁झटक्या	-11.7143
43	-11.7143
12	-11.7144
▁बिम	-11.7145
▁त्याच्यात	-11.7147
85	-11.7151
▁बोर	-11.7152
▁पृष्ठभाग	-11.7155
▁6000	-11.7158
▁बाबू	-11.716
▁गोग	-11.7165
▁बाबेलमध्ये	-11.7167
d	-11.7168
▁जिने	-11.7169
ii	-11.717
▁चौदाव	-11.717
▁आजारांमध्ये	-11.7171
▁विकासामध्ये	-11.7173
रूप	-11.7176
▁अगर	-11.7179
▁हळद	-11.7179
ांमार्फत	-11.718
ंध	-11.718
▁रागाव	-11.7183
▁नोव	-11.7184
▁घडविले	-11.7186
▁शास्त्री	-11.7187
▁नमुन्यां	-11.7187
▁संबंधांमध्ये	-11.7187
भूल	-11.7191
▁गेल्यानंतर	-11.7191
वर्ष	-11.7197
▁पाऊले	-11.7198
▁जर्मन	-11.7198
▁गुंतागुंती	-11.7198
▁दो	-11.72
पट्टी	-11.72
अशा	-11.7202
▁अबी	-11.7205
▁३००	-11.7208
27	-11.721
▁नळी	-11.7215
▁खच	-11.7216
▁विश्रामगृह	-11.7222
▁बाशा	-11.7229
▁घडू	-11.7229
▁160	-11.7229
▁रेकी	-11.7233
▁पिढीच्या	-11.7236
▁मंत्रालयातील	-11.7241
▁परिषदा	-11.7242
▁नामांकन	-11.7242
▁उठाव	-11.7245
▁छोट्याश	-11.7245
▁हरिद्वार	-11.7248
▁चर्चासत्रात	-11.7248
▁रोमांच	-11.7249
▁सभोवताल	-11.7251
▁दही	-11.7256
▁संपत	-11.726
▁नासरेथ	-11.7263
▁88	-11.7263
मेल	-11.7263
▁आजतागायत	-11.7263
▁जनगणना	-11.7263
▁हिंसक	-11.7263
▁उत्पत्ती	-11.7263
▁शॉपिंग	-11.7263
▁सेशेल्स	-11.7263
▁याबेश	-11.7263
▁संप्रेरक	-11.7263
▁पुरोहित	-11.7263
▁मसुरी	-11.7263
▁गुगल	-11.7263
▁नाबोथ	-11.7263
▁कोल्हापूर	-11.7263
▁पॉलिसी	-11.7263
▁तोबीया	-11.7263
▁नादाब	-11.7263
▁मर्जी	-11.7263
▁सीयोन	-11.7263
▁योबेल	-11.7264
▁साडेसात	-11.7264
▁हल्ले	-11.7264
▁शृंखला	-11.7264
▁वैशाली	-11.7264
▁पोहोचलो	-11.7264
▁शिकलो	-11.7264
▁सलमान	-11.7264
▁अत्तर	-11.7265
▁बाळगतो	-11.7265
▁सेबी	-11.7266
▁झळ	-11.7266
▁कार्गो	-11.7267
▁योद्धे	-11.7267
▁एज्युकेशन	-11.7267
▁नैनीताल	-11.7267
▁पंचवीस	-11.7267
▁दूरदूर	-11.7267
▁चिठ्ठ्या	-11.7267
▁बजाव	-11.7268
▁एलएनजी	-11.7268
▁देवच	-11.7268
▁जिथून	-11.7269
पन	-11.7272
▁सुदान	-11.7272
▁गरजे	-11.7273
▁वर्मा	-11.7273
▁कार्याला	-11.7273
▁अनलॉक	-11.7274
जळून	-11.7274
▁कुठून	-11.7275
▁शाखे	-11.7276
▁नावाखाली	-11.7276
▁विनय	-11.7277
▁गोष्टीवर	-11.728
ेन्द्र	-11.728
▁विभागांना	-11.7281
▁हस्तशिल्प	-11.7282
300	-11.7283
▁दूसर्या	-11.7284
्रो	-11.7285
▁08	-11.7288
▁तपासण्यासाठी	-11.7289
▁सूरत	-11.7291
▁देशासमोर	-11.7293
▁ताट	-11.7295
▁बंदरां	-11.7301
▁रक्षा	-11.7303
▁सुखकर	-11.7311
ुअल	-11.7317
▁मानू	-11.7317
▁संघटनांना	-11.7323
ताच	-11.7324
▁सेविका	-11.7325
▁त्‍या	-11.7327
फार	-11.7328
न्ना	-11.733
▁भाक	-11.7334
▁स्थळांना	-11.7334
▁भासत	-11.7337
▁भरत	-11.7337
ग्र	-11.7339
▁नदीजवळ	-11.734
▁भेटीवर	-11.7342
70	-11.7344
▁गमाव	-11.7344
गाऊ	-11.7345
▁मांडल्या	-11.7345
▁गांभीर्यान	-11.7346
▁सोहळ्याला	-11.7347
▁बनण्याची	-11.7348
▁ग्रॅ	-11.7348
▁वाढवणार	-11.735
वल	-11.735
▁जातीच्या	-11.7354
वर्ग	-11.7354
दृष्टीने	-11.7355
▁अंमलबजावणीत	-11.736
▁स्वयंरोजगार	-11.7365
▁तिमाहीत	-11.7366
▁हिरवळ	-11.7366
▁बोधकथा	-11.7367
09	-11.7371
▁रुग्णालयां	-11.7371
▁निर्भय	-11.7377
ण्याकरता	-11.7377
▁योगदिन	-11.7378
▁समुद्रकिनार्या	-11.738
▁जाई	-11.738
▁रागाने	-11.738
विलास	-11.7383
तली	-11.7385
▁पात	-11.7385
▁झोपण्या	-11.7386
▁बागा	-11.7388
▁अभियानासाठी	-11.7388
▁घनकच	-11.7389
▁पाट	-11.7389
▁एकीकरण	-11.7392
▁लाभो	-11.7395
बार	-11.74
▁खनिजे	-11.7402
▁नागा	-11.7403
▁जहाजावर	-11.741
शुल्क	-11.741
द्र	-11.7411
▁टाकणार	-11.7411
छोट्या	-11.7411
एमएसएमई	-11.7412
उपराष्ट्रपती	-11.7412
परिवर्तन	-11.7412
▁ऊर्जेचे	-11.7412
▁जागरुक	-11.7414
nica	-11.7416
▁पायर्या	-11.7418
▁आयाती	-11.7419
▁दूसर	-11.7419
िमा	-11.742
▁दिसाय	-11.7426
▁निर्मितीची	-11.7426
विण्यासाठी	-11.7427
▁बाय	-11.7427
▁इत्यादींच्या	-11.7428
▁४००	-11.7428
▁नवभारत	-11.7428
▁संधीत	-11.7431
▁विड	-11.7431
▁अनोख	-11.7436
▁इन्	-11.7437
▁घेणारा	-11.7437
▁तिरंग	-11.7438
▁मोहिमेला	-11.7438
▁छोटास	-11.7439
▁समुदायाचे	-11.744
▁भरतो	-11.7442
▁मिसरचे	-11.7442
▁नाच	-11.7444
.75	-11.7445
▁हिंदुस्थान	-11.7445
हजार	-11.7445
▁लोकशाहीचा	-11.7445
▁भिंतीच्या	-11.7455
▁करताच	-11.7457
▁घन	-11.7459
▁बेल	-11.7461
▁पाठवल्या	-11.7462
▁आल्याने	-11.7465
▁शोधले	-11.7466
▁विचारणा	-11.7468
▁थांबू	-11.7471
▁गंध	-11.7473
▁द्वि	-11.7473
▁कुल	-11.7473
▁विष्णु	-11.7475
▁गैरसमज	-11.7476
▁आकस्मिक	-11.7476
▁कंट्रोल	-11.7476
▁थरकाप	-11.7476
▁बेकायदेशीर	-11.7476
▁मुलेबाळे	-11.7476
▁व्यावहारिक	-11.7476
▁द्वीपक्षीय	-11.7476
▁अतिक्रमण	-11.7476
▁सहसचिव	-11.7476
▁भूमध्य	-11.7476
▁पत्रकारिता	-11.7476
▁तीर्थस्थळ	-11.7476
▁पोच	-11.7477
▁सुगी	-11.7477
▁बहुस्तरीय	-11.7477
▁वागलो	-11.7477
▁रॅली	-11.7477
▁संपल्यानंतर	-11.7477
▁सभ्यता	-11.7477
▁तीर्थक्षेत्र	-11.7477
▁उत्तरकाशी	-11.7478
▁भाजीपाला	-11.7478
▁रिफायनरी	-11.7478
▁सुतार	-11.7478
▁धाकट	-11.7479
▁खेद	-11.7479
▁चौथी	-11.7479
▁अधिग्रहण	-11.7479
▁रोजगारनिर्मिती	-11.748
▁टाकणे	-11.748
▁सूचनांनुसार	-11.748
▁आयसीटी	-11.748
▁प्रिन्स	-11.748
▁विश्वासार्हता	-11.7481
▁नवोन्मेश	-11.7481
▁जीवाश्म	-11.7481
▁आघात	-11.7481
▁आइस	-11.7481
▁मनाई	-11.7481
▁शीख	-11.7482
▁डिफेन्स	-11.7482
▁आयसीएआर	-11.7482
▁निष्काळजीपणा	-11.7482
वरचंद	-11.7483
▁समोरासमोर	-11.7483
▁उद	-11.7483
▁बर्लिन	-11.7484
▁वाढवण्यावर	-11.7485
▁कन्ये	-11.7486
▁वेदीजवळ	-11.7486
▁लोकांविरुद्ध	-11.7487
▁आवळा	-11.7488
▁ओपन	-11.7489
▁चित्रण	-11.7489
▁मुंडा	-11.7493
▁राष्‍ट्रीय	-11.7493
▁उपाययोजनांवर	-11.7493
▁पर्वतांच्या	-11.7494
▁मागणीनुसार	-11.7496
▁ह्यां	-11.7497
स्व	-11.7497
▁आवडतात	-11.7498
▁योजनेद्वारे	-11.7498
१५	-11.7499
▁दुर्लक्षित	-11.7502
▁पाटील	-11.7503
▁गाळ	-11.7505
▁प्रदेशमध्ये	-11.7506
▁पाळतात	-11.7507
57	-11.7511
▁उभारणीत	-11.7511
▁तप	-11.7512
▁जमीनी	-11.7515
त्य	-11.7518
▁क्ष	-11.7519
▁कुटुंबाची	-11.7519
▁मोहिमेसाठी	-11.7524
▁ज्यू	-11.7524
▁उठवि	-11.753
ांजवळ	-11.753
▁विद्या	-11.7534
▁येईना	-11.7542
▁बोकड	-11.7545
▁वाढीचा	-11.7549
▁घडव	-11.755
▁बोटी	-11.755
▁लावणार	-11.7554
▁कोपऱ्यात	-11.7556
▁प्रकल्पांवर	-11.7557
वरही	-11.7557
▁पोहोच	-11.7559
▁उपक्रमामुळे	-11.756
▁क्षेत्रांसाठी	-11.7565
▁बनवल्या	-11.7569
▁नंदा	-11.7569
▁अॅसिड	-11.7571
▁चिरड	-11.7572
▁चौदा	-11.7572
▁शोष	-11.758
56	-11.7586
▁कसले	-11.7586
द्ध	-11.7587
▁व्यक्तींचे	-11.7588
▁वाळवंटातून	-11.7591
▁निवडणुकां	-11.7592
▁डोळा	-11.7593
▁हत्यार	-11.7599
▁उन्हा	-11.76
▁कारणाने	-11.76
गंगा	-11.7601
▁आईवडिलां	-11.7604
▁भक्तां	-11.7605
▁हृदयाला	-11.7605
▁आधीपासून	-11.7605
जिक	-11.7608
▁उद्यापासून	-11.7609
▁अर्थशास्त्र	-11.761
▁राहिलात	-11.7617
▁ग्रीष्म	-11.7621
▁नसल्या	-11.7623
▁श्रद्धाळू	-11.7624
-2018	-11.7626
▁त्याचाच	-11.7628
▁उत्पादनाचे	-11.7629
आम्ही	-11.7629
दिल्ली	-11.7629
अनेक	-11.7629
▁मदर	-11.7636
PC	-11.7637
शहरी	-11.7638
▁वस्त्या	-11.7639
▁अमिराती	-11.764
▁कंप	-11.7642
वीर	-11.7645
▁भागाची	-11.7646
▁भूमीला	-11.7646
रोधक	-11.7649
▁कॅ	-11.7652
▁तागाच	-11.7653
▁कोच	-11.7655
▁परवडण्याजोग	-11.7659
▁ओळखपत्र	-11.7662
▁आम्हांस	-11.7662
▁सहकार्यामुळे	-11.7666
▁उन्हाळ्या	-11.7667
ामागे	-11.767
▁जिच्या	-11.7672
न्त	-11.7677
▁लोकरी	-11.7678
78	-11.768
▁घोष	-11.7685
▁मॉड्यूल	-11.7691
▁कुटूंब	-11.7692
▁सार्वभौम	-11.7693
▁पुनरूच्चार	-11.7693
▁प्रस्तुत	-11.7693
▁महापालिका	-11.7693
▁समाविष्‍ट	-11.7693
▁अभिनेता	-11.7693
▁बथशेबा	-11.7693
▁रिमोट	-11.7693
▁धास्ती	-11.7693
▁निराधार	-11.7693
▁रविशंकर	-11.7693
▁सुसूत्रीकरण	-11.7693
▁अहीमास	-11.7693
▁राब्बा	-11.7693
▁आखीश	-11.7693
▁पॉईंट	-11.7694
▁पेंशन	-11.7694
▁अपंगत्व	-11.7694
▁निगम	-11.7694
▁जादू	-11.7694
▁संशोधनात	-11.7694
▁प्रकोप	-11.7694
▁प्रखर	-11.7694
▁अमासा	-11.7694
▁पावलं	-11.7694
▁असायचे	-11.7694
▁संघराज्य	-11.7694
हू	-11.7695
▁कविता	-11.7695
▁हॉट	-11.7695
▁परिषदेदरम्यान	-11.7695
रस	-11.7695
▁माझं	-11.7695
▁अधिकाऱ्यांसोबत	-11.7696
▁प्रक्षेपक	-11.7696
▁सहाशे	-11.7697
▁प्रोजेक्ट	-11.7697
▁इलेक्ट्रीक	-11.7697
▁खर्चाचा	-11.7697
▁टक्केवारी	-11.7698
क्क	-11.7698
▁नाट्य	-11.7699
▁पाहिलं	-11.7699
▁जोडणे	-11.7699
▁धुळे	-11.7699
▁लाभांश	-11.7699
▁कार्यक्रमा	-11.77
▁माउंट	-11.77
▁आकडेवारीनुसार	-11.77
▁चालवण्यात	-11.77
▁चर्चेच्या	-11.7701
▁सिगारेट	-11.7701
▁लाभला	-11.7703
▁सल	-11.7703
▁नेत्र	-11.7704
▁पिढ्यांना	-11.7704
▁लाइफ	-11.7707
▁गर	-11.7709
▁तुट	-11.7709
▁ऐकेल	-11.7712
▁गीता	-11.7712
म्मा	-11.7716
▁स्पेशल	-11.7716
▁तुरूंगात	-11.7718
▁कबरे	-11.7721
▁वीट	-11.7722
▁मार्गाचा	-11.7724
▁सुरुवातीपासून	-11.7725
ण्याआधी	-11.7726
▁प्राणि	-11.7727
▁साधता	-11.7729
▁पृष्ठभागावर	-11.773
▁नोंदवले	-11.7731
▁ताकदी	-11.7741
▁उद्योगांचा	-11.7741
▁योगदानाचे	-11.7742
▁दंत	-11.7745
▁प्रेषितांन	-11.7746
▁धारकांना	-11.7747
▁सर्जनशील	-11.7748
▁कशाची	-11.7753
सहायता	-11.7754
▁पापात	-11.7755
▁आड	-11.7755
▁शिका	-11.7757
मू	-11.7757
▁कालखंडात	-11.7757
▁असलेल्यांना	-11.776
▁आपल्यामध्ये	-11.7761
▁वेद	-11.7761
▁नक्षी	-11.7766
▁कुटुंबाचे	-11.7766
▁कारखान्या	-11.7767
▁०	-11.7768
कांना	-11.7768
▁इंडियाने	-11.7768
▁बो	-11.7768
▁पाठवलेल्या	-11.7771
▁उलगड	-11.7773
▁कर्मचार्‍यां	-11.7775
ाण	-11.7777
▁नाहीं	-11.7779
▁इस्राएलांच्या	-11.778
▁घेतल्याचे	-11.7781
▁भुके	-11.7781
▁जिंकले	-11.7783
▁विजेच्या	-11.7783
▁पात्रे	-11.7784
▁अंगात	-11.7785
▁आतड्या	-11.7786
▁पारख	-11.7786
▁अडकले	-11.779
क्षम	-11.7792
23	-11.7797
▁पदाचा	-11.7798
▁संमेलनात	-11.7799
▁फुंक	-11.7804
▁६५	-11.7807
▁पराक्रमी	-11.7807
पणाने	-11.7809
▁शिकले	-11.7812
▁मुद्द्यां	-11.7815
▁बुड	-11.7818
▁पावसाळ्यात	-11.7818
▁साधा	-11.7818
झो	-11.782
▁मनाची	-11.7821
▁कालखंड	-11.7823
पु	-11.7828
▁माफी	-11.7829
▁यात्रेकरू	-11.7832
▁झाकलेल	-11.7835
ूट	-11.7836
▁साधले	-11.7837
▁पध्दत	-11.7838
▁चळवळीत	-11.784
दक्षिण	-11.7851
ent	-11.7852
▁मुख्यालयात	-11.7857
▁दहशतवादाच्या	-11.7858
▁पहाड	-11.7858
▁बेटे	-11.7859
▁सदा	-11.786
▁कोकरा	-11.7861
स्टर्न	-11.7861
▁यहूदावर	-11.7865
▁रिव्रस्त	-11.7867
▁450	-11.7867
▁टेकड्यांवर	-11.7867
मंदिर	-11.7868
▁दा	-11.7874
यल	-11.7877
▁घोड्यावर	-11.7881
▁करुया	-11.7881
▁ब्रह्म	-11.7882
▁भारतीयांची	-11.7882
▁प्रशस्त	-11.7882
▁पक्ष्यांच्या	-11.7883
▁जमिनीला	-11.7886
▁व्यवहार्य	-11.7888
▁शु	-11.789
▁चमकत	-11.7895
▁बेला	-11.7896
▁सहल	-11.7897
▁एकसमान	-11.7897
▁मानवता	-11.7898
यांनी	-11.7899
▁असल्यासारख	-11.79
▁मिळणारी	-11.79
▁पाठवील	-11.7901
93	-11.7902
▁केंद्रामध्ये	-11.7903
▁गंगटोक	-11.7906
र्योत्तर	-11.7906
▁पूर्वीपेक्षा	-11.7906
▁co	-11.7911
▁86	-11.7915
डोनाल्ड	-11.7915
▁अभियंते	-11.7915
▁धनादेश	-11.7915
▁बलात्कार	-11.7915
▁उन्माद	-11.7915
▁नाभी	-11.7915
▁राफेल	-11.7916
▁तुच्छ	-11.7916
▁आयसीयू	-11.7916
▁कलादालन	-11.7916
▁बेशुद्ध	-11.7916
▁जाळले	-11.7916
▁पुनर्विकास	-11.7916
▁धुणे	-11.7916
▁हुसकावू	-11.7916
▁रायगड	-11.7916
▁कमिशन	-11.7916
▁अंतर्भूत	-11.7916
▁रोगप्रतिकारक	-11.7917
▁गतिशीलता	-11.7917
▁माणासा	-11.7917
▁सफेद	-11.7918
▁सबंधित	-11.7918
▁सायंकाळ	-11.7918
▁बटन	-11.7918
▁छाननी	-11.7918
▁जाण्यापूर्वी	-11.7919
▁1947	-11.7919
▁चौथे	-11.7919
▁कल्पकता	-11.7919
▁मोठं	-11.792
▁शांततामय	-11.792
▁संकुलात	-11.792
▁अनुमती	-11.792
▁सीबीएसई	-11.7921
▁एनएसएस	-11.7921
tec	-11.7921
▁प्रणालीत	-11.7921
▁प्यायल्याने	-11.7922
▁स्वामित्व	-11.7922
▁देखरेखीसाठी	-11.7923
▁यायचे	-11.7923
▁हिमनदी	-11.7924
▁अखंडता	-11.7924
▁प्रकल्पांतर्गत	-11.7924
▁गर्भात	-11.7925
▁रायपूर	-11.7925
▁प्रिंट	-11.7925
▁असल्याप्रमाणे	-11.7926
▁पादत्राणे	-11.7927
▁पिकांसाठी	-11.7927
▁वर्धापनदिन	-11.7927
▁यहूदीया	-11.7927
▁फिरणे	-11.7928
▁मुंबईमध्ये	-11.7929
▁पकडण्यासाठी	-11.793
ांसंदर्भात	-11.7931
▁व्हिजन	-11.7933
▁विकू	-11.7933
▁राबवला	-11.7934
▁झोपू	-11.7935
▁राशी	-11.7935
▁दाखवतात	-11.7935
▁जाण्यापासून	-11.7936
▁स्वीकृती	-11.7936
▁स्पीड	-11.7937
▁गुड	-11.7937
▁हेमान	-11.7938
▁कुटुंबाना	-11.7946
▁दर्शवण्या	-11.7946
▁15,000	-11.7947
▁आजची	-11.7948
▁सप्ताहा	-11.7949
▁घालतात	-11.795
▁शिंपडले	-11.795
▁घाव	-11.795
▁शरीरे	-11.795
▁मजली	-11.7951
पुण्यतिथीनिमित्त	-11.7953
४०	-11.7953
-30	-11.7954
▁बोलण्यासाठी	-11.7954
▁गुरां	-11.7955
▁देशांसोबत	-11.7957
फाट	-11.7958
▁भेटण्यासाठी	-11.7958
▁कंपन्यांसाठी	-11.7959
वाला	-11.7961
▁संघटन	-11.7962
▁स्	-11.7963
▁97	-11.7963
▁हाका	-11.7963
▁मळ्यात	-11.7963
▁बांधलेली	-11.7965
▁दुखव	-11.7965
▁भिंतींवर	-11.7969
▁बदलाचा	-11.7978
▁नामांकने	-11.7978
▁रसात	-11.7978
▁सांगण्याप्रमाणे	-11.7979
90	-11.798
▁शोथ	-11.7981
ल्ड	-11.7982
▁कंपनीच्या	-11.7982
बाबतच्या	-11.7984
▁खजुरीच	-11.7987
▁प्रेस	-11.7988
▁दीपवृक्ष	-11.7994
▁वाक्य	-11.7995
▁यानिमित्त	-11.7995
▁विसंब	-11.7995
▁नेत्यांमध्ये	-11.7995
▁वाढीला	-11.7996
▁राज्‍य	-11.7996
▁मोठ	-11.7999
▁खात्याच्या	-11.8001
▁1)	-11.8004
▁भ्रम	-11.8004
▁माध्यमां	-11.8008
▁धोरणामुळे	-11.8011
▁व्यवसायासाठी	-11.8012
▁इंटर	-11.8013
▁उशीरा	-11.8013
▁निर्णयांची	-11.8015
▁कागदपत्रां	-11.8023
▁विक्रीसाठी	-11.8024
▁ट्रस्टच्या	-11.8024
▁वृद्धीसाठी	-11.8026
▁पुरुषांची	-11.8027
▁बेना	-11.8029
▁नियंत्रणासाठी	-11.8031
▁दाव्यां	-11.8034
▁दाखवील	-11.8035
▁शिक्षणाला	-11.8037
▁यामागे	-11.8038
▁दहशतवाद्यां	-11.8038
िस्त	-11.8038
▁विकासाबाबत	-11.8042
▁योजनांमध्ये	-11.8043
▁सोडाय	-11.8048
▁तुलनेन	-11.8051
ोथ	-11.8051
▁बंधने	-11.8056
ल्ल	-11.8057
▁झटक	-11.8057
▁निभावत	-11.8057
▁अड	-11.8057
▁भागांत	-11.8064
भाग	-11.8066
▁वॅट	-11.8067
▁घोषणे	-11.8067
▁संकटावर	-11.8067
▁वाढल्या	-11.8068
▁तुकड्यां	-11.8073
पीपीई	-11.8078
32	-11.8079
▁चेहर्या	-11.8081
▁गुल	-11.8084
▁पेकह	-11.8085
▁हातावर	-11.8088
▁भागासाठी	-11.8092
▁राखी	-11.8094
▁रॅप	-11.8095
62	-11.8098
▁पशूं	-11.8099
▁कै	-11.81
उद्देश	-11.81
▁उन्हाळा	-11.8103
▁सदनात	-11.8105
रुप	-11.8106
▁मागत	-11.8107
▁राजकुमार	-11.8111
▁१०००	-11.8111
▁पेयार्पण	-11.8111
▁ओक	-11.8112
▁ठिकाणांवर	-11.8115
▁ऊर	-11.8121
▁मार्चला	-11.8121
nic	-11.8122
▁खुणा	-11.8122
र्ज	-11.8124
▁क्षेत्रातली	-11.8124
▁ट्विट	-11.8124
▁डो	-11.8125
▁भान	-11.8125
▁चहाच्या	-11.8128
▁तेलकट	-11.813
▁गुडघ्या	-11.8131
▁गुर	-11.8133
▁दम	-11.8139
▁नवसंकल्पना	-11.814
▁विनम्र	-11.814
▁खिन्न	-11.8141
▁लिहिल्या	-11.8141
▁पॅनेल	-11.8143
▁अमेठी	-11.8143
▁ईजबेल	-11.8143
▁क्रेडीट	-11.8143
▁जोधपूर	-11.8143
▁ढीग	-11.8143
▁पुतळे	-11.8143
▁बिघाड	-11.8143
▁मफीबोशेथ	-11.8143
▁हिशोब	-11.8143
▁हॉस्पिटल	-11.8143
▁भग्नावशेष	-11.8143
▁सफन्या	-11.8143
▁सुकाणू	-11.8143
▁जंतुनाशक	-11.8143
▁फास्टॅग	-11.8143
▁कोरीव	-11.8143
▁अर्धवट	-11.8143
▁तिघे	-11.8143
▁पुरातत्त्व	-11.8143
▁आस्वाद	-11.8143
▁गज्जा	-11.8143
▁मागोवा	-11.8143
▁ओबद्या	-11.8143
▁घृणा	-11.8143
▁देशबांधवांनो	-11.8143
▁2013-14	-11.8143
▁नोंदवला	-11.8143
▁कॅग	-11.8143
▁साधणे	-11.8144
▁प्रतिभावान	-11.8144
▁वर्षाखालील	-11.8144
▁शिजवलेल	-11.8144
▁कुरुक्षेत्र	-11.8144
▁लढले	-11.8144
▁भरभराटी	-11.8145
▁समुद्रमार्ग	-11.8145
▁क्रूझ	-11.8145
▁चर्चेदरम्यान	-11.8145
▁राज्यवर्धन	-11.8146
▁अधिपत्याखाली	-11.8146
▁नाजूक	-11.8147
▁महापौर	-11.8148
▁कुलू	-11.8148
▁एटीएम	-11.8148
बो	-11.8149
▁सपाट	-11.8149
▁2001	-11.8149
▁रविदास	-11.8149
▁बजावण्या	-11.815
▁पॅकेजिंग	-11.8151
ेम	-11.8151
▁बेल्जियम	-11.8151
▁वेश्ये	-11.8151
▁इस्लाम	-11.8151
▁प्रेरक	-11.8152
▁कायद्यानुसार	-11.8153
▁भल्यासाठी	-11.8153
▁आच्छादित	-11.8153
▁मनः	-11.8153
▁पाकिटे	-11.8154
▁निघतात	-11.8154
▁100%	-11.8154
▁कम्युनिकेशन	-11.8156
▁अम्मा	-11.8156
▁सॅनिटायझर्स	-11.8158
▁इंडस्ट्री	-11.8159
▁दूरस्थ	-11.8159
▁पाडण्यासाठी	-11.8159
ंपर्यंत	-11.816
▁फेड	-11.8162
▁खडकावर	-11.8162
▁वाघा	-11.8163
▁92	-11.8163
वाई	-11.8165
▁दृष्टिने	-11.8166
▁धोरणानुसार	-11.8166
▁30,000	-11.8167
▁फसवू	-11.8167
▁साज	-11.8169
अल	-11.8169
▁स्किल	-11.817
प्रीत	-11.8171
▁नातेसंबंध	-11.8171
▁ऐंशी	-11.8173
▁नसती	-11.8173
▁पोल	-11.8177
▁जेवत	-11.8178
▁खिडक्या	-11.8178
▁आस्थे	-11.8178
▁नांगर	-11.8179
▁गरिबांसाठी	-11.818
हुन	-11.8181
▁कपड्यां	-11.8181
▁मोडतो	-11.8183
▁मनोरम	-11.8185
▁बदलणे	-11.8185
▁पाट्या	-11.8192
ाब	-11.8193
▁नितंब	-11.8199
▁भा	-11.8205
▁ठरव	-11.8206
ियम	-11.8208
अधिक	-11.8208
▁कुमारी	-11.821
▁पूजन	-11.8211
▁वाहनांना	-11.8211
▁निर्णयाची	-11.8212
▁अभि	-11.8214
▁ग्लेशियर	-11.8215
▁विद	-11.8216
▁माले	-11.8218
क्स	-11.822
▁व्यवस्थेचे	-11.8221
▁सावर	-11.8223
29	-11.8224
▁जिम	-11.823
▁लाभेल	-11.8231
▁पापामुळे	-11.8233
ायनाट	-11.8236
▁२३	-11.8239
▁98	-11.8239
▁विजेत्यांचे	-11.824
0,000	-11.8241
▁स्थितीमध्ये	-11.8245
▁आवारात	-11.8248
▁कसर	-11.8249
-21	-11.825
ितो	-11.8254
▁भी	-11.8255
▁कायद्यातील	-11.8259
▁वसवले	-11.826
▁माणसावर	-11.8263
▁एंटी	-11.8265
ीव	-11.8267
▁हिंसाचारा	-11.8269
▁मागवण्या	-11.8269
▁राष्ट्रपतींचे	-11.827
▁पाठवता	-11.8278
▁वळले	-11.828
▁प्रक्रियेचा	-11.8281
▁डोंगरा	-11.8281
▁बलामला	-11.8284
▁सूत	-11.8285
▁भरला	-11.8287
▁साई	-11.8288
आहे	-11.8291
▁कालावधीमध्ये	-11.8292
▁आव्हानाला	-11.8294
स्टार्ट	-11.8294
प्पा	-11.8298
▁लोकांपेक्षा	-11.8298
▁मंत्रिगटा	-11.8303
▁किलोमीटरचा	-11.8303
▁प्रेरणे	-11.8303
▁अधिसूचने	-11.8306
▁दाविद	-11.8307
▁तपासणीसाठी	-11.8307
शोथ	-11.8312
▁दलांच्या	-11.8312
▁आजारामध्ये	-11.8312
▁वाहतुकीचा	-11.8313
▁भाज	-11.8317
सारखेच	-11.8319
▁जन्माच्या	-11.832
नुरुप	-11.8322
▁तुटवड	-11.8322
▁पर्यटनासाठी	-11.8323
▁घराचा	-11.8324
▁कामगिरीसाठी	-11.8324
▁साध	-11.8326
▁पाण्यातून	-11.8327
▁उद्योगांमध्ये	-11.8329
97	-11.833
्वा	-11.833
▁सहभागाने	-11.8332
ाव्या	-11.8334
▁सुविधांनी	-11.8336
ंर	-11.8337
▁निधीत	-11.8339
▁शीतगृह	-11.8345
▁विकासदर	-11.8346
अप्स	-11.8347
▁विचारतील	-11.8349
▁पुरस्कारांचे	-11.8354
▁जरुर	-11.8354
....	-11.8354
▁शिष्यां	-11.8355
▁घालावे	-11.8356
▁जोडे	-11.8356
▁काढावे	-11.8356
▁भरणा	-11.8357
▁पळव	-11.8362
▁श्याम	-11.8362
▁मोठमोठ	-11.8363
▁अनुयायांन	-11.8363
▁याचबरोबर	-11.8367
▁वाहात	-11.8369
▁कोहिमा	-11.8369
▁छतावर	-11.8371
▁करोड	-11.8373
▁त्यांच्यासोबत	-11.8375
▁ओएनजीसी	-11.8375
▁कारणास्तव	-11.8375
▁डिजिटायझेशन	-11.8375
▁धिक्कार	-11.8375
▁पपई	-11.8375
▁ब्रॉडबँड	-11.8375
▁लढवय्ये	-11.8375
▁अजंठा	-11.8375
▁दृष्टिकोण	-11.8375
▁अभिनय	-11.8375
▁सेऊल	-11.8375
▁दुपदरीकरण	-11.8375
▁संचालित	-11.8375
▁अंतर्भाव	-11.8375
▁संयंत्र	-11.8375
▁फुकट	-11.8376
▁मद्यपान	-11.8376
▁धोके	-11.8376
▁सतीश	-11.8376
▁जकातदार	-11.8376
▁बद्रीनाथ	-11.8376
▁बस्तर	-11.8376
▁स्नो	-11.8376
▁फव्व्या	-11.8376
▁मुद्रांक	-11.8376
▁टाळणे	-11.8376
▁विपर	-11.8376
▁सल्ल्यानुसार	-11.8376
▁गाढ	-11.8376
▁माल्टा	-11.8376
▁पोहोचणे	-11.8376
▁परेड	-11.8377
▁अपवाद	-11.8378
▁मुद्यांबाबत	-11.8378
▁सुवासिक	-11.8379
▁कुलगुरू	-11.8379
▁नग्न	-11.8379
▁भारतरत्न	-11.8379
▁त्वर	-11.838
▁स्टॉक	-11.8381
▁समावेशकता	-11.8381
▁मारणे	-11.8381
▁सीएनजी	-11.8382
▁हुन	-11.8383
▁सूड	-11.8384
▁भल्या	-11.8385
▁सर्जिकल	-11.8385
खी	-11.8385
▁महाविद्यालयात	-11.8386
▁ऑल	-11.8386
▁बिंदू	-11.8387
▁उभारला	-11.8387
▁2003	-11.8389
▁बुडव	-11.8389
स्सर	-11.8389
▁पोहचते	-11.839
▁गृहमंत्रालयाने	-11.8391
▁लोकांकरिता	-11.8391
▁उचलेल	-11.8392
▁प्रेमळ	-11.8392
▁कारखान्यांना	-11.8393
▁मिरची	-11.8394
▁सापडलेल्या	-11.8396
▁फाशी	-11.8396
▁रिअल	-11.8396
दूर	-11.8397
▁मच्छीमार	-11.8398
ंचं	-11.8399
▁इस्राएलीं	-11.8399
▁खर्चाची	-11.8399
▁गुंडाळी	-11.84
▁आपल्यात	-11.8401
▁संस्थांचा	-11.8401
▁कामांची	-11.8403
▁शंख	-11.8404
▁संशोधकांना	-11.8404
▁टाकण्यासाठी	-11.8404
-17	-11.8405
▁50%	-11.8406
▁तंत्रज्ञानात	-11.8406
▁एकतर	-11.8406
▁कळपा	-11.8408
▁समुदायाशी	-11.8409
िणी	-11.8409
▁बिग	-11.8411
▁कार्यशाळेत	-11.8411
▁गुंतवणूकीसाठी	-11.8413
▁देवळात	-11.8414
▁गिनी	-11.8415
▁पश्चात	-11.8415
▁निर्णयाचा	-11.8416
▁सेवांची	-11.8419
दो	-11.8422
▁केल्याशिवाय	-11.8423
▁सुधारणांसाठी	-11.8425
▁गरजेची	-11.8426
▁नसला	-11.8426
▁मारण्याची	-11.8427
▁142	-11.8429
▁पडताळ	-11.843
पत	-11.8432
▁सज्जते	-11.8433
▁होण्यापासून	-11.8437
▁कामगिरीवर	-11.8439
▁मध्यरात्री	-11.8439
▁न्यूज	-11.844
▁बैर	-11.8442
▁पळाले	-11.8443
▁आव	-11.8446
▁3)	-11.845
▁कापडाचा	-11.8451
▁पेट	-11.8451
फाय	-11.8452
▁नविन	-11.8453
▁ओळखल्या	-11.8456
▁अग्री	-11.8457
▁उत्पादनाचा	-11.8461
▁तंत्रज्ञानाला	-11.8461
नॉर्थ	-11.8462
▁करण्याने	-11.8462
लन	-11.8462
▁नोटा	-11.8462
खो	-11.8462
वारी	-11.8465
▁थंडीमध्ये	-11.8467
▁नववर्षा	-11.8467
▁नाका	-11.847
▁एड	-11.8473
▁पालथ	-11.8473
▁घालवले	-11.8474
▁पैशाचा	-11.8476
▁अधिकाऱ्यांचा	-11.8479
▁सन्	-11.848
▁भगिनीनो	-11.8481
वाने	-11.8481
▁नियमशास्त्रात	-11.8485
▁आधारलेल	-11.8486
▁समजूत	-11.8486
क्शन	-11.849
▁खेड्यां	-11.8491
ज्	-11.8491
▁वेगळीच	-11.8497
्सच्या	-11.8497
▁चीनी	-11.8502
▁हाकल	-11.8504
▁तोफ	-11.8507
▁खास्द	-11.8514
▁हिवाळ्या	-11.8516
▁महासंघाच्या	-11.8524
▁म्हातार	-11.8524
इंडिय	-11.8527
▁धन्या	-11.8527
▁जगले	-11.853
सीसी	-11.8531
▁होळी	-11.8531
▁शस्त्रास्त्र	-11.8534
श्वस्त	-11.8538
▁कंबरे	-11.8538
▁उद्योगांचे	-11.8539
▁लॉ	-11.854
▁खण	-11.8544
प्रधान	-11.8547
▁दादा	-11.8548
आसियान	-11.8549
▁अम्मोन	-11.8554
चित्र	-11.8554
दहा	-11.8555
▁सुशोभि	-11.8557
▁कपड्या	-11.8559
पातळीवर	-11.8559
्यासाठी	-11.8561
▁नारा	-11.8562
▁अंथरुणावर	-11.8563
▁संवेदनशीलते	-11.8564
▁घरं	-11.8566
n	-11.8568
▁पुला	-11.8569
ेकडील	-11.8572
▁पुरुषांच्या	-11.8574
.15	-11.8576
▁क्षमतेवर	-11.8583
▁आजारांचा	-11.8583
▁खाडी	-11.8585
▁बेनहदाद	-11.8587
▁निर्मिले	-11.8588
कांत	-11.8588
▁चेहऱ्या	-11.8591
▁मातृभूमी	-11.8591
[...]
